{
  "version": "1.0",
  "truncation": null,
  "padding": null,
  "added_tokens": [
    {
      "id": 0,
      "content": "<|pad|>",
      "single_word": false,
      "lstrip": false,
      "rstrip": false,
      "normalized": false,
      "special": true
    },
    {
      "id": 1,
      "content": "<|start|>",
      "single_word": false,
      "lstrip": false,
      "rstrip": false,
      "normalized": false,
      "special": true
    },
    {
      "id": 2,
      "content": "<|reply|>",
      "single_word": false,
      "lstrip": false,
      "rstrip": false,
      "normalized": false,
      "special": true
    },
    {
      "id": 3,
      "content": "<|end|>",
      "single_word": false,
      "lstrip": false,
      "rstrip": false,
      "normalized": false,
      "special": true
    },
    {
      "id": 4,
      "content": "[LUC_BAT]",
      "single_word": false,
      "lstrip": false,
      "rstrip": false,
      "normalized": false,
      "special": true
    },
    {
      "id": 5,
      "content": "[TU_TUYET]",
      "single_word": false,
      "lstrip": false,
      "rstrip": false,
      "normalized": false,
      "special": true
    },
    {
      "id": 6,
      "content": "[THAT_NGON_BAT_CU]",
      "single_word": false,
      "lstrip": false,
      "rstrip": false,
      "normalized": false,
      "special": true
    },
    {
      "id": 7,
      "content": "[THAT_NGON]",
      "single_word": false,
      "lstrip": false,
      "rstrip": false,
      "normalized": false,
      "special": true
    },
    {
      "id": 8,
      "content": "[DOI_THO]",
      "single_word": false,
      "lstrip": false,
      "rstrip": false,
      "normalized": false,
      "special": true
    },
    {
      "id": 9,
      "content": "<|linebreak|>",
      "single_word": false,
      "lstrip": false,
      "rstrip": false,
      "normalized": false,
      "special": true
    },
    {
      "id": 10,
      "content": "[RHYME:a]",
      "single_word": false,
      "lstrip": false,
      "rstrip": false,
      "normalized": false,
      "special": true
    },
    {
      "id": 11,
      "content": "[RHYME:ac]",
      "single_word": false,
      "lstrip": false,
      "rstrip": false,
      "normalized": false,
      "special": true
    },
    {
      "id": 12,
      "content": "[RHYME:ach]",
      "single_word": false,
      "lstrip": false,
      "rstrip": false,
      "normalized": false,
      "special": true
    },
    {
      "id": 13,
      "content": "[RHYME:ah]",
      "single_word": false,
      "lstrip": false,
      "rstrip": false,
      "normalized": false,
      "special": true
    },
    {
      "id": 14,
      "content": "[RHYME:ak]",
      "single_word": false,
      "lstrip": false,
      "rstrip": false,
      "normalized": false,
      "special": true
    },
    {
      "id": 15,
      "content": "[RHYME:al]",
      "single_word": false,
      "lstrip": false,
      "rstrip": false,
      "normalized": false,
      "special": true
    },
    {
      "id": 16,
      "content": "[RHYME:am]",
      "single_word": false,
      "lstrip": false,
      "rstrip": false,
      "normalized": false,
      "special": true
    },
    {
      "id": 17,
      "content": "[RHYME:amg]",
      "single_word": false,
      "lstrip": false,
      "rstrip": false,
      "normalized": false,
      "special": true
    },
    {
      "id": 18,
      "content": "[RHYME:amh]",
      "single_word": false,
      "lstrip": false,
      "rstrip": false,
      "normalized": false,
      "special": true
    },
    {
      "id": 19,
      "content": "[RHYME:ammm]",
      "single_word": false,
      "lstrip": false,
      "rstrip": false,
      "normalized": false,
      "special": true
    },
    {
      "id": 20,
      "content": "[RHYME:an]",
      "single_word": false,
      "lstrip": false,
      "rstrip": false,
      "normalized": false,
      "special": true
    },
    {
      "id": 21,
      "content": "[RHYME:ang]",
      "single_word": false,
      "lstrip": false,
      "rstrip": false,
      "normalized": false,
      "special": true
    },
    {
      "id": 22,
      "content": "[RHYME:angl]",
      "single_word": false,
      "lstrip": false,
      "rstrip": false,
      "normalized": false,
      "special": true
    },
    {
      "id": 23,
      "content": "[RHYME:angmt]",
      "single_word": false,
      "lstrip": false,
      "rstrip": false,
      "normalized": false,
      "special": true
    },
    {
      "id": 24,
      "content": "[RHYME:anh]",
      "single_word": false,
      "lstrip": false,
      "rstrip": false,
      "normalized": false,
      "special": true
    },
    {
      "id": 25,
      "content": "[RHYME:ap]",
      "single_word": false,
      "lstrip": false,
      "rstrip": false,
      "normalized": false,
      "special": true
    },
    {
      "id": 26,
      "content": "[RHYME:ar]",
      "single_word": false,
      "lstrip": false,
      "rstrip": false,
      "normalized": false,
      "special": true
    },
    {
      "id": 27,
      "content": "[RHYME:arm]",
      "single_word": false,
      "lstrip": false,
      "rstrip": false,
      "normalized": false,
      "special": true
    },
    {
      "id": 28,
      "content": "[RHYME:as]",
      "single_word": false,
      "lstrip": false,
      "rstrip": false,
      "normalized": false,
      "special": true
    },
    {
      "id": 29,
      "content": "[RHYME:at]",
      "single_word": false,
      "lstrip": false,
      "rstrip": false,
      "normalized": false,
      "special": true
    },
    {
      "id": 30,
      "content": "[RHYME:atv]",
      "single_word": false,
      "lstrip": false,
      "rstrip": false,
      "normalized": false,
      "special": true
    },
    {
      "id": 31,
      "content": "[RHYME:b]",
      "single_word": false,
      "lstrip": false,
      "rstrip": false,
      "normalized": false,
      "special": true
    },
    {
      "id": 32,
      "content": "[RHYME:ck]",
      "single_word": false,
      "lstrip": false,
      "rstrip": false,
      "normalized": false,
      "special": true
    },
    {
      "id": 33,
      "content": "[RHYME:clb]",
      "single_word": false,
      "lstrip": false,
      "rstrip": false,
      "normalized": false,
      "special": true
    },
    {
      "id": 34,
      "content": "[RHYME:d]",
      "single_word": false,
      "lstrip": false,
      "rstrip": false,
      "normalized": false,
      "special": true
    },
    {
      "id": 35,
      "content": "[RHYME:dnh]",
      "single_word": false,
      "lstrip": false,
      "rstrip": false,
      "normalized": false,
      "special": true
    },
    {
      "id": 36,
      "content": "[RHYME:e]",
      "single_word": false,
      "lstrip": false,
      "rstrip": false,
      "normalized": false,
      "special": true
    },
    {
      "id": 37,
      "content": "[RHYME:el]",
      "single_word": false,
      "lstrip": false,
      "rstrip": false,
      "normalized": false,
      "special": true
    },
    {
      "id": 38,
      "content": "[RHYME:em]",
      "single_word": false,
      "lstrip": false,
      "rstrip": false,
      "normalized": false,
      "special": true
    },
    {
      "id": 39,
      "content": "[RHYME:en]",
      "single_word": false,
      "lstrip": false,
      "rstrip": false,
      "normalized": false,
      "special": true
    },
    {
      "id": 40,
      "content": "[RHYME:eng]",
      "single_word": false,
      "lstrip": false,
      "rstrip": false,
      "normalized": false,
      "special": true
    },
    {
      "id": 41,
      "content": "[RHYME:ep]",
      "single_word": false,
      "lstrip": false,
      "rstrip": false,
      "normalized": false,
      "special": true
    },
    {
      "id": 42,
      "content": "[RHYME:er]",
      "single_word": false,
      "lstrip": false,
      "rstrip": false,
      "normalized": false,
      "special": true
    },
    {
      "id": 43,
      "content": "[RHYME:es]",
      "single_word": false,
      "lstrip": false,
      "rstrip": false,
      "normalized": false,
      "special": true
    },
    {
      "id": 44,
      "content": "[RHYME:et]",
      "single_word": false,
      "lstrip": false,
      "rstrip": false,
      "normalized": false,
      "special": true
    },
    {
      "id": 45,
      "content": "[RHYME:f]",
      "single_word": false,
      "lstrip": false,
      "rstrip": false,
      "normalized": false,
      "special": true
    },
    {
      "id": 46,
      "content": "[RHYME:fb]",
      "single_word": false,
      "lstrip": false,
      "rstrip": false,
      "normalized": false,
      "special": true
    },
    {
      "id": 47,
      "content": "[RHYME:g]",
      "single_word": false,
      "lstrip": false,
      "rstrip": false,
      "normalized": false,
      "special": true
    },
    {
      "id": 48,
      "content": "[RHYME:h]",
      "single_word": false,
      "lstrip": false,
      "rstrip": false,
      "normalized": false,
      "special": true
    },
    {
      "id": 49,
      "content": "[RHYME:i]",
      "single_word": false,
      "lstrip": false,
      "rstrip": false,
      "normalized": false,
      "special": true
    },
    {
      "id": 50,
      "content": "[RHYME:ich]",
      "single_word": false,
      "lstrip": false,
      "rstrip": false,
      "normalized": false,
      "special": true
    },
    {
      "id": 51,
      "content": "[RHYME:id]",
      "single_word": false,
      "lstrip": false,
      "rstrip": false,
      "normalized": false,
      "special": true
    },
    {
      "id": 52,
      "content": "[RHYME:il]",
      "single_word": false,
      "lstrip": false,
      "rstrip": false,
      "normalized": false,
      "special": true
    },
    {
      "id": 53,
      "content": "[RHYME:im]",
      "single_word": false,
      "lstrip": false,
      "rstrip": false,
      "normalized": false,
      "special": true
    },
    {
      "id": 54,
      "content": "[RHYME:in]",
      "single_word": false,
      "lstrip": false,
      "rstrip": false,
      "normalized": false,
      "special": true
    },
    {
      "id": 55,
      "content": "[RHYME:inch]",
      "single_word": false,
      "lstrip": false,
      "rstrip": false,
      "normalized": false,
      "special": true
    },
    {
      "id": 56,
      "content": "[RHYME:ing]",
      "single_word": false,
      "lstrip": false,
      "rstrip": false,
      "normalized": false,
      "special": true
    },
    {
      "id": 57,
      "content": "[RHYME:ingf]",
      "single_word": false,
      "lstrip": false,
      "rstrip": false,
      "normalized": false,
      "special": true
    },
    {
      "id": 58,
      "content": "[RHYME:inh]",
      "single_word": false,
      "lstrip": false,
      "rstrip": false,
      "normalized": false,
      "special": true
    },
    {
      "id": 59,
      "content": "[RHYME:inhf]",
      "single_word": false,
      "lstrip": false,
      "rstrip": false,
      "normalized": false,
      "special": true
    },
    {
      "id": 60,
      "content": "[RHYME:ins]",
      "single_word": false,
      "lstrip": false,
      "rstrip": false,
      "normalized": false,
      "special": true
    },
    {
      "id": 61,
      "content": "[RHYME:ip]",
      "single_word": false,
      "lstrip": false,
      "rstrip": false,
      "normalized": false,
      "special": true
    },
    {
      "id": 62,
      "content": "[RHYME:it]",
      "single_word": false,
      "lstrip": false,
      "rstrip": false,
      "normalized": false,
      "special": true
    },
    {
      "id": 63,
      "content": "[RHYME:iz]",
      "single_word": false,
      "lstrip": false,
      "rstrip": false,
      "normalized": false,
      "special": true
    },
    {
      "id": 64,
      "content": "[RHYME:iđ]",
      "single_word": false,
      "lstrip": false,
      "rstrip": false,
      "normalized": false,
      "special": true
    },
    {
      "id": 65,
      "content": "[RHYME:k]",
      "single_word": false,
      "lstrip": false,
      "rstrip": false,
      "normalized": false,
      "special": true
    },
    {
      "id": 66,
      "content": "[RHYME:kg]",
      "single_word": false,
      "lstrip": false,
      "rstrip": false,
      "normalized": false,
      "special": true
    },
    {
      "id": 67,
      "content": "[RHYME:l]",
      "single_word": false,
      "lstrip": false,
      "rstrip": false,
      "normalized": false,
      "special": true
    },
    {
      "id": 68,
      "content": "[RHYME:mk]",
      "single_word": false,
      "lstrip": false,
      "rstrip": false,
      "normalized": false,
      "special": true
    },
    {
      "id": 69,
      "content": "[RHYME:n]",
      "single_word": false,
      "lstrip": false,
      "rstrip": false,
      "normalized": false,
      "special": true
    },
    {
      "id": 70,
      "content": "[RHYME:nhµ]",
      "single_word": false,
      "lstrip": false,
      "rstrip": false,
      "normalized": false,
      "special": true
    },
    {
      "id": 71,
      "content": "[RHYME:nhö]",
      "single_word": false,
      "lstrip": false,
      "rstrip": false,
      "normalized": false,
      "special": true
    },
    {
      "id": 72,
      "content": "[RHYME:nǎm]",
      "single_word": false,
      "lstrip": false,
      "rstrip": false,
      "normalized": false,
      "special": true
    },
    {
      "id": 73,
      "content": "[RHYME:o]",
      "single_word": false,
      "lstrip": false,
      "rstrip": false,
      "normalized": false,
      "special": true
    },
    {
      "id": 74,
      "content": "[RHYME:oc]",
      "single_word": false,
      "lstrip": false,
      "rstrip": false,
      "normalized": false,
      "special": true
    },
    {
      "id": 75,
      "content": "[RHYME:og]",
      "single_word": false,
      "lstrip": false,
      "rstrip": false,
      "normalized": false,
      "special": true
    },
    {
      "id": 76,
      "content": "[RHYME:om]",
      "single_word": false,
      "lstrip": false,
      "rstrip": false,
      "normalized": false,
      "special": true
    },
    {
      "id": 77,
      "content": "[RHYME:on]",
      "single_word": false,
      "lstrip": false,
      "rstrip": false,
      "normalized": false,
      "special": true
    },
    {
      "id": 78,
      "content": "[RHYME:ong]",
      "single_word": false,
      "lstrip": false,
      "rstrip": false,
      "normalized": false,
      "special": true
    },
    {
      "id": 79,
      "content": "[RHYME:onhf]",
      "single_word": false,
      "lstrip": false,
      "rstrip": false,
      "normalized": false,
      "special": true
    },
    {
      "id": 80,
      "content": "[RHYME:op]",
      "single_word": false,
      "lstrip": false,
      "rstrip": false,
      "normalized": false,
      "special": true
    },
    {
      "id": 81,
      "content": "[RHYME:or]",
      "single_word": false,
      "lstrip": false,
      "rstrip": false,
      "normalized": false,
      "special": true
    },
    {
      "id": 82,
      "content": "[RHYME:ot]",
      "single_word": false,
      "lstrip": false,
      "rstrip": false,
      "normalized": false,
      "special": true
    },
    {
      "id": 83,
      "content": "[RHYME:th]",
      "single_word": false,
      "lstrip": false,
      "rstrip": false,
      "normalized": false,
      "special": true
    },
    {
      "id": 84,
      "content": "[RHYME:u]",
      "single_word": false,
      "lstrip": false,
      "rstrip": false,
      "normalized": false,
      "special": true
    },
    {
      "id": 85,
      "content": "[RHYME:uc]",
      "single_word": false,
      "lstrip": false,
      "rstrip": false,
      "normalized": false,
      "special": true
    },
    {
      "id": 86,
      "content": "[RHYME:um]",
      "single_word": false,
      "lstrip": false,
      "rstrip": false,
      "normalized": false,
      "special": true
    },
    {
      "id": 87,
      "content": "[RHYME:ump]",
      "single_word": false,
      "lstrip": false,
      "rstrip": false,
      "normalized": false,
      "special": true
    },
    {
      "id": 88,
      "content": "[RHYME:un]",
      "single_word": false,
      "lstrip": false,
      "rstrip": false,
      "normalized": false,
      "special": true
    },
    {
      "id": 89,
      "content": "[RHYME:ung]",
      "single_word": false,
      "lstrip": false,
      "rstrip": false,
      "normalized": false,
      "special": true
    },
    {
      "id": 90,
      "content": "[RHYME:ungg]",
      "single_word": false,
      "lstrip": false,
      "rstrip": false,
      "normalized": false,
      "special": true
    },
    {
      "id": 91,
      "content": "[RHYME:ur]",
      "single_word": false,
      "lstrip": false,
      "rstrip": false,
      "normalized": false,
      "special": true
    },
    {
      "id": 92,
      "content": "[RHYME:ut]",
      "single_word": false,
      "lstrip": false,
      "rstrip": false,
      "normalized": false,
      "special": true
    },
    {
      "id": 93,
      "content": "[RHYME:uvs]",
      "single_word": false,
      "lstrip": false,
      "rstrip": false,
      "normalized": false,
      "special": true
    },
    {
      "id": 94,
      "content": "[RHYME:v]",
      "single_word": false,
      "lstrip": false,
      "rstrip": false,
      "normalized": false,
      "special": true
    },
    {
      "id": 95,
      "content": "[RHYME:y]",
      "single_word": false,
      "lstrip": false,
      "rstrip": false,
      "normalized": false,
      "special": true
    },
    {
      "id": 96,
      "content": "[RHYME:ym]",
      "single_word": false,
      "lstrip": false,
      "rstrip": false,
      "normalized": false,
      "special": true
    },
    {
      "id": 97,
      "content": "[RHYME:ynh]",
      "single_word": false,
      "lstrip": false,
      "rstrip": false,
      "normalized": false,
      "special": true
    },
    {
      "id": 98,
      "content": "[RHYME:ys]",
      "single_word": false,
      "lstrip": false,
      "rstrip": false,
      "normalized": false,
      "special": true
    },
    {
      "id": 99,
      "content": "[RHYME:â]",
      "single_word": false,
      "lstrip": false,
      "rstrip": false,
      "normalized": false,
      "special": true
    },
    {
      "id": 100,
      "content": "[RHYME:âm]",
      "single_word": false,
      "lstrip": false,
      "rstrip": false,
      "normalized": false,
      "special": true
    },
    {
      "id": 101,
      "content": "[RHYME:ân]",
      "single_word": false,
      "lstrip": false,
      "rstrip": false,
      "normalized": false,
      "special": true
    },
    {
      "id": 102,
      "content": "[RHYME:âng]",
      "single_word": false,
      "lstrip": false,
      "rstrip": false,
      "normalized": false,
      "special": true
    },
    {
      "id": 103,
      "content": "[RHYME:âp]",
      "single_word": false,
      "lstrip": false,
      "rstrip": false,
      "normalized": false,
      "special": true
    },
    {
      "id": 104,
      "content": "[RHYME:ât]",
      "single_word": false,
      "lstrip": false,
      "rstrip": false,
      "normalized": false,
      "special": true
    },
    {
      "id": 105,
      "content": "[RHYME:ê]",
      "single_word": false,
      "lstrip": false,
      "rstrip": false,
      "normalized": false,
      "special": true
    },
    {
      "id": 106,
      "content": "[RHYME:êc]",
      "single_word": false,
      "lstrip": false,
      "rstrip": false,
      "normalized": false,
      "special": true
    },
    {
      "id": 107,
      "content": "[RHYME:êdl]",
      "single_word": false,
      "lstrip": false,
      "rstrip": false,
      "normalized": false,
      "special": true
    },
    {
      "id": 108,
      "content": "[RHYME:êh]",
      "single_word": false,
      "lstrip": false,
      "rstrip": false,
      "normalized": false,
      "special": true
    },
    {
      "id": 109,
      "content": "[RHYME:êm]",
      "single_word": false,
      "lstrip": false,
      "rstrip": false,
      "normalized": false,
      "special": true
    },
    {
      "id": 110,
      "content": "[RHYME:ên]",
      "single_word": false,
      "lstrip": false,
      "rstrip": false,
      "normalized": false,
      "special": true
    },
    {
      "id": 111,
      "content": "[RHYME:êng]",
      "single_word": false,
      "lstrip": false,
      "rstrip": false,
      "normalized": false,
      "special": true
    },
    {
      "id": 112,
      "content": "[RHYME:êngl]",
      "single_word": false,
      "lstrip": false,
      "rstrip": false,
      "normalized": false,
      "special": true
    },
    {
      "id": 113,
      "content": "[RHYME:ênh]",
      "single_word": false,
      "lstrip": false,
      "rstrip": false,
      "normalized": false,
      "special": true
    },
    {
      "id": 114,
      "content": "[RHYME:êp]",
      "single_word": false,
      "lstrip": false,
      "rstrip": false,
      "normalized": false,
      "special": true
    },
    {
      "id": 115,
      "content": "[RHYME:êt]",
      "single_word": false,
      "lstrip": false,
      "rstrip": false,
      "normalized": false,
      "special": true
    },
    {
      "id": 116,
      "content": "[RHYME:ô]",
      "single_word": false,
      "lstrip": false,
      "rstrip": false,
      "normalized": false,
      "special": true
    },
    {
      "id": 117,
      "content": "[RHYME:ôc]",
      "single_word": false,
      "lstrip": false,
      "rstrip": false,
      "normalized": false,
      "special": true
    },
    {
      "id": 118,
      "content": "[RHYME:ôg]",
      "single_word": false,
      "lstrip": false,
      "rstrip": false,
      "normalized": false,
      "special": true
    },
    {
      "id": 119,
      "content": "[RHYME:ôl]",
      "single_word": false,
      "lstrip": false,
      "rstrip": false,
      "normalized": false,
      "special": true
    },
    {
      "id": 120,
      "content": "[RHYME:ôm]",
      "single_word": false,
      "lstrip": false,
      "rstrip": false,
      "normalized": false,
      "special": true
    },
    {
      "id": 121,
      "content": "[RHYME:ôml]",
      "single_word": false,
      "lstrip": false,
      "rstrip": false,
      "normalized": false,
      "special": true
    },
    {
      "id": 122,
      "content": "[RHYME:ôn]",
      "single_word": false,
      "lstrip": false,
      "rstrip": false,
      "normalized": false,
      "special": true
    },
    {
      "id": 123,
      "content": "[RHYME:ông]",
      "single_word": false,
      "lstrip": false,
      "rstrip": false,
      "normalized": false,
      "special": true
    },
    {
      "id": 124,
      "content": "[RHYME:ônh]",
      "single_word": false,
      "lstrip": false,
      "rstrip": false,
      "normalized": false,
      "special": true
    },
    {
      "id": 125,
      "content": "[RHYME:ôt]",
      "single_word": false,
      "lstrip": false,
      "rstrip": false,
      "normalized": false,
      "special": true
    },
    {
      "id": 126,
      "content": "[RHYME:ă]",
      "single_word": false,
      "lstrip": false,
      "rstrip": false,
      "normalized": false,
      "special": true
    },
    {
      "id": 127,
      "content": "[RHYME:ăc]",
      "single_word": false,
      "lstrip": false,
      "rstrip": false,
      "normalized": false,
      "special": true
    },
    {
      "id": 128,
      "content": "[RHYME:ăm]",
      "single_word": false,
      "lstrip": false,
      "rstrip": false,
      "normalized": false,
      "special": true
    },
    {
      "id": 129,
      "content": "[RHYME:ăn]",
      "single_word": false,
      "lstrip": false,
      "rstrip": false,
      "normalized": false,
      "special": true
    },
    {
      "id": 130,
      "content": "[RHYME:ăng]",
      "single_word": false,
      "lstrip": false,
      "rstrip": false,
      "normalized": false,
      "special": true
    },
    {
      "id": 131,
      "content": "[RHYME:ăp]",
      "single_word": false,
      "lstrip": false,
      "rstrip": false,
      "normalized": false,
      "special": true
    },
    {
      "id": 132,
      "content": "[RHYME:ăt]",
      "single_word": false,
      "lstrip": false,
      "rstrip": false,
      "normalized": false,
      "special": true
    },
    {
      "id": 133,
      "content": "[RHYME:đ]",
      "single_word": false,
      "lstrip": false,
      "rstrip": false,
      "normalized": false,
      "special": true
    },
    {
      "id": 134,
      "content": "[RHYME:ơ]",
      "single_word": false,
      "lstrip": false,
      "rstrip": false,
      "normalized": false,
      "special": true
    },
    {
      "id": 135,
      "content": "[RHYME:ơc]",
      "single_word": false,
      "lstrip": false,
      "rstrip": false,
      "normalized": false,
      "special": true
    },
    {
      "id": 136,
      "content": "[RHYME:ơg]",
      "single_word": false,
      "lstrip": false,
      "rstrip": false,
      "normalized": false,
      "special": true
    },
    {
      "id": 137,
      "content": "[RHYME:ơm]",
      "single_word": false,
      "lstrip": false,
      "rstrip": false,
      "normalized": false,
      "special": true
    },
    {
      "id": 138,
      "content": "[RHYME:ơn]",
      "single_word": false,
      "lstrip": false,
      "rstrip": false,
      "normalized": false,
      "special": true
    },
    {
      "id": 139,
      "content": "[RHYME:ơng]",
      "single_word": false,
      "lstrip": false,
      "rstrip": false,
      "normalized": false,
      "special": true
    },
    {
      "id": 140,
      "content": "[RHYME:ơt]",
      "single_word": false,
      "lstrip": false,
      "rstrip": false,
      "normalized": false,
      "special": true
    },
    {
      "id": 141,
      "content": "[RHYME:ơtv]",
      "single_word": false,
      "lstrip": false,
      "rstrip": false,
      "normalized": false,
      "special": true
    },
    {
      "id": 142,
      "content": "[RHYME:ư]",
      "single_word": false,
      "lstrip": false,
      "rstrip": false,
      "normalized": false,
      "special": true
    },
    {
      "id": 143,
      "content": "[RHYME:ưc]",
      "single_word": false,
      "lstrip": false,
      "rstrip": false,
      "normalized": false,
      "special": true
    },
    {
      "id": 144,
      "content": "[RHYME:ưn]",
      "single_word": false,
      "lstrip": false,
      "rstrip": false,
      "normalized": false,
      "special": true
    },
    {
      "id": 145,
      "content": "[RHYME:ưng]",
      "single_word": false,
      "lstrip": false,
      "rstrip": false,
      "normalized": false,
      "special": true
    },
    {
      "id": 146,
      "content": "[RHYME:ưt]",
      "single_word": false,
      "lstrip": false,
      "rstrip": false,
      "normalized": false,
      "special": true
    },
    {
      "id": 147,
      "content": "[TONE:BBBBBB]",
      "single_word": false,
      "lstrip": false,
      "rstrip": false,
      "normalized": false,
      "special": true
    },
    {
      "id": 148,
      "content": "[TONE:BBBBBT]",
      "single_word": false,
      "lstrip": false,
      "rstrip": false,
      "normalized": false,
      "special": true
    },
    {
      "id": 149,
      "content": "[TONE:BBBBTB]",
      "single_word": false,
      "lstrip": false,
      "rstrip": false,
      "normalized": false,
      "special": true
    },
    {
      "id": 150,
      "content": "[TONE:BBBBTT]",
      "single_word": false,
      "lstrip": false,
      "rstrip": false,
      "normalized": false,
      "special": true
    },
    {
      "id": 151,
      "content": "[TONE:BBBTBB]",
      "single_word": false,
      "lstrip": false,
      "rstrip": false,
      "normalized": false,
      "special": true
    },
    {
      "id": 152,
      "content": "[TONE:BBBTBT]",
      "single_word": false,
      "lstrip": false,
      "rstrip": false,
      "normalized": false,
      "special": true
    },
    {
      "id": 153,
      "content": "[TONE:BBBTTB]",
      "single_word": false,
      "lstrip": false,
      "rstrip": false,
      "normalized": false,
      "special": true
    },
    {
      "id": 154,
      "content": "[TONE:BBBTTT]",
      "single_word": false,
      "lstrip": false,
      "rstrip": false,
      "normalized": false,
      "special": true
    },
    {
      "id": 155,
      "content": "[TONE:BBTBBB]",
      "single_word": false,
      "lstrip": false,
      "rstrip": false,
      "normalized": false,
      "special": true
    },
    {
      "id": 156,
      "content": "[TONE:BBTBBT]",
      "single_word": false,
      "lstrip": false,
      "rstrip": false,
      "normalized": false,
      "special": true
    },
    {
      "id": 157,
      "content": "[TONE:BBTBTB]",
      "single_word": false,
      "lstrip": false,
      "rstrip": false,
      "normalized": false,
      "special": true
    },
    {
      "id": 158,
      "content": "[TONE:BBTBTT]",
      "single_word": false,
      "lstrip": false,
      "rstrip": false,
      "normalized": false,
      "special": true
    },
    {
      "id": 159,
      "content": "[TONE:BBTTBB]",
      "single_word": false,
      "lstrip": false,
      "rstrip": false,
      "normalized": false,
      "special": true
    },
    {
      "id": 160,
      "content": "[TONE:BBTTBT]",
      "single_word": false,
      "lstrip": false,
      "rstrip": false,
      "normalized": false,
      "special": true
    },
    {
      "id": 161,
      "content": "[TONE:BBTTTB]",
      "single_word": false,
      "lstrip": false,
      "rstrip": false,
      "normalized": false,
      "special": true
    },
    {
      "id": 162,
      "content": "[TONE:BBTTTT]",
      "single_word": false,
      "lstrip": false,
      "rstrip": false,
      "normalized": false,
      "special": true
    },
    {
      "id": 163,
      "content": "[TONE:BTBBBB]",
      "single_word": false,
      "lstrip": false,
      "rstrip": false,
      "normalized": false,
      "special": true
    },
    {
      "id": 164,
      "content": "[TONE:BTBBBT]",
      "single_word": false,
      "lstrip": false,
      "rstrip": false,
      "normalized": false,
      "special": true
    },
    {
      "id": 165,
      "content": "[TONE:BTBBTB]",
      "single_word": false,
      "lstrip": false,
      "rstrip": false,
      "normalized": false,
      "special": true
    },
    {
      "id": 166,
      "content": "[TONE:BTBBTT]",
      "single_word": false,
      "lstrip": false,
      "rstrip": false,
      "normalized": false,
      "special": true
    },
    {
      "id": 167,
      "content": "[TONE:BTBTBB]",
      "single_word": false,
      "lstrip": false,
      "rstrip": false,
      "normalized": false,
      "special": true
    },
    {
      "id": 168,
      "content": "[TONE:BTBTBT]",
      "single_word": false,
      "lstrip": false,
      "rstrip": false,
      "normalized": false,
      "special": true
    },
    {
      "id": 169,
      "content": "[TONE:BTBTTB]",
      "single_word": false,
      "lstrip": false,
      "rstrip": false,
      "normalized": false,
      "special": true
    },
    {
      "id": 170,
      "content": "[TONE:BTBTTT]",
      "single_word": false,
      "lstrip": false,
      "rstrip": false,
      "normalized": false,
      "special": true
    },
    {
      "id": 171,
      "content": "[TONE:BTTBBB]",
      "single_word": false,
      "lstrip": false,
      "rstrip": false,
      "normalized": false,
      "special": true
    },
    {
      "id": 172,
      "content": "[TONE:BTTBBT]",
      "single_word": false,
      "lstrip": false,
      "rstrip": false,
      "normalized": false,
      "special": true
    },
    {
      "id": 173,
      "content": "[TONE:BTTBTB]",
      "single_word": false,
      "lstrip": false,
      "rstrip": false,
      "normalized": false,
      "special": true
    },
    {
      "id": 174,
      "content": "[TONE:BTTBTT]",
      "single_word": false,
      "lstrip": false,
      "rstrip": false,
      "normalized": false,
      "special": true
    },
    {
      "id": 175,
      "content": "[TONE:BTTTBB]",
      "single_word": false,
      "lstrip": false,
      "rstrip": false,
      "normalized": false,
      "special": true
    },
    {
      "id": 176,
      "content": "[TONE:BTTTBT]",
      "single_word": false,
      "lstrip": false,
      "rstrip": false,
      "normalized": false,
      "special": true
    },
    {
      "id": 177,
      "content": "[TONE:BTTTTB]",
      "single_word": false,
      "lstrip": false,
      "rstrip": false,
      "normalized": false,
      "special": true
    },
    {
      "id": 178,
      "content": "[TONE:BTTTTT]",
      "single_word": false,
      "lstrip": false,
      "rstrip": false,
      "normalized": false,
      "special": true
    },
    {
      "id": 179,
      "content": "[TONE:TBBBBB]",
      "single_word": false,
      "lstrip": false,
      "rstrip": false,
      "normalized": false,
      "special": true
    },
    {
      "id": 180,
      "content": "[TONE:TBBBBT]",
      "single_word": false,
      "lstrip": false,
      "rstrip": false,
      "normalized": false,
      "special": true
    },
    {
      "id": 181,
      "content": "[TONE:TBBBTB]",
      "single_word": false,
      "lstrip": false,
      "rstrip": false,
      "normalized": false,
      "special": true
    },
    {
      "id": 182,
      "content": "[TONE:TBBBTT]",
      "single_word": false,
      "lstrip": false,
      "rstrip": false,
      "normalized": false,
      "special": true
    },
    {
      "id": 183,
      "content": "[TONE:TBBTBB]",
      "single_word": false,
      "lstrip": false,
      "rstrip": false,
      "normalized": false,
      "special": true
    },
    {
      "id": 184,
      "content": "[TONE:TBBTBT]",
      "single_word": false,
      "lstrip": false,
      "rstrip": false,
      "normalized": false,
      "special": true
    },
    {
      "id": 185,
      "content": "[TONE:TBBTTB]",
      "single_word": false,
      "lstrip": false,
      "rstrip": false,
      "normalized": false,
      "special": true
    },
    {
      "id": 186,
      "content": "[TONE:TBBTTT]",
      "single_word": false,
      "lstrip": false,
      "rstrip": false,
      "normalized": false,
      "special": true
    },
    {
      "id": 187,
      "content": "[TONE:TBTBBB]",
      "single_word": false,
      "lstrip": false,
      "rstrip": false,
      "normalized": false,
      "special": true
    },
    {
      "id": 188,
      "content": "[TONE:TBTBBT]",
      "single_word": false,
      "lstrip": false,
      "rstrip": false,
      "normalized": false,
      "special": true
    },
    {
      "id": 189,
      "content": "[TONE:TBTBTB]",
      "single_word": false,
      "lstrip": false,
      "rstrip": false,
      "normalized": false,
      "special": true
    },
    {
      "id": 190,
      "content": "[TONE:TBTBTT]",
      "single_word": false,
      "lstrip": false,
      "rstrip": false,
      "normalized": false,
      "special": true
    },
    {
      "id": 191,
      "content": "[TONE:TBTTBB]",
      "single_word": false,
      "lstrip": false,
      "rstrip": false,
      "normalized": false,
      "special": true
    },
    {
      "id": 192,
      "content": "[TONE:TBTTBT]",
      "single_word": false,
      "lstrip": false,
      "rstrip": false,
      "normalized": false,
      "special": true
    },
    {
      "id": 193,
      "content": "[TONE:TBTTTB]",
      "single_word": false,
      "lstrip": false,
      "rstrip": false,
      "normalized": false,
      "special": true
    },
    {
      "id": 194,
      "content": "[TONE:TBTTTT]",
      "single_word": false,
      "lstrip": false,
      "rstrip": false,
      "normalized": false,
      "special": true
    },
    {
      "id": 195,
      "content": "[TONE:TTBBBB]",
      "single_word": false,
      "lstrip": false,
      "rstrip": false,
      "normalized": false,
      "special": true
    },
    {
      "id": 196,
      "content": "[TONE:TTBBBT]",
      "single_word": false,
      "lstrip": false,
      "rstrip": false,
      "normalized": false,
      "special": true
    },
    {
      "id": 197,
      "content": "[TONE:TTBBTB]",
      "single_word": false,
      "lstrip": false,
      "rstrip": false,
      "normalized": false,
      "special": true
    },
    {
      "id": 198,
      "content": "[TONE:TTBBTT]",
      "single_word": false,
      "lstrip": false,
      "rstrip": false,
      "normalized": false,
      "special": true
    },
    {
      "id": 199,
      "content": "[TONE:TTBTBB]",
      "single_word": false,
      "lstrip": false,
      "rstrip": false,
      "normalized": false,
      "special": true
    },
    {
      "id": 200,
      "content": "[TONE:TTBTBT]",
      "single_word": false,
      "lstrip": false,
      "rstrip": false,
      "normalized": false,
      "special": true
    },
    {
      "id": 201,
      "content": "[TONE:TTBTTB]",
      "single_word": false,
      "lstrip": false,
      "rstrip": false,
      "normalized": false,
      "special": true
    },
    {
      "id": 202,
      "content": "[TONE:TTBTTT]",
      "single_word": false,
      "lstrip": false,
      "rstrip": false,
      "normalized": false,
      "special": true
    },
    {
      "id": 203,
      "content": "[TONE:TTTBBB]",
      "single_word": false,
      "lstrip": false,
      "rstrip": false,
      "normalized": false,
      "special": true
    },
    {
      "id": 204,
      "content": "[TONE:TTTBBT]",
      "single_word": false,
      "lstrip": false,
      "rstrip": false,
      "normalized": false,
      "special": true
    },
    {
      "id": 205,
      "content": "[TONE:TTTBTB]",
      "single_word": false,
      "lstrip": false,
      "rstrip": false,
      "normalized": false,
      "special": true
    },
    {
      "id": 206,
      "content": "[TONE:TTTBTT]",
      "single_word": false,
      "lstrip": false,
      "rstrip": false,
      "normalized": false,
      "special": true
    },
    {
      "id": 207,
      "content": "[TONE:TTTTBB]",
      "single_word": false,
      "lstrip": false,
      "rstrip": false,
      "normalized": false,
      "special": true
    },
    {
      "id": 208,
      "content": "[TONE:TTTTBT]",
      "single_word": false,
      "lstrip": false,
      "rstrip": false,
      "normalized": false,
      "special": true
    },
    {
      "id": 209,
      "content": "[TONE:TTTTTB]",
      "single_word": false,
      "lstrip": false,
      "rstrip": false,
      "normalized": false,
      "special": true
    },
    {
      "id": 210,
      "content": "[TONE:TTTTTT]",
      "single_word": false,
      "lstrip": false,
      "rstrip": false,
      "normalized": false,
      "special": true
    },
    {
      "id": 211,
      "content": "[LINK2:B]",
      "single_word": false,
      "lstrip": false,
      "rstrip": false,
      "normalized": false,
      "special": true
    },
    {
      "id": 212,
      "content": "[LINK2:T]",
      "single_word": false,
      "lstrip": false,
      "rstrip": false,
      "normalized": false,
      "special": true
    },
    {
      "id": 213,
      "content": "[TRAMBONG:NH]",
      "single_word": false,
      "lstrip": false,
      "rstrip": false,
      "normalized": false,
      "special": true
    },
    {
      "id": 214,
      "content": "[TRAMBONG:HN]",
      "single_word": false,
      "lstrip": false,
      "rstrip": false,
      "normalized": false,
      "special": true
    }
  ],
  "normalizer": null,
  "pre_tokenizer": {
    "type": "ByteLevel",
    "add_prefix_space": false,
    "trim_offsets": true,
    "use_regex": true
  },
  "post_processor": null,
  "decoder": {
    "type": "ByteLevel",
    "add_prefix_space": true,
    "trim_offsets": true,
    "use_regex": true
  },
  "model": {
    "type": "BPE",
    "dropout": null,
    "unk_token": "<|pad|>",
    "continuing_subword_prefix": null,
    "end_of_word_suffix": null,
    "fuse_unk": false,
    "byte_fallback": false,
    "ignore_merges": false,
    "vocab": {
      "<|pad|>": 0,
      "<|start|>": 1,
      "<|reply|>": 2,
      "<|end|>": 3,
      "[LUC_BAT]": 4,
      "[TU_TUYET]": 5,
      "[THAT_NGON_BAT_CU]": 6,
      "[THAT_NGON]": 7,
      "[DOI_THO]": 8,
      "<|linebreak|>": 9,
      "[RHYME:a]": 10,
      "[RHYME:ac]": 11,
      "[RHYME:ach]": 12,
      "[RHYME:ah]": 13,
      "[RHYME:ak]": 14,
      "[RHYME:al]": 15,
      "[RHYME:am]": 16,
      "[RHYME:amg]": 17,
      "[RHYME:amh]": 18,
      "[RHYME:ammm]": 19,
      "[RHYME:an]": 20,
      "[RHYME:ang]": 21,
      "[RHYME:angl]": 22,
      "[RHYME:angmt]": 23,
      "[RHYME:anh]": 24,
      "[RHYME:ap]": 25,
      "[RHYME:ar]": 26,
      "[RHYME:arm]": 27,
      "[RHYME:as]": 28,
      "[RHYME:at]": 29,
      "[RHYME:atv]": 30,
      "[RHYME:b]": 31,
      "[RHYME:ck]": 32,
      "[RHYME:clb]": 33,
      "[RHYME:d]": 34,
      "[RHYME:dnh]": 35,
      "[RHYME:e]": 36,
      "[RHYME:el]": 37,
      "[RHYME:em]": 38,
      "[RHYME:en]": 39,
      "[RHYME:eng]": 40,
      "[RHYME:ep]": 41,
      "[RHYME:er]": 42,
      "[RHYME:es]": 43,
      "[RHYME:et]": 44,
      "[RHYME:f]": 45,
      "[RHYME:fb]": 46,
      "[RHYME:g]": 47,
      "[RHYME:h]": 48,
      "[RHYME:i]": 49,
      "[RHYME:ich]": 50,
      "[RHYME:id]": 51,
      "[RHYME:il]": 52,
      "[RHYME:im]": 53,
      "[RHYME:in]": 54,
      "[RHYME:inch]": 55,
      "[RHYME:ing]": 56,
      "[RHYME:ingf]": 57,
      "[RHYME:inh]": 58,
      "[RHYME:inhf]": 59,
      "[RHYME:ins]": 60,
      "[RHYME:ip]": 61,
      "[RHYME:it]": 62,
      "[RHYME:iz]": 63,
      "[RHYME:iđ]": 64,
      "[RHYME:k]": 65,
      "[RHYME:kg]": 66,
      "[RHYME:l]": 67,
      "[RHYME:mk]": 68,
      "[RHYME:n]": 69,
      "[RHYME:nhµ]": 70,
      "[RHYME:nhö]": 71,
      "[RHYME:nǎm]": 72,
      "[RHYME:o]": 73,
      "[RHYME:oc]": 74,
      "[RHYME:og]": 75,
      "[RHYME:om]": 76,
      "[RHYME:on]": 77,
      "[RHYME:ong]": 78,
      "[RHYME:onhf]": 79,
      "[RHYME:op]": 80,
      "[RHYME:or]": 81,
      "[RHYME:ot]": 82,
      "[RHYME:th]": 83,
      "[RHYME:u]": 84,
      "[RHYME:uc]": 85,
      "[RHYME:um]": 86,
      "[RHYME:ump]": 87,
      "[RHYME:un]": 88,
      "[RHYME:ung]": 89,
      "[RHYME:ungg]": 90,
      "[RHYME:ur]": 91,
      "[RHYME:ut]": 92,
      "[RHYME:uvs]": 93,
      "[RHYME:v]": 94,
      "[RHYME:y]": 95,
      "[RHYME:ym]": 96,
      "[RHYME:ynh]": 97,
      "[RHYME:ys]": 98,
      "[RHYME:â]": 99,
      "[RHYME:âm]": 100,
      "[RHYME:ân]": 101,
      "[RHYME:âng]": 102,
      "[RHYME:âp]": 103,
      "[RHYME:ât]": 104,
      "[RHYME:ê]": 105,
      "[RHYME:êc]": 106,
      "[RHYME:êdl]": 107,
      "[RHYME:êh]": 108,
      "[RHYME:êm]": 109,
      "[RHYME:ên]": 110,
      "[RHYME:êng]": 111,
      "[RHYME:êngl]": 112,
      "[RHYME:ênh]": 113,
      "[RHYME:êp]": 114,
      "[RHYME:êt]": 115,
      "[RHYME:ô]": 116,
      "[RHYME:ôc]": 117,
      "[RHYME:ôg]": 118,
      "[RHYME:ôl]": 119,
      "[RHYME:ôm]": 120,
      "[RHYME:ôml]": 121,
      "[RHYME:ôn]": 122,
      "[RHYME:ông]": 123,
      "[RHYME:ônh]": 124,
      "[RHYME:ôt]": 125,
      "[RHYME:ă]": 126,
      "[RHYME:ăc]": 127,
      "[RHYME:ăm]": 128,
      "[RHYME:ăn]": 129,
      "[RHYME:ăng]": 130,
      "[RHYME:ăp]": 131,
      "[RHYME:ăt]": 132,
      "[RHYME:đ]": 133,
      "[RHYME:ơ]": 134,
      "[RHYME:ơc]": 135,
      "[RHYME:ơg]": 136,
      "[RHYME:ơm]": 137,
      "[RHYME:ơn]": 138,
      "[RHYME:ơng]": 139,
      "[RHYME:ơt]": 140,
      "[RHYME:ơtv]": 141,
      "[RHYME:ư]": 142,
      "[RHYME:ưc]": 143,
      "[RHYME:ưn]": 144,
      "[RHYME:ưng]": 145,
      "[RHYME:ưt]": 146,
      "[TONE:BBBBBB]": 147,
      "[TONE:BBBBBT]": 148,
      "[TONE:BBBBTB]": 149,
      "[TONE:BBBBTT]": 150,
      "[TONE:BBBTBB]": 151,
      "[TONE:BBBTBT]": 152,
      "[TONE:BBBTTB]": 153,
      "[TONE:BBBTTT]": 154,
      "[TONE:BBTBBB]": 155,
      "[TONE:BBTBBT]": 156,
      "[TONE:BBTBTB]": 157,
      "[TONE:BBTBTT]": 158,
      "[TONE:BBTTBB]": 159,
      "[TONE:BBTTBT]": 160,
      "[TONE:BBTTTB]": 161,
      "[TONE:BBTTTT]": 162,
      "[TONE:BTBBBB]": 163,
      "[TONE:BTBBBT]": 164,
      "[TONE:BTBBTB]": 165,
      "[TONE:BTBBTT]": 166,
      "[TONE:BTBTBB]": 167,
      "[TONE:BTBTBT]": 168,
      "[TONE:BTBTTB]": 169,
      "[TONE:BTBTTT]": 170,
      "[TONE:BTTBBB]": 171,
      "[TONE:BTTBBT]": 172,
      "[TONE:BTTBTB]": 173,
      "[TONE:BTTBTT]": 174,
      "[TONE:BTTTBB]": 175,
      "[TONE:BTTTBT]": 176,
      "[TONE:BTTTTB]": 177,
      "[TONE:BTTTTT]": 178,
      "[TONE:TBBBBB]": 179,
      "[TONE:TBBBBT]": 180,
      "[TONE:TBBBTB]": 181,
      "[TONE:TBBBTT]": 182,
      "[TONE:TBBTBB]": 183,
      "[TONE:TBBTBT]": 184,
      "[TONE:TBBTTB]": 185,
      "[TONE:TBBTTT]": 186,
      "[TONE:TBTBBB]": 187,
      "[TONE:TBTBBT]": 188,
      "[TONE:TBTBTB]": 189,
      "[TONE:TBTBTT]": 190,
      "[TONE:TBTTBB]": 191,
      "[TONE:TBTTBT]": 192,
      "[TONE:TBTTTB]": 193,
      "[TONE:TBTTTT]": 194,
      "[TONE:TTBBBB]": 195,
      "[TONE:TTBBBT]": 196,
      "[TONE:TTBBTB]": 197,
      "[TONE:TTBBTT]": 198,
      "[TONE:TTBTBB]": 199,
      "[TONE:TTBTBT]": 200,
      "[TONE:TTBTTB]": 201,
      "[TONE:TTBTTT]": 202,
      "[TONE:TTTBBB]": 203,
      "[TONE:TTTBBT]": 204,
      "[TONE:TTTBTB]": 205,
      "[TONE:TTTBTT]": 206,
      "[TONE:TTTTBB]": 207,
      "[TONE:TTTTBT]": 208,
      "[TONE:TTTTTB]": 209,
      "[TONE:TTTTTT]": 210,
      "[LINK2:B]": 211,
      "[LINK2:T]": 212,
      "[TRAMBONG:NH]": 213,
      "[TRAMBONG:HN]": 214,
      "!": 215,
      "\"": 216,
      "#": 217,
      "$": 218,
      "%": 219,
      "&": 220,
      "'": 221,
      "(": 222,
      ")": 223,
      "*": 224,
      "+": 225,
      ",": 226,
      "-": 227,
      ".": 228,
      "/": 229,
      "0": 230,
      "1": 231,
      "2": 232,
      "3": 233,
      "4": 234,
      "5": 235,
      "6": 236,
      "7": 237,
      "8": 238,
      "9": 239,
      ":": 240,
      ";": 241,
      "<": 242,
      "=": 243,
      ">": 244,
      "?": 245,
      "@": 246,
      "A": 247,
      "B": 248,
      "C": 249,
      "D": 250,
      "E": 251,
      "F": 252,
      "G": 253,
      "H": 254,
      "I": 255,
      "J": 256,
      "K": 257,
      "L": 258,
      "M": 259,
      "N": 260,
      "O": 261,
      "P": 262,
      "Q": 263,
      "R": 264,
      "S": 265,
      "T": 266,
      "U": 267,
      "V": 268,
      "W": 269,
      "X": 270,
      "Y": 271,
      "Z": 272,
      "[": 273,
      "\\": 274,
      "]": 275,
      "^": 276,
      "_": 277,
      "`": 278,
      "a": 279,
      "b": 280,
      "c": 281,
      "d": 282,
      "e": 283,
      "f": 284,
      "g": 285,
      "h": 286,
      "i": 287,
      "j": 288,
      "k": 289,
      "l": 290,
      "m": 291,
      "n": 292,
      "o": 293,
      "p": 294,
      "q": 295,
      "r": 296,
      "s": 297,
      "t": 298,
      "u": 299,
      "v": 300,
      "w": 301,
      "x": 302,
      "y": 303,
      "z": 304,
      "{": 305,
      "|": 306,
      "}": 307,
      "~": 308,
      "¡": 309,
      "¢": 310,
      "£": 311,
      "¤": 312,
      "¥": 313,
      "¦": 314,
      "§": 315,
      "¨": 316,
      "©": 317,
      "ª": 318,
      "«": 319,
      "¬": 320,
      "®": 321,
      "¯": 322,
      "°": 323,
      "±": 324,
      "²": 325,
      "³": 326,
      "´": 327,
      "µ": 328,
      "¶": 329,
      "·": 330,
      "¸": 331,
      "¹": 332,
      "º": 333,
      "»": 334,
      "¼": 335,
      "½": 336,
      "¾": 337,
      "¿": 338,
      "À": 339,
      "Á": 340,
      "Â": 341,
      "Ã": 342,
      "Ä": 343,
      "Å": 344,
      "Æ": 345,
      "Ç": 346,
      "È": 347,
      "É": 348,
      "Ê": 349,
      "Ë": 350,
      "Ì": 351,
      "Í": 352,
      "Î": 353,
      "Ï": 354,
      "Ð": 355,
      "Ñ": 356,
      "Ò": 357,
      "Ó": 358,
      "Ô": 359,
      "Õ": 360,
      "Ö": 361,
      "×": 362,
      "Ø": 363,
      "Ù": 364,
      "Ú": 365,
      "Û": 366,
      "Ü": 367,
      "Ý": 368,
      "Þ": 369,
      "ß": 370,
      "à": 371,
      "á": 372,
      "â": 373,
      "ã": 374,
      "ä": 375,
      "å": 376,
      "æ": 377,
      "ç": 378,
      "è": 379,
      "é": 380,
      "ê": 381,
      "ë": 382,
      "ì": 383,
      "í": 384,
      "î": 385,
      "ï": 386,
      "ð": 387,
      "ñ": 388,
      "ò": 389,
      "ó": 390,
      "ô": 391,
      "õ": 392,
      "ö": 393,
      "÷": 394,
      "ø": 395,
      "ù": 396,
      "ú": 397,
      "û": 398,
      "ü": 399,
      "ý": 400,
      "þ": 401,
      "ÿ": 402,
      "Ā": 403,
      "ā": 404,
      "Ă": 405,
      "ă": 406,
      "Ą": 407,
      "ą": 408,
      "Ć": 409,
      "ć": 410,
      "Ĉ": 411,
      "ĉ": 412,
      "Ċ": 413,
      "ċ": 414,
      "Č": 415,
      "č": 416,
      "Ď": 417,
      "ď": 418,
      "Đ": 419,
      "đ": 420,
      "Ē": 421,
      "ē": 422,
      "Ĕ": 423,
      "ĕ": 424,
      "Ė": 425,
      "ė": 426,
      "Ę": 427,
      "ę": 428,
      "Ě": 429,
      "ě": 430,
      "Ĝ": 431,
      "ĝ": 432,
      "Ğ": 433,
      "ğ": 434,
      "Ġ": 435,
      "ġ": 436,
      "Ģ": 437,
      "ģ": 438,
      "Ĥ": 439,
      "ĥ": 440,
      "Ħ": 441,
      "ħ": 442,
      "Ĩ": 443,
      "ĩ": 444,
      "Ī": 445,
      "ī": 446,
      "Ĭ": 447,
      "ĭ": 448,
      "Į": 449,
      "į": 450,
      "İ": 451,
      "ı": 452,
      "Ĳ": 453,
      "ĳ": 454,
      "Ĵ": 455,
      "ĵ": 456,
      "Ķ": 457,
      "ķ": 458,
      "ĸ": 459,
      "Ĺ": 460,
      "ĺ": 461,
      "Ļ": 462,
      "ļ": 463,
      "Ľ": 464,
      "ľ": 465,
      "Ŀ": 466,
      "ŀ": 467,
      "Ł": 468,
      "ł": 469,
      "Ń": 470,
      "á»": 471,
      "ng": 472,
      "<|": 473,
      "|>": 474,
      "Ġt": 475,
      "áº": 476,
      "Ġ<|": 477,
      "Ġ[": 478,
      "Ġc": 479,
      "re": 480,
      "nh": 481,
      "ĠÄ": 482,
      "ĠÄĳ": 483,
      "li": 484,
      "Ġm": 485,
      "ne": 486,
      "ak": 487,
      "line": 488,
      "bre": 489,
      "break": 490,
      "linebreak": 491,
      "ON": 492,
      "Æ°": 493,
      "Ãł": 494,
      "Ġth": 495,
      "BB": 496,
      "Ġl": 497,
      "Ġb": 498,
      "Ġch": 499,
      "Ġv": 500,
      "Ġh": 501,
      "á»Ŀ": 502,
      "Ġn": 503,
      "Ġng": 504,
      "Æ¡": 505,
      "Ãª": 506,
      "Ã´": 507,
      "en": 508,
      "ar": 509,
      "st": 510,
      "pl": 511,
      "art": 512,
      "end": 513,
      "AT": 514,
      "BAT": 515,
      "HY": 516,
      "LU": 517,
      "ME": 518,
      "RHY": 519,
      "TON": 520,
      "repl": 521,
      "start": 522,
      "LUC": 523,
      "RHYME": 524,
      "TONE": 525,
      "reply": 526,
      "Ġtr": 527,
      "AM": 528,
      "BON": 529,
      "RAM": 530,
      "TRAM": 531,
      "BONG": 532,
      "TRAMBONG": 533,
      "Ġnh": 534,
      "Ã¢": 535,
      "Ġg": 536,
      "Ã¡": 537,
      "TT": 538,
      "Ġs": 539,
      "á»Ŀi": 540,
      "Ġk": 541,
      "Ã¬": 542,
      "Ã³": 543,
      "Ġd": 544,
      "Ġx": 545,
      "á»ģ": 546,
      "áº¿": 547,
      "á»Ľ": 548,
      "Ġr": 549,
      "á»ĵ": 550,
      "HN": 551,
      "Ġgi": 552,
      "Ġkh": 553,
      "áº¡": 554,
      "áº§": 555,
      "áº¥": 556,
      "Ã²": 557,
      "TBB": 558,
      "áº¯": 559,
      "Ãªn": 560,
      "á»Ļ": 561,
      "Ã´ng": 562,
      "Ã¬nh": 563,
      "Æ°Æ¡": 564,
      "á»ĳ": 565,
      "NH": 566,
      "áº£": 567,
      "TB": 568,
      "Ġp": 569,
      "Ġph": 570,
      "Ġq": 571,
      "Ġqu": 572,
      "anh": 573,
      "ao": 574,
      "Ã¢n": 575,
      "Æ°Æ¡ng": 576,
      "ay": 577,
      "Äĥ": 578,
      "Ã´i": 579,
      "ĠÄĳá»": 580,
      "em": 581,
      "ai": 582,
      "TTBB": 583,
      "Ã¹": 584,
      "Æ°á»Ŀi": 585,
      "ong": 586,
      "iáº¿": 587,
      "iá»ģ": 588,
      "Ġem": 589,
      "ĠlÃł": 590,
      "Ãº": 591,
      "Æ¡i": 592,
      "Ã£": 593,
      "on": 594,
      "áºŃ": 595,
      "Æ°á»Ľ": 596,
      "ang": 597,
      "Æ°a": 598,
      "á»ĩ": 599,
      "BBB": 600,
      "Ãło": 601,
      "á»į": 602,
      "á»£": 603,
      "Ãły": 604,
      "Ãłng": 605,
      "an": 606,
      "Ã¢u": 607,
      "Ã¢y": 608,
      "Ġmá»Ļ": 609,
      "TTB": 610,
      "uy": 611,
      "ĠngÆ°á»Ŀi": 612,
      "Ã²ng": 613,
      "ĠtÃ¬nh": 614,
      "áº¹": 615,
      "á»¯": 616,
      "á»ĵng": 617,
      "Ãªu": 618,
      "au": 619,
      "á»«": 620,
      "á»Ł": 621,
      "áº·": 622,
      "Ġmá»Ļt": 623,
      "Æ°á»Ŀ": 624,
      "áº§n": 625,
      "Ġláº¡": 626,
      "Ãªm": 627,
      "Ġcon": 628,
      "Ġvá»ģ": 629,
      "á»ĵi": 630,
      "Æ°á»Ľc": 631,
      "áº§u": 632,
      "BBTTBB": 633,
      "Ġho": 634,
      "Ã²n": 635,
      "Ġanh": 636,
      "Ġngh": 637,
      "á»ı": 638,
      "Æ°á»Ŀng": 639,
      "TTTB": 640,
      "ĠÄĳi": 641,
      "inh": 642,
      "Äĥm": 643,
      "Ġy": 644,
      "Ġcho": 645,
      "iá»ģu": 646,
      "áº¯ng": 647,
      "áº¥t": 648,
      "á»ĵn": 649,
      "áº¥y": 650,
      "á»©": 651,
      "Ãłn": 652,
      "ĠngÃły": 653,
      "ÃŃ": 654,
      "ĠlÃ²ng": 655,
      "ĠÄĳá»Ŀi": 656,
      "ĠcÃ³": 657,
      "ĠkhÃ´ng": 658,
      "ĠmÃł": 659,
      "Ġnhá»Ľ": 660,
      "Ã´n": 661,
      "á»ķ": 662,
      "ĠnhÆ°": 663,
      "ĠcÃ¡": 664,
      "BBBTBB": 665,
      "á»¥": 666,
      "Ãłi": 667,
      "Å©": 668,
      "uá»ĳ": 669,
      "á»ĭ": 670,
      "ĠthÆ°Æ¡ng": 671,
      "Ġta": 672,
      "ĠthÆ¡": 673,
      "ĠcÃ²n": 674,
      "Ġxa": 675,
      "Æ°á»£": 676,
      "áº«": 677,
      "Ã¡ng": 678,
      "ung": 679,
      "Ġtrá»Ŀi": 680,
      "Äĥng": 681,
      "Ã¹ng": 682,
      "Ġai": 683,
      "ĠyÃªu": 684,
      "áº¿n": 685,
      "Ã©": 686,
      "á»Ľi": 687,
      "TBTTBB": 688,
      "ĠmÃ¬nh": 689,
      "Ġláº¡i": 690,
      "á»Ĺ": 691,
      "Ã³ng": 692,
      "Ġtrong": 693,
      "ch": 694,
      "Ãłnh": 695,
      "TBBTBB": 696,
      "á»§": 697,
      "á»Ń": 698,
      "Ġbu": 699,
      "ĠÄĳÃ£": 700,
      "iá»ĩ": 701,
      "áº³": 702,
      "Ġmáº¹": 703,
      "BBBTTB": 704,
      "Ġhoa": 705,
      "Ġbao": 706,
      "ĠÄĳÃªm": 707,
      "ĠcÅ©": 708,
      "áº¯t": 709,
      "Ġxu": 710,
      "ĠgiÃ³": 711,
      "áº³ng": 712,
      "Ã¨": 713,
      "áº±": 714,
      "Ġsao": 715,
      "ĠÄĳá»ĥ": 716,
      "Ã¡i": 717,
      "áº«n": 718,
      "áº£i": 719,
      "iáº¿t": 720,
      "áº¯m": 721,
      "áº¿t": 722,
      "ĠtÃ´i": 723,
      "á»ĥ": 724,
      "Ġti": 725,
      "BBTTTB": 726,
      "á»«ng": 727,
      "Ãºc": 728,
      "Æ¡n": 729,
      "á»±": 730,
      "Ġchi": 731,
      "ĠnhÃł": 732,
      "Ġvu": 733,
      "iá»ģn": 734,
      "Ã¡t": 735,
      "Ġcáº£": 736,
      "Ġnhau": 737,
      "ĠnÄĥm": 738,
      "Ã¢m": 739,
      "ĠÄĳÃ¢u": 740,
      "ĠcÅ©ng": 741,
      "Ġcháº³ng": 742,
      "Ġrá»ĵi": 743,
      "á»¯ng": 744,
      "TBBTTB": 745,
      "á»Ĺi": 746,
      "ĠÄĳÆ°á»Ŀng": 747,
      "áº§y": 748,
      "áº»": 749,
      "á»ī": 750,
      "Ġváº«n": 751,
      "ĠnÆ°á»Ľc": 752,
      "Ġtiáº¿": 753,
      "Ġlá»Ŀi": 754,
      "Ġthu": 755,
      "ĠxuÃ¢n": 756,
      "ĠmÆ°a": 757,
      "ĠlÃłm": 758,
      "ĠbÃªn": 759,
      "Ã¹a": 760,
      "ĠvÃło": 761,
      "Ġqua": 762,
      "Ġchiá»ģu": 763,
      "uá»Ļ": 764,
      "áº¯c": 765,
      "á»ĳi": 766,
      "Ã¡nh": 767,
      "ĠquÃª": 768,
      "Ġra": 769,
      "Ġbuá»ĵn": 770,
      "áº¡n": 771,
      "á»ķi": 772,
      "Ġnáº¯ng": 773,
      "Ġtay": 774,
      "ĠthÃ¬": 775,
      "eo": 776,
      "áºŃn": 777,
      "ĠÆ¡i": 778,
      "áº§m": 779,
      "Ġvui": 780,
      "ĠnÃło": 781,
      "uyÃªn": 782,
      "ĠhÆ°Æ¡ng": 783,
      "Ġgiá»Ŀ": 784,
      "áºŃt": 785,
      "ĠÄĳáº¿n": 786,
      "á»ģn": 787,
      "Ã³i": 788,
      "ĠcÃ¹ng": 789,
      "Ġnhá»¯ng": 790,
      "á»¡": 791,
      "Æ°á»£c": 792,
      "ĠtrÄĥng": 793,
      "ĠxÆ°a": 794,
      "Ġli": 795,
      "ĠmÆ¡": 796,
      "iÃªn": 797,
      "TBTTTB": 798,
      "Ä©": 799,
      "Ã£i": 800,
      "Ġnay": 801,
      "Ġtiáº¿ng": 802,
      "Ã³c": 803,
      "Ġmong": 804,
      "Ã¡o": 805,
      "ĠvÃłng": 806,
      "á»ĳng": 807,
      "uÃ´n": 808,
      "ĠbÃ³ng": 809,
      "á»Ńa": 810,
      "á»Ļi": 811,
      "Ġbiáº¿t": 812,
      "Ãµ": 813,
      "á»įt": 814,
      "á»¯a": 815,
      "áº·ng": 816,
      "áº¥m": 817,
      "ĠsÃ´ng": 818,
      "Ġxanh": 819,
      "ĠÄĳÆ°á»£c": 820,
      "Ġchá»Ŀ": 821,
      "áº±ng": 822,
      "ĠlÃªn": 823,
      "Ã¬m": 824,
      "ĠÄĳÃ´i": 825,
      "ĠÄĳÃ¢y": 826,
      "Ã´m": 827,
      "Ġmáº¯t": 828,
      "ĠmÃ¹a": 829,
      "Ġhá»ĵng": 830,
      "Ã¡c": 831,
      "áº©": 832,
      "ĠcÆ°á»Ŀi": 833,
      "ĠÄĳáº§u": 834,
      "Ġthá»Ŀi": 835,
      "ĠmÃ¢y": 836,
      "Ġvá»Ľi": 837,
      "uyá»ĩ": 838,
      "Äĥn": 839,
      "ĠtrÃªn": 840,
      "áºŃp": 841,
      "ĠÄĳÃ³": 842,
      "áº½": 843,
      "Ã¬n": 844,
      "ĠthÃ¡ng": 845,
      "Ġchá»ī": 846,
      "ĠchÃº": 847,
      "Ġháº¡": 848,
      "Ġná»Ĺi": 849,
      "Ġtháº¿": 850,
      "Ġtá»«": 851,
      "Ġkhi": 852,
      "Ġtu": 853,
      "Ġmáº·": 854,
      "ĠnÃły": 855,
      "ĠnÆ¡i": 856,
      "ĠthÃ¢n": 857,
      "Ġhai": 858,
      "á»©c": 859,
      "Æ°ng": 860,
      "Ġpháº£i": 861,
      "ĠthÃ´i": 862,
      "á»įc": 863,
      "Ġtháº¥y": 864,
      "am": 865,
      "ĠchÃ¢n": 866,
      "Ãªng": 867,
      "iá»ĥ": 868,
      "ĠduyÃªn": 869,
      "ĠcÃ¢u": 870,
      "ĠmÃ£i": 871,
      "Ġcá»©": 872,
      "á»įi": 873,
      "áº¡i": 874,
      "ĠlÃ¡": 875,
      "Ġsay": 876,
      "Ġlo": 877,
      "ĠÄĳáº¥t": 878,
      "ĠmÃª": 879,
      "ĠgÃ¬": 880,
      "á»ĳn": 881,
      "Ġnghe": 882,
      "Ġgian": 883,
      "ĠÄĳau": 884,
      "Ġcuá»Ļ": 885,
      "iÃªu": 886,
      "á»«a": 887,
      "ĠÄĳá»ĵng": 888,
      "ĠtÃ¬m": 889,
      "Ġá»Ł": 890,
      "Ã¢ng": 891,
      "ĠthÃłnh": 892,
      "Ġhá»ĵn": 893,
      "ĠÄĳÃ´ng": 894,
      "Ġbay": 895,
      "á»ıi": 896,
      "ĠÄĳá»©": 897,
      "Ġmá»Ľi": 898,
      "ĠnghÄ©": 899,
      "ĠtÃ¢m": 900,
      "Ġnhiá»ģu": 901,
      "Ġtim": 902,
      "in": 903,
      "ĠnhÃ¬n": 904,
      "ĠÄĳáº§y": 905,
      "Ġtheo": 906,
      "ĠcÃ¡i": 907,
      "áº¹p": 908,
      "Æ°Æ¡i": 909,
      "ĠvÃ¬": 910,
      "iÃªng": 911,
      "Ġgh": 912,
      "Ġcha": 913,
      "ĠÄĳá»£": 914,
      "Ġbá»Ŀ": 915,
      "uá»ĳi": 916,
      "Ġcuá»Ļc": 917,
      "á»§a": 918,
      "ĠÄĳáº¹p": 919,
      "Ġsang": 920,
      "ĠcÃ´": 921,
      "ĠrÆ¡i": 922,
      "Ġmáº¥y": 923,
      "ĠÄĳá»£i": 924,
      "Ġcao": 925,
      "Ġchung": 926,
      "Ġmai": 927,
      "Ġsáº§u": 928,
      "ĠchÆ°a": 929,
      "ĠsÆ°Æ¡ng": 930,
      "á»ħ": 931,
      "ĠtÃŃ": 932,
      "uyá»ģn": 933,
      "Ġhay": 934,
      "Æ¡ng": 935,
      "áº¹n": 936,
      "á»įn": 937,
      "iá»ĩt": 938,
      "ĠcÃ¡nh": 939,
      "Ġba": 940,
      "Ġngo": 941,
      "ĠcÃ¢y": 942,
      "áº¡t": 943,
      "Ġngá»ĵi": 944,
      "Ġmá»Ļng": 945,
      "áº¯p": 946,
      "Ã³t": 947,
      "Ã¡u": 948,
      "ĠvÆ°Æ¡ng": 949,
      "áº¡c": 950,
      "Ġchá»ĵng": 951,
      "Ã¨o": 952,
      "Ġsá»ĳng": 953,
      "ĠbÃ¬nh": 954,
      "Ġcáº§u": 955,
      "ĠdÃłi": 956,
      "Ã¡ch": 957,
      "ĠbÆ°á»Ľc": 958,
      "Ġháº¿t": 959,
      "Ġchiáº¿": 960,
      "áº¥n": 961,
      "uá»ĳng": 962,
      "ĠnÃ³i": 963,
      "Ġbáº¡n": 964,
      "Ġmang": 965,
      "Ġgiá»¯a": 966,
      "ĠÃ¡o": 967,
      "Ġcá»§a": 968,
      "ĠnÃªn": 969,
      "uyá»ĩn": 970,
      "Ġtuá»ķi": 971,
      "ĠsÃ¡ng": 972,
      "ĠthÃªm": 973,
      "áº¥u": 974,
      "ĠdÃ²ng": 975,
      "Ã²a": 976,
      "ĠmÃłu": 977,
      "ĠnhÃ¢n": 978,
      "Ã¡n": 979,
      "ĠÄĳá»«": 980,
      "ĠÄĳá»«ng": 981,
      "ĠÄĳÆ°a": 982,
      "Ġsau": 983,
      "ĠhÃ´m": 984,
      "áº¥p": 985,
      "ĠÃ´ng": 986,
      "áº·p": 987,
      "Ġkiáº¿": 988,
      "ĠgiÃł": 989,
      "Ġtráº¯ng": 990,
      "iá»ĥn": 991,
      "ĠmÃ´i": 992,
      "Ġtá»«ng": 993,
      "ĠtÆ°": 994,
      "áº©n": 995,
      "ĠdÃ¢n": 996,
      "ĠÆ°á»Ľc": 997,
      "áº£o": 998,
      "ĠtrÆ°á»Ŀng": 999,
      "Ġkho": 1000,
      "ĠtÃ³c": 1001,
      "Ġáº¥y": 1002,
      "ĠngÃłn": 1003,
      "ĠcÃ´ng": 1004,
      "á»¥c": 1005,
      "ĠnÃłng": 1006,
      "Ã½": 1007,
      "ĠvÃ´": 1008,
      "ĠquÃªn": 1009,
      "áº±m": 1010,
      "ĠsÃ³ng": 1011,
      "ĠtháºŃt": 1012,
      "Ġxin": 1013,
      "Ġvá»£": 1014,
      "Ġtá»±": 1015,
      "Ġngá»įt": 1016,
      "Ġbáº¿n": 1017,
      "á»±c": 1018,
      "Ġláº¡nh": 1019,
      "Ġsinh": 1020,
      "Ġru": 1021,
      "ĠhÃłng": 1022,
      "Ã¹i": 1023,
      "ĠbÃł": 1024,
      "ĠhÃ¬nh": 1025,
      "Ġná»¥": 1026,
      "áº¥c": 1027,
      "ua": 1028,
      "Ġná»ĵng": 1029,
      "Ġgáº·p": 1030,
      "ĠchÆ¡i": 1031,
      "Ġthá»ģ": 1032,
      "Ġsáº¯c": 1033,
      "ĠÄĥ": 1034,
      "uá»ĳn": 1035,
      "ĠÄĳá»ķ": 1036,
      "Ġnon": 1037,
      "Ġtho": 1038,
      "Ġáº¥m": 1039,
      "Ġbiá»ĥn": 1040,
      "ĠÄĥn": 1041,
      "á»Ľm": 1042,
      "Ãºt": 1043,
      "Ãºi": 1044,
      "áº¡o": 1045,
      "Ġláº§n": 1046,
      "ĠlÃłng": 1047,
      "á»Łi": 1048,
      "Ġdá»ĭ": 1049,
      "ĠtÆ°Æ¡i": 1050,
      "ĠmuÃ´n": 1051,
      "Ġchá»ĭ": 1052,
      "Ġvá»«a": 1053,
      "Ġgá»įi": 1054,
      "Ã©t": 1055,
      "Ġlá»ĩ": 1056,
      "ĠnghÄ©a": 1057,
      "Ġtháº¯m": 1058,
      "Ġtiá»ģn": 1059,
      "ĠsÃ¢u": 1060,
      "á»įng": 1061,
      "áº£ng": 1062,
      "ĠtrÃ´i": 1063,
      "Ġto": 1064,
      "ĠchÃŃ": 1065,
      "Ġbá»ı": 1066,
      "iá»ģm": 1067,
      "Ãµi": 1068,
      "Ã©o": 1069,
      "Ġsá»Ľm": 1070,
      "Ġgáº§n": 1071,
      "Ġgiáº¥c": 1072,
      "ĠÃ¡nh": 1073,
      "á»Ļng": 1074,
      "Ġniá»ģm": 1075,
      "á»ĳc": 1076,
      "Ġláº·ng": 1077,
      "Æ¡m": 1078,
      "Ġtháº£": 1079,
      "Ġca": 1080,
      "á»Ńi": 1081,
      "Æ°á»Ľi": 1082,
      "Ġxinh": 1083,
      "Ġchia": 1084,
      "ĠtrÃ´ng": 1085,
      "Ġtrao": 1086,
      "ĠtÆ¡": 1087,
      "ĠbÃ¢y": 1088,
      "Ġláº¯m": 1089,
      "ĠÄĳÃ¡": 1090,
      "Ġná»Ńa": 1091,
      "Ãªnh": 1092,
      "Ġgiá»įt": 1093,
      "Ġchim": 1094,
      "Ġquy": 1095,
      "áº¯n": 1096,
      "Ã£o": 1097,
      "Ġráº±ng": 1098,
      "ĠvÆ¡i": 1099,
      "ĠkhÃ³": 1100,
      "Ġthuyá»ģn": 1101,
      "Ġki": 1102,
      "ĠyÃªn": 1103,
      "áºŃy": 1104,
      "Ġgá»Ńi": 1105,
      "ĠÄĳang": 1106,
      "áº£y": 1107,
      "ĠcÃµi": 1108,
      "Ġtan": 1109,
      "ĠnÃºi": 1110,
      "ĠlÃºc": 1111,
      "Ġxuá»ĳng": 1112,
      "ĠnhÆ°ng": 1113,
      "ĠtrÃ¡i": 1114,
      "Ġmuá»ĳn": 1115,
      "Ġmáº·t": 1116,
      "ĠtrÆ°á»Ľc": 1117,
      "áºŃm": 1118,
      "ĠmÃ¡": 1119,
      "Ġthanh": 1120,
      "ĠchÃºt": 1121,
      "Ġtháº§m": 1122,
      "ĠlÃ¢u": 1123,
      "Ġtá»ı": 1124,
      "Ġdáº¡": 1125,
      "ĠcÃ¡ch": 1126,
      "ĠÄĳÃłn": 1127,
      "ĠÄĳá»©ng": 1128,
      "ĠnhiÃªu": 1129,
      "ĠÄĳo": 1130,
      "Ġná»Ł": 1131,
      "ĠluÃ´n": 1132,
      "Ġnhá»ı": 1133,
      "Ġcáº£nh": 1134,
      "Æ°u": 1135,
      "á»£i": 1136,
      "áº·t": 1137,
      "ĠthÆ¡m": 1138,
      "ĠhÃ´n": 1139,
      "Ġchuyá»ĩn": 1140,
      "Ġkiáº¿p": 1141,
      "Ġchá»¯": 1142,
      "á»¥ng": 1143,
      "Ġmá»Ĺi": 1144,
      "Ġtráº§n": 1145,
      "Ġcá»ı": 1146,
      "Ġgiá»¯": 1147,
      "Ġmiá»ģn": 1148,
      "ĠngoÃłi": 1149,
      "Ġngang": 1150,
      "ĠhÃ²a": 1151,
      "ĠphÃºc": 1152,
      "ĠÄĳiá»ģu": 1153,
      "Ġbáº¡c": 1154,
      "Ġlá»Ľ": 1155,
      "á»Łng": 1156,
      "Ãºa": 1157,
      "ĠchÃ¡u": 1158,
      "Ġhá»Ŀ": 1159,
      "Ġchá»£": 1160,
      "Ġcuá»ĳi": 1161,
      "ĠgÃ¡i": 1162,
      "Ġhá»ıi": 1163,
      "á»ĳt": 1164,
      "Ġhá»įc": 1165,
      "Ġkhá»ķ": 1166,
      "Ġsáº½": 1167,
      "Ġnam": 1168,
      "ĠtrÄĥm": 1169,
      "Ġká»": 1170,
      "Ġhá»ĵi": 1171,
      "ĠnghiÃªng": 1172,
      "Ġháº¹n": 1173,
      "Ġnháº¹": 1174,
      "Ġan": 1175,
      "ĠquÃ¡": 1176,
      "uá»ĳt": 1177,
      "ĠtÃłn": 1178,
      "Ã©n": 1179,
      "Ġlá»ĳi": 1180,
      "Ġthay": 1181,
      "ĠdÃ¹": 1182,
      "Ã¡m": 1183,
      "ĠhoÃłng": 1184,
      "oi": 1185,
      "Æ°á»Ŀn": 1186,
      "ĠngÃło": 1187,
      "ĠthiÃªn": 1188,
      "ĠÄĳÃ³n": 1189,
      "Ġhá»į": 1190,
      "Ġcay": 1191,
      "ĠngÆ¡": 1192,
      "ĠÄĳÃ²": 1193,
      "ĠphÆ°Æ¡ng": 1194,
      "Ġnáº±m": 1195,
      "Ġcáº§n": 1196,
      "ĠcÆ¡n": 1197,
      "Ġlinh": 1198,
      "Ġháº¡nh": 1199,
      "áº¡nh": 1200,
      "ĠÄĳá»ı": 1201,
      "ĠÃªm": 1202,
      "Ġváº¯ng": 1203,
      "Æ°á»Ľt": 1204,
      "Ġtrá»Ł": 1205,
      "Ġláº¡c": 1206,
      "Ġkáº»": 1207,
      "Æ°á»£ng": 1208,
      "ĠhÆ¡n": 1209,
      "Ġtrang": 1210,
      "ĠdÃ¡ng": 1211,
      "ĠmÆ°á»Ŀi": 1212,
      "ĠthÆ°á»Ŀng": 1213,
      "áº£nh": 1214,
      "ĠmÃ¡i": 1215,
      "Ġkhu": 1216,
      "ĠchÃºng": 1217,
      "Ã£y": 1218,
      "Ġngá»§": 1219,
      "ĠhÃ¡t": 1220,
      "Ġkia": 1221,
      "Æ°á»Ľng": 1222,
      "uyá»ĩt": 1223,
      "Ġphá»ĳ": 1224,
      "ĠvÆ°á»Ŀn": 1225,
      "á»Ļc": 1226,
      "Ġtha": 1227,
      "ĠtrÃłn": 1228,
      "Ġváº¥n": 1229,
      "ĠtiÃªn": 1230,
      "Ġráº¥t": 1231,
      "Ġthá»©c": 1232,
      "ĠnÃ³": 1233,
      "Ġmáº¥t": 1234,
      "im": 1235,
      "á»ģm": 1236,
      "Ġtráº»": 1237,
      "ĠdÆ°á»Ľi": 1238,
      "ĠcÃ¡c": 1239,
      "Ġtá»Ľi": 1240,
      "ĠpháºŃn": 1241,
      "á»ĭp": 1242,
      "ĠÄĳÃło": 1243,
      "ĠÄĳÃłnh": 1244,
      "Ġbá»ĳn": 1245,
      "Ġcáº£m": 1246,
      "Ġbá»ģ": 1247,
      "iá»ĩm": 1248,
      "ĠÃ´m": 1249,
      "ĠtÃŃm": 1250,
      "Ġngu": 1251,
      "BTB": 1252,
      "Ġhiá»ģn": 1253,
      "Ġcanh": 1254,
      "ĠtÆ°Æ¡ng": 1255,
      "Ġkhuy": 1256,
      "á»Ļn": 1257,
      "Ġmá»įi": 1258,
      "Ġláº¥y": 1259,
      "ĠchÃºc": 1260,
      "Ã¨n": 1261,
      "ĠlÃłnh": 1262,
      "iá»ĩc": 1263,
      "Ġchiáº¿n": 1264,
      "Ġmá»Ŀ": 1265,
      "Ã³a": 1266,
      "Ġvai": 1267,
      "iáº¿u": 1268,
      "Ãºng": 1269,
      "ĠÃ¢n": 1270,
      "Ġkháº¯p": 1271,
      "ĠÄĳÃ¬nh": 1272,
      "ĠtrÃ²n": 1273,
      "Ġquanh": 1274,
      "ĠrÆ°á»£": 1275,
      "ĠcÃłng": 1276,
      "ĠmÃªnh": 1277,
      "ĠÄĳÆ¡n": 1278,
      "Ġvá»Ŀi": 1279,
      "ĠxÃ³t": 1280,
      "Ġminh": 1281,
      "Ġchu": 1282,
      "Ġváº§n": 1283,
      "Ġrá»«ng": 1284,
      "ĠvÃ²ng": 1285,
      "ĠtÃł": 1286,
      "Ġxao": 1287,
      "Ġnáº·ng": 1288,
      "ĠbuÃ´ng": 1289,
      "ĠÃ¢m": 1290,
      "ĠhoÃłi": 1291,
      "ĠrÆ°á»£u": 1292,
      "BTT": 1293,
      "áºŃu": 1294,
      "Ġthá»§": 1295,
      "ĠhÃ£y": 1296,
      "Ã©p": 1297,
      "á»©a": 1298,
      "iá»ĩn": 1299,
      "ĠcÃłnh": 1300,
      "Ġviá»ĩc": 1301,
      "ĠÄĳáº¯ng": 1302,
      "Ġcá»Ńa": 1303,
      "Ġthuá»Ł": 1304,
      "Ġtin": 1305,
      "ĠkhÃºc": 1306,
      "Ġngáº¯m": 1307,
      "Ġlu": 1308,
      "ĠthÄĥm": 1309,
      "Ġmá»«ng": 1310,
      "Ġphai": 1311,
      "ĠcÆ¡m": 1312,
      "Ġgia": 1313,
      "Ġhá»Ļi": 1314,
      "ÃŃch": 1315,
      "ĠchÃłng": 1316,
      "ĠÄĳÃł": 1317,
      "ĠÄĳá»ķi": 1318,
      "Ġbáº±ng": 1319,
      "áº¡ng": 1320,
      "áº£n": 1321,
      "ĠbÃ¡c": 1322,
      "Ġlá»Ľn": 1323,
      "Ġkáº¿t": 1324,
      "Ġngá»Ŀi": 1325,
      "ĠnghÃ¨o": 1326,
      "ÃŃt": 1327,
      "ĠbÃłn": 1328,
      "ĠmÃ´ng": 1329,
      "Ġtrá»įn": 1330,
      "Ġchá»ĳn": 1331,
      "Ġo": 1332,
      "Ġngay": 1333,
      "ĠkhÃ³c": 1334,
      "Ġngáº©n": 1335,
      "uyáº¿n": 1336,
      "Ġruá»Ļ": 1337,
      "ĠmÃ²n": 1338,
      "Ġvá»įng": 1339,
      "ĠsÃ¢n": 1340,
      "Ġphong": 1341,
      "Ġmáº·c": 1342,
      "Ġson": 1343,
      "Ġpháº§n": 1344,
      "ĠbÃ¡t": 1345,
      "ĠtrÆ°a": 1346,
      "Ġthá»ĭ": 1347,
      "ĠgiÃ¡": 1348,
      "ĠlÆ°ng": 1349,
      "ĠngáºŃp": 1350,
      "ĠhÃ¨": 1351,
      "Ġná»ķi": 1352,
      "Ġmay": 1353,
      "Ġla": 1354,
      "Ġtáº·ng": 1355,
      "ĠquÃ¢n": 1356,
      "Ġviá»ĩt": 1357,
      "áº«u": 1358,
      "Ġxe": 1359,
      "Ġnáº¿": 1360,
      "ĠÄĳá»§": 1361,
      "ĠtÆ°á»Łng": 1362,
      "Ġdá»ĭu": 1363,
      "Ġhá»ĵ": 1364,
      "ĠÄĳem": 1365,
      "Ġmáº·n": 1366,
      "ĠriÃªng": 1367,
      "ĠÄĳong": 1368,
      "Ġná»¯a": 1369,
      "á»Ľt": 1370,
      "Ġbá»ĵi": 1371,
      "Ġháº¡t": 1372,
      "Ġmua": 1373,
      "ĠÆ¡n": 1374,
      "Æ°á»£t": 1375,
      "ĠngÃ¢y": 1376,
      "ĠÄĳá»į": 1377,
      "Ġná»£": 1378,
      "Ġngá»įn": 1379,
      "Ġtre": 1380,
      "ĠmÃłng": 1381,
      "Ġxem": 1382,
      "ĠbÃ£o": 1383,
      "Ġquan": 1384,
      "Ġthá»ĥ": 1385,
      "á»¡i": 1386,
      "iu": 1387,
      "á»Ĺng": 1388,
      "ĠÄĳiá»ĩ": 1389,
      "Ġlung": 1390,
      "Ġkhuya": 1391,
      "Ġvang": 1392,
      "Ġsa": 1393,
      "Ã¨m": 1394,
      "Ġnhá»ĭp": 1395,
      "Ġly": 1396,
      "Ġrá»Ŀi": 1397,
      "Ġhoang": 1398,
      "ĠchÃło": 1399,
      "Ġvá»Ļi": 1400,
      "Ġmá»Ŀi": 1401,
      "Ġtranh": 1402,
      "á»ĩt": 1403,
      "Ġlá»Ńa": 1404,
      "Ġcháº¡": 1405,
      "ĠhÃłnh": 1406,
      "ĠhÃ³a": 1407,
      "Ġbá»ĵng": 1408,
      "ĠkhÃ³i": 1409,
      "Ġchiáº¿c": 1410,
      "Ãºp": 1411,
      "Ġlong": 1412,
      "Ġlá»¡": 1413,
      "Ġvi": 1414,
      "ĠchÃŃn": 1415,
      "ĠdÃ¢ng": 1416,
      "Ġmá»Ł": 1417,
      "ĠlÃºa": 1418,
      "Ġláº½": 1419,
      "á»ħn": 1420,
      "Ġnháº¡t": 1421,
      "uÃ´i": 1422,
      "Ġtháº§n": 1423,
      "ĠÄĳÃ¡nh": 1424,
      "Ġbá»Ĺng": 1425,
      "Ġrá»¥ng": 1426,
      "Ġniá»ĩm": 1427,
      "ĠbÃłi": 1428,
      "Ġnao": 1429,
      "áº¡ch": 1430,
      "ĠtÃłi": 1431,
      "Ġviáº¿t": 1432,
      "Ġdáº¥u": 1433,
      "ĠÄĳáº¯m": 1434,
      "ĠkÃŃ": 1435,
      "ĠvÆ¡": 1436,
      "Ġtráº£i": 1437,
      "ĠbÃ¡n": 1438,
      "Ġsá»©c": 1439,
      "Ġtháº§y": 1440,
      "Ġtuyá»ĩt": 1441,
      "ĠhÆ°": 1442,
      "ĠbÃ´ng": 1443,
      "Ġhá»Ŀn": 1444,
      "Ġthiáº¿t": 1445,
      "Ġlá»¥c": 1446,
      "ĠtÃªn": 1447,
      "ĠlÅ©": 1448,
      "Ġthá»Ŀ": 1449,
      "Ġhiá»ĥ": 1450,
      "Ġthi": 1451,
      "ĠváºŃy": 1452,
      "áº©y": 1453,
      "Ġban": 1454,
      "Ġmá»ģm": 1455,
      "Ġdáº§n": 1456,
      "Ã³m": 1457,
      "Ġtrai": 1458,
      "Ġngá»įc": 1459,
      "Ġngá»Ŀ": 1460,
      "Ġtá»ī": 1461,
      "Ġphiá»ģn": 1462,
      "ĠÄĳá»ĭ": 1463,
      "ĠngÃ³ng": 1464,
      "Ġxong": 1465,
      "Ġlao": 1466,
      "Ġgáº§y": 1467,
      "Ġquen": 1468,
      "Ġcau": 1469,
      "áº»o": 1470,
      "Ġchá»Ľ": 1471,
      "ĠkhÆ¡i": 1472,
      "Ġtá»ĳi": 1473,
      "Ġbáº¥t": 1474,
      "Ġtrung": 1475,
      "á»¥i": 1476,
      "Ã¡p": 1477,
      "Ġká»·": 1478,
      "Ġngá»¡": 1479,
      "Ġdá»ĭch": 1480,
      "ĠmÆ°Æ¡i": 1481,
      "Ġtráº§u": 1482,
      "om": 1483,
      "Ġtá»ıa": 1484,
      "Ġná»¯": 1485,
      "Ġmau": 1486,
      "Ã¡y": 1487,
      "Ġthan": 1488,
      "Ġtinh": 1489,
      "ĠÃ½": 1490,
      "Ġdu": 1491,
      "ĠhÆ¡i": 1492,
      "ĠxÃ¢y": 1493,
      "ĠdÆ°Æ¡ng": 1494,
      "Æ°á»Ľm": 1495,
      "Ġbáº£o": 1496,
      "Ġliá»ģn": 1497,
      "á»ģu": 1498,
      "ĠgÃ¡nh": 1499,
      "ĠthÆ°a": 1500,
      "ĠdÃ¢u": 1501,
      "á»ĩnh": 1502,
      "Ġquáº£": 1503,
      "ĠÆ°á»Ľt": 1504,
      "Ġsá»£i": 1505,
      "Ġtáº¥m": 1506,
      "Ġsá»±": 1507,
      "Ġtáº¿t": 1508,
      "Ġbiáº¿": 1509,
      "ĠsÆ¡n": 1510,
      "ĠgiÄĥng": 1511,
      "ĠmÃ¹": 1512,
      "Ġdanh": 1513,
      "Ġu": 1514,
      "ĠÄĳá»©a": 1515,
      "ĠÃ¡i": 1516,
      "Ġdáº«u": 1517,
      "Ġbá»Łi": 1518,
      "áº±n": 1519,
      "Ġcháº£y": 1520,
      "Ġkháº¯c": 1521,
      "Ġphá»§": 1522,
      "ĠkhÃ´n": 1523,
      "ĠnhiÃªn": 1524,
      "Ġlai": 1525,
      "Ġda": 1526,
      "Ġgiao": 1527,
      "Ġthá»§y": 1528,
      "ĠnuÃ´i": 1529,
      "Ġsoi": 1530,
      "Ġxo": 1531,
      "ĠvÃł": 1532,
      "Æ°á»£n": 1533,
      "ĠbÆ°á»Ľm": 1534,
      "Ġgieo": 1535,
      "Ġbáº¯c": 1536,
      "áº·c": 1537,
      "Ġkhá»ı": 1538,
      "Ġcáº§m": 1539,
      "ĠÄĳa": 1540,
      "Ġthá»ģm": 1541,
      "Ġghi": 1542,
      "ĠhÃ©o": 1543,
      "ĠmÃ¡t": 1544,
      "Ġcá»ķ": 1545,
      "áº·n": 1546,
      "ĠtoÃłn": 1547,
      "Ġsuá»ĳt": 1548,
      "ĠcÃ²": 1549,
      "Ġmá»ıi": 1550,
      "Ġlan": 1551,
      "Ġbáº¯t": 1552,
      "Ġbuá»ķi": 1553,
      "ÃŃu": 1554,
      "Ġcá»ĳ": 1555,
      "ĠchÄĥm": 1556,
      "Ġnáº¿u": 1557,
      "Ġsuá»ĳi": 1558,
      "ĠtrÃ¡ch": 1559,
      "ĠhÃł": 1560,
      "ĠvÃ¹ng": 1561,
      "Ġtráº£": 1562,
      "ĠxÃ³m": 1563,
      "Ġao": 1564,
      "uá»ĳc": 1565,
      "Ġcá»Ŀ": 1566,
      "áº«m": 1567,
      "ĠÄĳá»Ļng": 1568,
      "ĠngÃ¢n": 1569,
      "áº¿m": 1570,
      "Ġtá»īnh": 1571,
      "ĠkhÄĥn": 1572,
      "ĠhÃ²": 1573,
      "Ġbiá»ĩt": 1574,
      "Ġsá»£": 1575,
      "Ġdáº¡i": 1576,
      "ĠmÃły": 1577,
      "ĠÄĳá»ĵi": 1578,
      "ĠtÃŃnh": 1579,
      "Ġvá»ĭ": 1580,
      "ĠphÆ°á»£ng": 1581,
      "Ã£ng": 1582,
      "ĠÄĳÃª": 1583,
      "ĠnguyÃªn": 1584,
      "Ġnguá»ĵn": 1585,
      "Ã¬a": 1586,
      "Ġxá»©": 1587,
      "..": 1588,
      "Ġnguyá»ĩn": 1589,
      "Ġtá»ķ": 1590,
      "áº§ng": 1591,
      "Ġrá»Ļng": 1592,
      "ĠtuÃ´n": 1593,
      "Ġnhanh": 1594,
      "Ġngáº§n": 1595,
      "ĠÄĳÃ¨n": 1596,
      "ĠtáºŃn": 1597,
      "ĠcÆ¡": 1598,
      "Ġhá»¡i": 1599,
      "ĠkhÃ¡t": 1600,
      "Ġtá»±a": 1601,
      "ĠxuÃ´i": 1602,
      "Ġkinh": 1603,
      "Ġcháº¯c": 1604,
      "Ġnhung": 1605,
      "Ġtráº§m": 1606,
      "ĠlÆ°u": 1607,
      "Ġchá»ĭu": 1608,
      "ĠnÃ©t": 1609,
      "Ġmi": 1610,
      "Ġráº¡ng": 1611,
      "Ġhiu": 1612,
      "Ġche": 1613,
      "Ġhiá»ĥu": 1614,
      "Ġcháº¿t": 1615,
      "BTTTBB": 1616,
      "Ġcung": 1617,
      "Ġruá»Ļng": 1618,
      "Ġkhá»ıe": 1619,
      "Ġthiáº¿u": 1620,
      "ĠvÃłi": 1621,
      "ĠchÃ¬m": 1622,
      "ĠkhÃ¡ch": 1623,
      "Ġrá»Ļn": 1624,
      "Ġthang": 1625,
      "Ġbá»ĩnh": 1626,
      "Ġdá»±": 1627,
      "ĠvÄĥn": 1628,
      "ĠtrÃ¹ng": 1629,
      "Ġbá»ĭ": 1630,
      "ĠphÃŃ": 1631,
      "BBBB": 1632,
      "Ġtá»Ń": 1633,
      "ĠxÃ´i": 1634,
      "Ġuá»ĳng": 1635,
      "Ġbá»¥i": 1636,
      "Ġchá»£t": 1637,
      "ĠthÃŃch": 1638,
      "ĠphÃ¹": 1639,
      "á»§i": 1640,
      "ĠgiÃºp": 1641,
      "TTBTBB": 1642,
      "Ġmáº£nh": 1643,
      "Ġlá»¥": 1644,
      "Ġláº»": 1645,
      "ĠthÃ´ng": 1646,
      "Ġbi": 1647,
      "Ġthá»Ł": 1648,
      "ĠgiáºŃn": 1649,
      "ĠpháºŃt": 1650,
      "Ġtáº¡i": 1651,
      "ĠngáºŃm": 1652,
      "ĠbÃ¢ng": 1653,
      "ĠnháºŃn": 1654,
      "áº·m": 1655,
      "Ġchan": 1656,
      "Ġdáº¡t": 1657,
      "ĠÃł": 1658,
      "Ġná»ĳi": 1659,
      "ĠÄĳen": 1660,
      "Ġtai": 1661,
      "Ġngon": 1662,
      "Ġmá»ĭ": 1663,
      "Ġtuy": 1664,
      "ĠÄĳáºŃm": 1665,
      "Ġnáº»o": 1666,
      "Ġcáº¡n": 1667,
      "ĠphÃ²ng": 1668,
      "ĠvÆ°á»£t": 1669,
      "Ġsá»ĳ": 1670,
      "á»¹": 1671,
      "Ġkiáº¿m": 1672,
      "Ġngáº¥t": 1673,
      "ĠkhÃ´": 1674,
      "ĠgÃł": 1675,
      "Ġnhá»Ŀ": 1676,
      "ĠtrÃ²": 1677,
      "ĠcÃł": 1678,
      "ĠtÃ¢y": 1679,
      "ĠchÃ¹a": 1680,
      "ĠngÃ¹i": 1681,
      "ĠnhÃ²a": 1682,
      "Ġváº¡n": 1683,
      "ĠngÃ¡t": 1684,
      "Ġbáº§u": 1685,
      "ĠnÃ¡t": 1686,
      "ĠÄĳáº¡i": 1687,
      "TTTTBB": 1688,
      "ĠngÃµ": 1689,
      "ĠÄĳá»©c": 1690,
      "Ġváº¹n": 1691,
      "ĠnhÃ©": 1692,
      "Ġsáº»": 1693,
      "á»Ŀn": 1694,
      "ĠgiÃłu": 1695,
      "ĠkhuÃ¢ng": 1696,
      "Ġmá»ĵ": 1697,
      "Ġquay": 1698,
      "ĠcÃ´i": 1699,
      "Ġmá»ĳi": 1700,
      "ĠdÆ°ng": 1701,
      "ĠmÃ¡u": 1702,
      "BTBTBB": 1703,
      "ĠphÃ¢n": 1704,
      "ĠchÄĥng": 1705,
      "Ġquá»ĳc": 1706,
      "ĠthÆ°": 1707,
      "Ġtiáº¿c": 1708,
      "ĠmiÃªn": 1709,
      "ĠdÃłnh": 1710,
      "Ġthoáº£ng": 1711,
      "ĠkÃªu": 1712,
      "ĠlÃłn": 1713,
      "Ġmanh": 1714,
      "Ġvá»¡": 1715,
      "Ġlang": 1716,
      "ĠthoÃ¡ng": 1717,
      "ĠbÆ¡": 1718,
      "Ġthá»«a": 1719,
      "ĠÄĳá»Ļ": 1720,
      "ĠrÃłng": 1721,
      "Ġváº¥t": 1722,
      "áº¡m": 1723,
      "iá»ĩp": 1724,
      "ĠliÃªu": 1725,
      "Ġthá»ķi": 1726,
      "ĠtrÃło": 1727,
      "ĠÄĳáº¡o": 1728,
      "Ġlay": 1729,
      "Ġchao": 1730,
      "Ãµng": 1731,
      "iá»ĩu": 1732,
      "Ġgá»ĳi": 1733,
      "Ġnháº¡c": 1734,
      "Ġmuá»Ļ": 1735,
      "Ġnháº¥t": 1736,
      "á»£p": 1737,
      "ĠxÃ¡c": 1738,
      "ĠhÃ¹ng": 1739,
      "ĠphÃºt": 1740,
      "Ġcháº¡y": 1741,
      "ĠÄĳá»Ļi": 1742,
      "á»ıng": 1743,
      "Ġdiá»ģu": 1744,
      "Ġim": 1745,
      "Ġbá»ĥ": 1746,
      "áº«y": 1747,
      "Ġtáº¥t": 1748,
      "áº¿p": 1749,
      "Ġnháº·t": 1750,
      "TTBTTB": 1751,
      "Ġvá»¯ng": 1752,
      "ĠÄĳÃ¹a": 1753,
      "ĠtÃª": 1754,
      "Ġrá»±c": 1755,
      "á»ĩn": 1756,
      "Ġváº»": 1757,
      "Ġváº£": 1758,
      "ĠhÃło": 1759,
      "ĠtiÃªu": 1760,
      "ĠtrÃ¢u": 1761,
      "ĠngÃ³": 1762,
      "ĠÄĳiá»ĥ": 1763,
      "á»©ng": 1764,
      "ĠbÃ©": 1765,
      "ĠbÃły": 1766,
      "ĠÃ´i": 1767,
      "ĠnÃ¢ng": 1768,
      "ĠquÃ½": 1769,
      "Ġdáº·m": 1770,
      "ĠrÆ°ng": 1771,
      "Ġman": 1772,
      "Ġve": 1773,
      "Ġngáº£": 1774,
      "Ġháº±ng": 1775,
      "Ġsen": 1776,
      "ĠdÃło": 1777,
      "ĠthÃ¨m": 1778,
      "Ġthá»ı": 1779,
      "Ġdá»ħ": 1780,
      "ĠbÃ¨": 1781,
      "Ġtung": 1782,
      "Ġgiang": 1783,
      "Ġthá»©": 1784,
      "Ġlá»ħ": 1785,
      "Ġtham": 1786,
      "Ġkhoe": 1787,
      "ĠkhÃ¡c": 1788,
      "ĠvÃ¢n": 1789,
      "ĠphiÃªu": 1790,
      "Ġin": 1791,
      "ĠngÆ°á»£c": 1792,
      "Ġquyáº¿t": 1793,
      "Ġse": 1794,
      "Ġkhá»ıi": 1795,
      "Ġrá»ĳi": 1796,
      "Ġphá»¥": 1797,
      "ĠchÃ©n": 1798,
      "Ġbá»ĳ": 1799,
      "Ġmen": 1800,
      "Ġno": 1801,
      "Ġrau": 1802,
      "ĠchÃ¢u": 1803,
      "Æ°á»Łi": 1804,
      "ĠthÃ´n": 1805,
      "ĠbÃłng": 1806,
      "áºµ": 1807,
      "á»Ńng": 1808,
      "Ġká»³": 1809,
      "Ġbiáº¿c": 1810,
      "ĠcÃły": 1811,
      "Ġcháº¥t": 1812,
      "iáº¿n": 1813,
      "iá»ĩng": 1814,
      "Ġmiá»ĩng": 1815,
      "á»ĥn": 1816,
      "ĠcÃ¡t": 1817,
      "Ġgiá»ĳng": 1818,
      "Ġmuá»Ļn": 1819,
      "ĠÄĳáº£o": 1820,
      "á»ĭch": 1821,
      "ĠÄĳiá»ĥm": 1822,
      "ĠÄĳÃłng": 1823,
      "ĠÃ¢u": 1824,
      "ĠchÃª": 1825,
      "ĠkÃ©o": 1826,
      "Ġtrá»ĳng": 1827,
      "Ġvá»Ĺ": 1828,
      "Ġmáº§u": 1829,
      "Ġsai": 1830,
      "Ġquáº§n": 1831,
      "ĠgÆ°Æ¡ng": 1832,
      "ĠtÃ¡m": 1833,
      "Ġdá»±ng": 1834,
      "Ġngáº¡i": 1835,
      "Ġbá»Ŀi": 1836,
      "ĠdÃ¢y": 1837,
      "á»±a": 1838,
      "Ġco": 1839,
      "ĠngÃ£": 1840,
      "ĠrÃło": 1841,
      "ĠÄĳÃºng": 1842,
      "Ġdi": 1843,
      "Ġhao": 1844,
      "Ġtá»ĳt": 1845,
      "TBTB": 1846,
      "ĠÄĳÃ³i": 1847,
      "Ġthá»±c": 1848,
      "ĠngÃł": 1849,
      "ĠdáºŃp": 1850,
      "Ġláº¯ng": 1851,
      "Ã¬u": 1852,
      "ĠÄĳÃłi": 1853,
      "á»ķn": 1854,
      "Ġdáº§u": 1855,
      "BTBTTB": 1856,
      "á»¯u": 1857,
      "ĠchiÃªm": 1858,
      "ĠsÃ¡o": 1859,
      "ĠdáºŃy": 1860,
      "Ġheo": 1861,
      "Ġtháº¥p": 1862,
      "Ã³p": 1863,
      "ĠdÆ°": 1864,
      "ĠtÃ¡i": 1865,
      "á»©t": 1866,
      "Ġpha": 1867,
      "Ġbáº¥y": 1868,
      "ĠmÃ¹i": 1869,
      "Ġchá»Ĺ": 1870,
      "Ġná»Ļi": 1871,
      "Ġhu": 1872,
      "Ġhá»¯u": 1873,
      "TBBB": 1874,
      "ĠdÃłng": 1875,
      "Ġngoan": 1876,
      "ĠgiÃ´ng": 1877,
      "ĠnhÃłng": 1878,
      "Ġbá»ģnh": 1879,
      "Ġhiá»ĩn": 1880,
      "Ġkiá»ģu": 1881,
      "Ġdá»Ł": 1882,
      "ĠrÃµ": 1883,
      "Ġchá»«ng": 1884,
      "ĠchÄĥn": 1885,
      "BTTTTB": 1886,
      "ĠnÆ°Æ¡ng": 1887,
      "Ġbáº£y": 1888,
      "ĠchÃŃnh": 1889,
      "ĠÄĳá»ģu": 1890,
      "ĠquÃł": 1891,
      "Ġdo": 1892,
      "ĠchÃ¡y": 1893,
      "ĠÄĳoÃłn": 1894,
      "Ġtá»Ļi": 1895,
      "ĠtÆ°á»Ŀng": 1896,
      "Ġsi": 1897,
      "ĠphÆ¡i": 1898,
      "ĠhiÃªn": 1899,
      "ĠÄĳá»ĭnh": 1900,
      "Ġtriá»ģn": 1901,
      "ĠsÃ¡u": 1902,
      "ĠghÃ©": 1903,
      "ĠváºŃt": 1904,
      "ĠÄĳiá»ĩu": 1905,
      "Ġhá»¯ng": 1906,
      "Ġnan": 1907,
      "Ġtáº§n": 1908,
      "ĠphÃŃa": 1909,
      "Ġdung": 1910,
      "ÃŃnh": 1911,
      "Ġdáº¡y": 1912,
      "Ġáº¥p": 1913,
      "Ġong": 1914,
      "ĠÃŃt": 1915,
      "Ġsá»Ń": 1916,
      "ĠxiÃªu": 1917,
      "ĠnghÃ¬n": 1918,
      "ĠrÃ©t": 1919,
      "ĠnÃ´ng": 1920,
      "ĠlÆ¡": 1921,
      "Ġtrá»ĵng": 1922,
      "Ġgiáº·c": 1923,
      "áº³m": 1924,
      "Ġgáº¡o": 1925,
      "Ġcong": 1926,
      "ĠÄĳu": 1927,
      "ĠnÃ£o": 1928,
      "Ġnáº¯m": 1929,
      "ĠtÆ¡i": 1930,
      "Ġváº§ng": 1931,
      "Ġkhá»Ŀ": 1932,
      "á»ħu": 1933,
      "Ġtao": 1934,
      "Ġnghiá»ĩp": 1935,
      "ĠdÃ¡m": 1936,
      "ĠbÃ¡nh": 1937,
      "Ġgom": 1938,
      "ĠviÃªn": 1939,
      "Ġká»ĥ": 1940,
      "ĠrÃ£": 1941,
      "Ġmáº¡nh": 1942,
      "ĠÄĳoáº¡n": 1943,
      "Ġká»ģ": 1944,
      "ĠÄĳan": 1945,
      "ĠthÃ¹": 1946,
      "Ġdá»ĩt": 1947,
      "ĠgÃ³t": 1948,
      "Ġgiáº£": 1949,
      "Æ°Æ¡n": 1950,
      "Ġtháº³m": 1951,
      "ĠÃ´": 1952,
      "ĠnÃłn": 1953,
      "Ġngháº¹n": 1954,
      "ĠÄĳáº¿m": 1955,
      "Ġvinh": 1956,
      "ĠkÃŃnh": 1957,
      "Ġá»§": 1958,
      "Ġchá»Ł": 1959,
      "Ġmá»¹": 1960,
      "Ġtri": 1961,
      "Ġmá»ıng": 1962,
      "Ġtháº«n": 1963,
      "ĠlÃ¹ng": 1964,
      "ĠchÃªnh": 1965,
      "ĠthÃ¢u": 1966,
      "Ġsuy": 1967,
      "Ġlá»Ľp": 1968,
      "TTTTTB": 1969,
      "ĠlÃ£ng": 1970,
      "Ġmá»ĭt": 1971,
      "Ġtáº¡o": 1972,
      "Ġthá»ıa": 1973,
      "Ġnguy": 1974,
      "ĠthÃ¡i": 1975,
      "ĠlÆ°á»£n": 1976,
      "ĠgÃ³c": 1977,
      "Ġngá»«ng": 1978,
      "Ġthá»ĭt": 1979,
      "Ġnguyá»ĩt": 1980,
      "ĠÄĳá»ģn": 1981,
      "Ġchua": 1982,
      "Ġlá»Ļc": 1983,
      "ĠtráºŃn": 1984,
      "ĠtÃ´": 1985,
      "Ġre": 1986,
      "Ġdáº¡o": 1987,
      "áº©m": 1988,
      "ĠchuÃ´ng": 1989,
      "Ġvá»¥": 1990,
      "Ġtruyá»ģn": 1991,
      "á»ķng": 1992,
      "Æ°Æ¡m": 1993,
      "ĠÄĳiÃªn": 1994,
      "Ġtháº¥m": 1995,
      "Ġbá»Ļ": 1996,
      "Ġhá»įa": 1997,
      "Ġnga": 1998,
      "Ġpháº¥n": 1999,
      "Ġchá»©a": 2000,
      "Ġbá»¯a": 2001,
      "ĠtÃłu": 2002,
      "ĠÄĳá»ĵ": 2003,
      "Ġbá»ģn": 2004,
      "Ġsong": 2005,
      "ĠthÃª": 2006,
      "ĠÄĳá»įng": 2007,
      "Ġsáº¯t": 2008,
      "ĠlÆ°Æ¡ng": 2009,
      "Ä©nh": 2010,
      "Ã¹m": 2011,
      "Ġrung": 2012,
      "Ġgá»Łi": 2013,
      "Ġsu": 2014,
      "Ġtháº¯ng": 2015,
      "Ġbá»«ng": 2016,
      "ĠsÃ¡nh": 2017,
      "ĠgiáºŃt": 2018,
      "Ġthua": 2019,
      "Ġchá»§": 2020,
      "Ġthinh": 2021,
      "Ġhá»£p": 2022,
      "ĠÄĳá»ģm": 2023,
      "Ġgiáº£i": 2024,
      "ĠláºŃp": 2025,
      "Ġxuyáº¿n": 2026,
      "ĠgÃ³p": 2027,
      "Ġkhao": 2028,
      "ĠchÃ¨o": 2029,
      "ĠlÆ¡i": 2030,
      "Ġcu": 2031,
      "Ġtá»§i": 2032,
      "Ġlanh": 2033,
      "ĠlÃª": 2034,
      "Ġcá»¥": 2035,
      "Ġgiá»Ľi": 2036,
      "ĠlÃ½": 2037,
      "Ġbá»Ľt": 2038,
      "ĠsÄ©": 2039,
      "iáº¿ng": 2040,
      "uyá»ĥn": 2041,
      "ĠtrÃł": 2042,
      "Ġnha": 2043,
      "Ġthao": 2044,
      "Ġruá»Ļt": 2045,
      "ĠbÆ°á»Łi": 2046,
      "ĠnÃŃu": 2047,
      "Ġkhuáº¥t": 2048,
      "Ġnhá»įc": 2049,
      "ĠÆ°u": 2050,
      "Ġvua": 2051,
      "Ġráº±m": 2052,
      "ĠxÄĥm": 2053,
      "ĠphÃ¡t": 2054,
      "ĠÄĳáº£ng": 2055,
      "ĠhÃłi": 2056,
      "ĠngÃ´i": 2057,
      "Ġnghá»ī": 2058,
      "Ġhuyá»ģn": 2059,
      "Ġtiáº¿p": 2060,
      "ĠÄĳÃ¡y": 2061,
      "Ġhuy": 2062,
      "ĠtÃŃch": 2063,
      "Å©ng": 2064,
      "Ġtá»©": 2065,
      "ĠbÃ¹i": 2066,
      "Ġtháº±ng": 2067,
      "Ġthuá»ĳc": 2068,
      "Ġáº£o": 2069,
      "ĠthÃł": 2070,
      "Ġlá»Ŀ": 2071,
      "Ġkhen": 2072,
      "ĠbiÃªn": 2073,
      "Ġbáº£n": 2074,
      "Ġcháº·t": 2075,
      "Ġquang": 2076,
      "Ġláº¥p": 2077,
      "Ġáº£nh": 2078,
      "Ġma": 2079,
      "ĠtrÃºc": 2080,
      "ĠkÃŃn": 2081,
      "uá»Ļm": 2082,
      "Ġquá»": 2083,
      "Ġnhuá»Ļm": 2084,
      "Ã£n": 2085,
      "ĠbÃ£i": 2086,
      "ĠngÃłng": 2087,
      "Ġgiá»įng": 2088,
      "ĠthoÃ¡t": 2089,
      "ĠÄĳá»¥": 2090,
      "Ġreo": 2091,
      "Ġsáº¯p": 2092,
      "Ġhiáº¿u": 2093,
      "Ġtreo": 2094,
      "Ġdá»«ng": 2095,
      "ĠdÃ¹ng": 2096,
      "Ġrá»¡": 2097,
      "ĠdÃ£i": 2098,
      "Ġchuyá»ĥn": 2099,
      "Ġnhi": 2100,
      "ĠbÃ¡o": 2101,
      "ĠÃºa": 2102,
      "Ġkhoáº£ng": 2103,
      "Ġcá»©u": 2104,
      "Ġmáº¿n": 2105,
      "Ġhoan": 2106,
      "Ġtiá»ħn": 2107,
      "ĠÆ¡": 2108,
      "Ã¹n": 2109,
      "...": 2110,
      "ĠnhÆ°á»Ŀng": 2111,
      "á»Ľn": 2112,
      "ĠnÃ³n": 2113,
      "ĠÄĳáº¥y": 2114,
      "Ġngoáº¡i": 2115,
      "Ġtang": 2116,
      "Ġná»ģ": 2117,
      "ĠtrÃŃ": 2118,
      "Ġchá»ĳng": 2119,
      "Ã©m": 2120,
      "Ġlá»¥a": 2121,
      "Ġcáº¥t": 2122,
      "ĠÄĳá»¡": 2123,
      "ĠcÃłi": 2124,
      "ĠÄĳiá»ĩn": 2125,
      "ĠÄĳáºŃu": 2126,
      "Ġlá»Ĺi": 2127,
      "Ġchiáº¿u": 2128,
      "ĠhÃłn": 2129,
      "ĠhÆ°á»Ľng": 2130,
      "Ġdang": 2131,
      "ĠhÃ¡i": 2132,
      "ĠngÄĥn": 2133,
      "ĠgiÃ¢y": 2134,
      "ĠloÃłi": 2135,
      "ĠÄĳáº¯p": 2136,
      "Ġcháº£": 2137,
      "ĠvÃ¹i": 2138,
      "ĠdÃły": 2139,
      "Ġcuá»ĳn": 2140,
      "ĠtáºŃp": 2141,
      "ĠÄĳua": 2142,
      "Ġná»¡": 2143,
      "Æ°á»£m": 2144,
      "Ġnghi": 2145,
      "Ġváº§y": 2146,
      "ĠÄĳáº©y": 2147,
      "Ġchen": 2148,
      "Ġláº£": 2149,
      "Ġquyá»ĩn": 2150,
      "ĠdÃ¬u": 2151,
      "Ġváº½": 2152,
      "ĠthiÃªng": 2153,
      "Ġtháº©n": 2154,
      "Ġtiáº¿n": 2155,
      "Ġá»©c": 2156,
      "Ġháº£i": 2157,
      "á»ģnh": 2158,
      "ĠsÆ°á»Ľng": 2159,
      "ĠthÃ¡nh": 2160,
      "Ġdao": 2161,
      "ĠbÃºt": 2162,
      "á»Ļt": 2163,
      "ĠmÆ°á»£n": 2164,
      "Ġbáº§y": 2165,
      "Ġliá»ħu": 2166,
      "Ġpháº¥t": 2167,
      "Ġtrinh": 2168,
      "áº¿ng": 2169,
      "áºµn": 2170,
      "Ġháº¯t": 2171,
      "Ġrong": 2172,
      "Ġcáº£i": 2173,
      "ĠxÃ´n": 2174,
      "Ġlam": 2175,
      "Ġláº§m": 2176,
      "ĠxÃ´": 2177,
      "ĠÄĳá»Ļc": 2178,
      "ĠquÃ¡n": 2179,
      "Ġcháº¡m": 2180,
      "ĠÄĳÃ¡ng": 2181,
      "Ġgá»ĳc": 2182,
      "Æ°á»Ľp": 2183,
      "ĠthÆ¡i": 2184,
      "ĠgÃ³i": 2185,
      "ĠkÃ½": 2186,
      "Ġe": 2187,
      "Ġmáº£i": 2188,
      "ĠghÃª": 2189,
      "Ġtáº¯m": 2190,
      "Ġtrá»įng": 2191,
      "ĠtÄĥng": 2192,
      "Ġcoi": 2193,
      "ĠvÃłn": 2194,
      "ĠlÃ¢ng": 2195,
      "Ã³n": 2196,
      "Ġlá»Ļi": 2197,
      "ĠxÆ°Æ¡ng": 2198,
      "Ġtáº§m": 2199,
      "Ġtháº³ng": 2200,
      "ĠbÃ¨o": 2201,
      "ĠthuáºŃn": 2202,
      "ĠhÃ´i": 2203,
      "ĠnÃ³ng": 2204,
      "Ġtháº¥u": 2205,
      "Ġquáº¡nh": 2206,
      "Ġphu": 2207,
      "Ġtháº£nh": 2208,
      "Ġlá»ĵng": 2209,
      "ĠÃło": 2210,
      "Ġhá»©a": 2211,
      "ĠphÆ°á»Ŀng": 2212,
      "ĠngÃ¢u": 2213,
      "Ġtuyáº¿t": 2214,
      "ĠÄĳá»įc": 2215,
      "ĠbÄĥng": 2216,
      "Ġkim": 2217,
      "ĠgiÃ¡o": 2218,
      "Ã²i": 2219,
      "Ġtuáº§n": 2220,
      "á»¡ng": 2221,
      "ĠvÆ°Æ¡n": 2222,
      "ĠÄĳÃ³a": 2223,
      "ĠcháºŃp": 2224,
      "ĠÄĳÃ¨o": 2225,
      "ĠmÃłn": 2226,
      "ĠphÃ´i": 2227,
      "ĠÄĳá»ĭa": 2228,
      "Ġtáº¡m": 2229,
      "ĠÄĳá»ī": 2230,
      "ĠcÃºc": 2231,
      "Ġquyá»ģn": 2232,
      "Ġcá»±c": 2233,
      "Ġrá»ĵng": 2234,
      "ĠchuyÃªn": 2235,
      "Ġváº¿t": 2236,
      "Ġkhoai": 2237,
      "ĠÄĳÆ°á»£m": 2238,
      "ĠÄĳá»¥c": 2239,
      "Ġcam": 2240,
      "ĠrÄĥng": 2241,
      "ĠsÃ¡ch": 2242,
      "Ġká»ĭp": 2243,
      "Ġcáº¡nh": 2244,
      "Ġchá»įn": 2245,
      "Ġtháº¯p": 2246,
      "ĠlÄĥn": 2247,
      "Ġtiáº¿t": 2248,
      "Ġmáº¯c": 2249,
      "ĠháºŃu": 2250,
      "ĠchÃºa": 2251,
      "ĠÄĳá»īnh": 2252,
      "Ġláº«n": 2253,
      "ĠnhÃłu": 2254,
      "Ġbá»ĵ": 2255,
      "ĠthÄĥng": 2256,
      "ĠrÃªu": 2257,
      "Ġnháº¯c": 2258,
      "Ġlá»£i": 2259,
      "Ġsáº¡ch": 2260,
      "Ġne": 2261,
      "Ġchuyáº¿n": 2262,
      "Ġhy": 2263,
      "Ġtháº¥t": 2264,
      "ĠlÃ¹a": 2265,
      "Ġvá»Ŀn": 2266,
      "ĠkÃ¬a": 2267,
      "ĠtÃ¢n": 2268,
      "Ġnghá»ģ": 2269,
      "Ġcá»ĵn": 2270,
      "Ġsáºµn": 2271,
      "ĠÃ¡p": 2272,
      "Ġnháº¯n": 2273,
      "Ġmá»įc": 2274,
      "ĠkhÃ©p": 2275,
      "ĠÄĳam": 2276,
      "Ġkháº½": 2277,
      "Ġrá»§": 2278,
      "Ġhanh": 2279,
      "Ġso": 2280,
      "Ġkhiáº¿n": 2281,
      "ĠphÃ¡p": 2282,
      "Ġluyáº¿n": 2283,
      "Ġgiáº¥u": 2284,
      "Ġgá»£i": 2285,
      "ĠthÃ¡c": 2286,
      "á»£n": 2287,
      "ĠvÅ©": 2288,
      "ĠtrÃ¬nh": 2289,
      "Ġtáº£": 2290,
      "ĠthÃ¢m": 2291,
      "ĠchÃ´n": 2292,
      "Ġnháº±n": 2293,
      "áº¿u": 2294,
      "Ġoan": 2295,
      "ĠhÆ°á»Ŀng": 2296,
      "Ġmáº§m": 2297,
      "ĠngÃ´": 2298,
      "Ġxoay": 2299,
      "Ġngáº¯n": 2300,
      "ĠrÆ¡m": 2301,
      "ĠÄĳáº·t": 2302,
      "ĠnháºŃt": 2303,
      "Ġhon": 2304,
      "Ġbuá»ĳt": 2305,
      "ĠÄĳÆ°Æ¡ng": 2306,
      "Ġnáº¥u": 2307,
      "Ġdá»ĵn": 2308,
      "Ġtru": 2309,
      "ĠtÃ¹": 2310,
      "ĠÄĳáº«m": 2311,
      "Ġláº·n": 2312,
      "Ġrá»Ľt": 2313,
      "Ġbinh": 2314,
      "ĠnÃ©n": 2315,
      "áº©u": 2316,
      "ĠmÆ°u": 2317,
      "Ġliá»ĩ": 2318,
      "ĠÄĳá»ĳt": 2319,
      "Ġlá»©a": 2320,
      "ĠháºŃn": 2321,
      "Ġyáº¿m": 2322,
      "ĠmáºŃt": 2323,
      "Ġtá»¥": 2324,
      "Ġthá»ķn": 2325,
      "ĠÄĳáº§m": 2326,
      "ĠkhÃ©o": 2327,
      "ĠmÃłi": 2328,
      "Ġbuá»Ļc": 2329,
      "Ġbáº½": 2330,
      "ĠtÃ¡c": 2331,
      "Ġdáº§m": 2332,
      "ĠrÅ©": 2333,
      "Ġtháº£o": 2334,
      "Ġlau": 2335,
      "Ġváº¡t": 2336,
      "Ġthiá»ĩt": 2337,
      "Ġdá»ĳc": 2338,
      "ĠbÃ²": 2339,
      "Ġmá»ĩt": 2340,
      "ĠlÃŃnh": 2341,
      "Ġthiá»ĩn": 2342,
      "ĠÄĳá»ģ": 2343,
      "Ġváº«y": 2344,
      "Ġmuá»ĳi": 2345,
      "Ġmiáº¿ng": 2346,
      "ĠvÃµng": 2347,
      "Ġtoan": 2348,
      "Ġchuá»ĵn": 2349,
      "Ġxáº¿p": 2350,
      "ĠÄĳuá»ķi": 2351,
      "ĠÄĳá»Ľn": 2352,
      "Ġhá»ģ": 2353,
      "Ä©u": 2354,
      "iáº¿p": 2355,
      "Ġbom": 2356,
      "ĠtrÃ¡nh": 2357,
      "á»ĳm": 2358,
      "ĠphÃº": 2359,
      "ĠgÃ¬n": 2360,
      "ĠluÃ¢n": 2361,
      "ĠmÃ¡y": 2362,
      "ĠsÆ¡": 2363,
      "ĠxÃ³a": 2364,
      "ĠlÃªnh": 2365,
      "Ġvay": 2366,
      "Ġngá»±a": 2367,
      "Ġgiá»ıi": 2368,
      "ĠlÃ¬a": 2369,
      "ĠcÆ°á»Ľi": 2370,
      "ĠkhÃŃ": 2371,
      "ĠÄĳáº¡n": 2372,
      "Ġyáº¿u": 2373,
      "Ġphi": 2374,
      "Ġleo": 2375,
      "ĠghÃ©t": 2376,
      "ĠÆ°Æ¡m": 2377,
      "ĠrÃ¡ch": 2378,
      "Ġven": 2379,
      "ĠÄĳÃ²i": 2380,
      "ĠvÃ²": 2381,
      "Ġrun": 2382,
      "ĠtÃ´n": 2383,
      "ĠgiÆ°á»Ŀng": 2384,
      "Ġvá»ĳn": 2385,
      "ĠhÃ³t": 2386,
      "Ġghen": 2387,
      "ĠphÃ¡": 2388,
      "ĠÄĳÃły": 2389,
      "Ġgáº¯ng": 2390,
      "Ġsan": 2391,
      "Ġcá»Ľ": 2392,
      "Ġmáº¡ng": 2393,
      "Ġneo": 2394,
      "ĠnÃ¢u": 2395,
      "Ġlá»ĭch": 2396,
      "ĠÆ°Æ¡ng": 2397,
      "Ġkhai": 2398,
      "Ġquá»³": 2399,
      "ĠlÆ°á»Ľt": 2400,
      "Ġcáº¯t": 2401,
      "Æ°á»¡i": 2402,
      "á»¥t": 2403,
      "Ġgáº¯n": 2404,
      "Ġvá»Ŀ": 2405,
      "ĠvÃŃ": 2406,
      "Ġháº¡i": 2407,
      "Ġbá»ķng": 2408,
      "Ġcháº¥p": 2409,
      "Ġdáº£i": 2410,
      "Ġtháº¹n": 2411,
      "Ġtrá»ķ": 2412,
      "Ġbá»©c": 2413,
      "ĠlÄĥng": 2414,
      "Ġchá»©c": 2415,
      "Ġvid": 2416,
      "ĠbuÃ´n": 2417,
      "Ġtáº¿": 2418,
      "ĠthÃº": 2419,
      "Ġthá»Ń": 2420,
      "Ġngáº«m": 2421,
      "ĠphÃª": 2422,
      "ĠÄĳoan": 2423,
      "ĠtrÄ©u": 2424,
      "ĠxÃºc": 2425,
      "ĠtÆ°ng": 2426,
      "ĠÄĳÃ´": 2427,
      "ĠtÄĥm": 2428,
      "Ġmiá»ĩt": 2429,
      "ĠlÃ£o": 2430,
      "ĠvÃłnh": 2431,
      "ĠgiÃ£": 2432,
      "Ġáº©n": 2433,
      "ĠvÃ¢y": 2434,
      "ĠÄĳá»©t": 2435,
      "Ġtá»©c": 2436,
      "Ġbiáº¿n": 2437,
      "Ġnhiá»ĩm": 2438,
      "ĠÄĳÃ¡m": 2439,
      "ĠrÃ¬": 2440,
      "Ġgan": 2441,
      "ĠsÃºng": 2442,
      "Ġtáº¯t": 2443,
      "Ġquáº£n": 2444,
      "Ġcan": 2445,
      "Ġham": 2446,
      "Ġngá»Ļ": 2447,
      "ĠliÃªn": 2448,
      "ĠÄĳeo": 2449,
      "ĠkhÃª": 2450,
      "á»¥y": 2451,
      "Ġchá»ĵi": 2452,
      "ĠmÃ¹ng": 2453,
      "ĠbÃ¹n": 2454,
      "Ġdá»ĳi": 2455,
      "Ġdáº«n": 2456,
      "BBTBBB": 2457,
      "Ġdá»Ĺi": 2458,
      "Ġdá»įc": 2459,
      "Ġtáº§ng": 2460,
      "ĠxÃ£": 2461,
      "ĠÄĳÃªnh": 2462,
      "ĠbáºŃn": 2463,
      "Ġtrá»ĳn": 2464,
      "ĠÃ¡ng": 2465,
      "Ġgiáº¿ng": 2466,
      "Ġngá»ı": 2467,
      "Ġna": 2468,
      "ĠniÃªn": 2469,
      "Ġcá»Ļi": 2470,
      "Ġliá»ģu": 2471,
      "Ġcua": 2472,
      "Ġtrá»ĭ": 2473,
      "Ġváº³ng": 2474,
      "ĠsÃ¡t": 2475,
      "Ġláº§u": 2476,
      "ĠhÃ¢y": 2477,
      "Ġdá»©t": 2478,
      "Ġbáº¿p": 2479,
      "ĠhoÃłn": 2480,
      "Ġdong": 2481,
      "ĠkhuyÃªn": 2482,
      "Ġnhan": 2483,
      "á»ĵm": 2484,
      "Ġhá»©ng": 2485,
      "ĠmÆ°á»£t": 2486,
      "Ġlá»¯ng": 2487,
      "Ġlá»Ļng": 2488,
      "ĠphÃ¹ng": 2489,
      "Ġráº§u": 2490,
      "Ġkhuyáº¿t": 2491,
      "ĠvuÃ´ng": 2492,
      "Ġxáº¿": 2493,
      "BBBBTB": 2494,
      "Ġnho": 2495,
      "ĠÄĳÄĥng": 2496,
      "Ġchá»ĵn": 2497,
      "ĠmÅ©": 2498,
      "Ã²e": 2499,
      "Ġthiá»ģn": 2500,
      "Ġhong": 2501,
      "ĠdÆ°á»Ŀng": 2502,
      "ĠphÃ©p": 2503,
      "ĠcÃło": 2504,
      "ĠmÃ³n": 2505,
      "Ġcháº¡nh": 2506,
      "Ġthá»§a": 2507,
      "Ġdá»«a": 2508,
      "Ġhá»įp": 2509,
      "Ġcá»ķng": 2510,
      "Ġtáº£o": 2511,
      "Ġtháº£m": 2512,
      "ĠtÆ°á»Ľng": 2513,
      "Ġbá»¥ng": 2514,
      "ĠngÃłi": 2515,
      "Ġghá»ģnh": 2516,
      "áº¡p": 2517,
      "ĠÄĳá»įa": 2518,
      "Ġcháº¯t": 2519,
      "ĠchÃ¡n": 2520,
      "ĠoÃ¡n": 2521,
      "Ġhá»Ļ": 2522,
      "Ġváº¯t": 2523,
      "ĠlÃ¡nh": 2524,
      "Ġkhe": 2525,
      "Ġdiá»ĩu": 2526,
      "Ġá»ĳm": 2527,
      "Ġbáº§n": 2528,
      "Ġná»©c": 2529,
      "Ġsá»¯a": 2530,
      "BBBBBB": 2531,
      "Ġbia": 2532,
      "ĠcÃºi": 2533,
      "ĠgÃ¡c": 2534,
      "ĠÃª": 2535,
      "ĠlÃ¢m": 2536,
      "ĠÃ¡c": 2537,
      "ĠrÃ¨m": 2538,
      "Ġxang": 2539,
      "Ġchá»Ŀn": 2540,
      "ĠbÃ³": 2541,
      "ĠÃ©n": 2542,
      "Ġcuá»Ļn": 2543,
      "Ġvun": 2544,
      "ĠphÃ¢y": 2545,
      "ĠcÃ²ng": 2546,
      "Ġthai": 2547,
      "Æ°á»Łng": 2548,
      "ĠthÆ°á»Ľt": 2549,
      "ĠdÆ°a": 2550,
      "ĠphÃ¡o": 2551,
      "ĠsÃłng": 2552,
      "ĠgÃ¢y": 2553,
      "Ġquáº¥n": 2554,
      "ĠbÃ¹ng": 2555,
      "ĠvÆ°á»Ľng": 2556,
      "ĠnÄĥng": 2557,
      "ĠdÃµi": 2558,
      "ĠdÆ°á»¡ng": 2559,
      "Ġnáº¿p": 2560,
      "ĠÄĳÃ³ng": 2561,
      "Ġbá»Ļn": 2562,
      "Ġdáº¯t": 2563,
      "Ġtrá»ģ": 2564,
      "ĠthÃªnh": 2565,
      "ĠÄĳÆ¡m": 2566,
      "Ġlá»Ł": 2567,
      "Ġbá»ĵn": 2568,
      "ĠrÃ¬nh": 2569,
      "Ġchá»«": 2570,
      "ĠkiÃªu": 2571,
      "ĠtÆ°á»£ng": 2572,
      "Ġnhá»ĭ": 2573,
      "ĠkiÃªn": 2574,
      "Ġtáº±m": 2575,
      "ĠhÃºt": 2576,
      "ĠsÆ°": 2577,
      "ĠnguÃ´i": 2578,
      "Ġninh": 2579,
      "Ġxáº¥u": 2580,
      "ĠÄĳiÃªu": 2581,
      "ĠtrÆ¡": 2582,
      "Ġcáº·p": 2583,
      "Ġmá»ĵi": 2584,
      "Ġthá»ĳng": 2585,
      "BBTBTB": 2586,
      "Ġkhoáº£i": 2587,
      "ĠmÆ¡n": 2588,
      "ĠcháºŃm": 2589,
      "Ġxá»ĳn": 2590,
      "ĠbÆ¡i": 2591,
      "Ġvá»£i": 2592,
      "áº¹o": 2593,
      "Ġkiáº¿n": 2594,
      "Ġnháº£y": 2595,
      "uá»Ļt": 2596,
      "BTBB": 2597,
      "Ġdiá»ĩt": 2598,
      "ĠgiÃłnh": 2599,
      "ĠhÃ¢n": 2600,
      "ĠchÃ´ng": 2601,
      "Ġlá»Ńng": 2602,
      "Ġloi": 2603,
      "Ġcuá»ĵng": 2604,
      "ĠÄĳáº¥u": 2605,
      "ĠvÃŃt": 2606,
      "Ġmá»ī": 2607,
      "ĠngÃºt": 2608,
      "ĠngÃ¢m": 2609,
      "Ġtriá»ģu": 2610,
      "Ġloáº¡i": 2611,
      "Ġdá»Ŀi": 2612,
      "Ġliá»ĩu": 2613,
      "Ġgá»¡": 2614,
      "Ġchá»¥c": 2615,
      "ĠÄĳáº±ng": 2616,
      "ĠcÄĥng": 2617,
      "Ãºm": 2618,
      "áº³n": 2619,
      "Ġtui": 2620,
      "ĠcÆ°á»Ŀng": 2621,
      "á»ħm": 2622,
      "Ġtháº¯t": 2623,
      "Ġgiáº§u": 2624,
      "Ġchá»Ľm": 2625,
      "ĠtruÃ¢n": 2626,
      "Ġchuá»ĳi": 2627,
      "Ġsum": 2628,
      "Ġthiáº¿p": 2629,
      "áº£m": 2630,
      "ĠÄĳáºŃp": 2631,
      "ĠÄĳá»ĳi": 2632,
      "Ġcáº¥y": 2633,
      "Ġhiá»ĥm": 2634,
      "ĠchÃ¨": 2635,
      "ĠvÃ´i": 2636,
      "ĠmÃ´": 2637,
      "ĠhÃ¨n": 2638,
      "Ġtá»ĳ": 2639,
      "Ġráº½": 2640,
      "Ġgai": 2641,
      "ĠluáºŃt": 2642,
      "ĠlÃ¹i": 2643,
      "ĠnhÃłnh": 2644,
      "Ġkhá»Łi": 2645,
      "ĠdÃ²": 2646,
      "ĠsÃłi": 2647,
      "Ġcá»§": 2648,
      "Ġlá»«a": 2649,
      "Ġná»ĵi": 2650,
      "á»Ļm": 2651,
      "ĠrÃ³t": 2652,
      "ĠÄĳá»Ĺ": 2653,
      "ĠcÃµng": 2654,
      "ĠvÃµ": 2655,
      "ĠcÆ°Æ¡ng": 2656,
      "Ġcáº¥p": 2657,
      "Ġká»ĩ": 2658,
      "ĠxÃło": 2659,
      "Ġtáº¡": 2660,
      "ĠchÃ¡t": 2661,
      "Ġxua": 2662,
      "Ġlá»«ng": 2663,
      "Ġnháº¥p": 2664,
      "ĠquyÃªn": 2665,
      "ĠlÃ¢y": 2666,
      "Ġvuá»ĳt": 2667,
      "áº¿ch": 2668,
      "Ġkhung": 2669,
      "ĠlÃ¡i": 2670,
      "Ġlui": 2671,
      "ĠváºŃn": 2672,
      "ĠgiÃªng": 2673,
      "Ġnguyá»ģn": 2674,
      "Ġnhang": 2675,
      "Ġgiáº¥y": 2676,
      "TBBBTB": 2677,
      "Ġcuá»Ļi": 2678,
      "ĠÃ²a": 2679,
      "ĠcÄĥn": 2680,
      "ĠdiÃªu": 2681,
      "Ġthong": 2682,
      "ĠtrÃºt": 2683,
      "Ġa": 2684,
      "ĠrÃºt": 2685,
      "ĠmÃłnh": 2686,
      "ĠrÃŃu": 2687,
      "á»ĭnh": 2688,
      "Ġmáº«u": 2689,
      "Ġcá»Ļng": 2690,
      "Ġtam": 2691,
      "ĠmÃºa": 2692,
      "Ġháº£": 2693,
      "Ġkiá»ĥ": 2694,
      "Ġdáº·n": 2695,
      "Ġphá»¥c": 2696,
      "Ġá»«": 2697,
      "ĠnháºŃp": 2698,
      "Ġxuáº¥t": 2699,
      "ĠxÃ©": 2700,
      "ĠtrÃ³t": 2701,
      "ĠtrÃ¨o": 2702,
      "ĠxuyÃªn": 2703,
      "Ġkáº»o": 2704,
      "ĠbÃło": 2705,
      "Ġtriá»ĩu": 2706,
      "ĠngÆ¡i": 2707,
      "Ġhuáº¿": 2708,
      "Ġcuá»ĳc": 2709,
      "Ġmá»±c": 2710,
      "Ġngá»±c": 2711,
      "ĠtrÄĥn": 2712,
      "ĠtÃ´m": 2713,
      "ĠÄĳiá»ĩp": 2714,
      "Ġuá»ĳn": 2715,
      "Ġchá»©ng": 2716,
      "Ġf": 2717,
      "Ġmá»īm": 2718,
      "ĠmÃ²": 2719,
      "ĠrÃŃt": 2720,
      "Ġná»ģn": 2721,
      "Ġsáº£n": 2722,
      "ĠcÃ¢n": 2723,
      "Ġbon": 2724,
      "ĠhÆ°á»Łng": 2725,
      "Ġláº¯c": 2726,
      "Ġluá»ĵn": 2727,
      "Ġchá»©": 2728,
      "ĠnÃ´n": 2729,
      "Ġtrá»Ļm": 2730,
      "ĠtÃºi": 2731,
      "ĠkÃ©m": 2732,
      "Ġkhang": 2733,
      "ĠphÆ¡": 2734,
      "ĠtrÃłng": 2735,
      "ĠngÃ´n": 2736,
      "Ġnhá»¥y": 2737,
      "ĠrÃ¢m": 2738,
      "ĠsÃ´i": 2739,
      "ĠcÆ°á»Ľp": 2740,
      "Ġcháº¯p": 2741,
      "Ġdá»¥c": 2742,
      "ĠthÃ¹ng": 2743,
      "ĠÄĳao": 2744,
      "ĠnÃ´i": 2745,
      "ĠÄĳÃ¡p": 2746,
      "Ġphen": 2747,
      "áºŃc": 2748,
      "ĠcÄĥm": 2749,
      "Ġlá»±c": 2750,
      "ĠthÃªu": 2751,
      "ĠlÃ´ng": 2752,
      "Ġgiá»Ŀi": 2753,
      "Ġkhinh": 2754,
      "Ġkháº©u": 2755,
      "Ġsá»Ńa": 2756,
      "ĠlÆ°á»Ŀng": 2757,
      "ĠthÃ³i": 2758,
      "Ġmá»ĵng": 2759,
      "Ġchanh": 2760,
      "Ġkhoan": 2761,
      "ĠvÃºt": 2762,
      "Ġrinh": 2763,
      "Ġmiá»ģu": 2764,
      "ĠxÆ¡": 2765,
      "Ġsanh": 2766,
      "ĠlÆ°á»¡i": 2767,
      "ĠbáºŃc": 2768,
      "Ġnáº§y": 2769,
      "Ġloang": 2770,
      "Ġháº³n": 2771,
      "Ġngáº¯t": 2772,
      "ĠlÃ£": 2773,
      "ĠgiÃ¡c": 2774,
      "ĠbÃ¡m": 2775,
      "ĠÄĳáº±m": 2776,
      "Ġluá»ĳng": 2777,
      "Ġlá»¥y": 2778,
      "ĠngÅ©": 2779,
      "ĠlÃ²": 2780,
      "ĠtrÃªu": 2781,
      "Ġlá»Ļn": 2782,
      "Ġá»Ńng": 2783,
      "Ġláº¡y": 2784,
      "ĠchÃ¡o": 2785,
      "Ġluyá»ĩn": 2786,
      "ĠtÃ¡n": 2787,
      "ĠtÃ¡ch": 2788,
      "ĠchÃ³": 2789,
      "ĠdÃ£": 2790,
      "ĠdÄ©": 2791,
      "Ġbáº¡t": 2792,
      "Ġdáº§y": 2793,
      "Ġtá»¥c": 2794,
      "ĠhÃ©": 2795,
      "Ġká»ī": 2796,
      "ĠrÆ°á»Ľc": 2797,
      "ĠngÃ³n": 2798,
      "ĠtÄ©nh": 2799,
      "ĠvÄ©nh": 2800,
      "Ġnáº¡n": 2801,
      "ĠlÃ´": 2802,
      "ĠsÃ³c": 2803,
      "Ġdiáº¿t": 2804,
      "ĠgiÃłn": 2805,
      "Ġgá»ĵng": 2806,
      "Ġtia": 2807,
      "Ġsung": 2808,
      "Ġdá»Ĺ": 2809,
      "Ġkáº¿": 2810,
      "Ġchiu": 2811,
      "ĠthÆ°á»£ng": 2812,
      "ĠtÃªnh": 2813,
      "ĠnÃ´": 2814,
      "ĠráºŃp": 2815,
      "ĠkhÃ´i": 2816,
      "Ġlá»Ļ": 2817,
      "Ġláº½o": 2818,
      "ĠhÄĥng": 2819,
      "ĠtrÆ°á»Łng": 2820,
      "Ġviá»ħn": 2821,
      "Ġga": 2822,
      "Ġquáº©n": 2823,
      "Ġrá»Ńa": 2824,
      "Ġbá»įn": 2825,
      "Ġnuá»ĳt": 2826,
      "TBTBBB": 2827,
      "á»ĥu": 2828,
      "Ãºn": 2829,
      "Ġnghá»ĩ": 2830,
      "ĠdÄĥm": 2831,
      "ĠghÃ©p": 2832,
      "Ġvá»¥ng": 2833,
      "ĠnhÃ¡nh": 2834,
      "Ġnguyá»ħn": 2835,
      "Ġchinh": 2836,
      "ĠcáºŃn": 2837,
      "ĠsiÃªu": 2838,
      "Ġquáº£ng": 2839,
      "Ġxoan": 2840,
      "ĠnhÃłn": 2841,
      "á»·": 2842,
      "Ġchang": 2843,
      "Ġliá»ĩt": 2844,
      "Ġáº£": 2845,
      "Ġnáº¿t": 2846,
      "ĠgÃ²n": 2847,
      "á»¥p": 2848,
      "Ġháº¡n": 2849,
      "ĠÄĳÃ¢m": 2850,
      "Ġnhu": 2851,
      "ĠcáºŃy": 2852,
      "ĠbÃ©n": 2853,
      "Ġbáº¡ch": 2854,
      "ĠlÄĥm": 2855,
      "ĠkhÃ³e": 2856,
      "ĠmÃ¢m": 2857,
      "ĠbÃ²ng": 2858,
      "Ġchá»Ľp": 2859,
      "ĠÄĳáº¡p": 2860,
      "ĠngÃłnh": 2861,
      "Ġmá»Ľ": 2862,
      "Ġná»ĳt": 2863,
      "ĠsÆ°a": 2864,
      "Ġsá»¹": 2865,
      "TBBBBB": 2866,
      "ĠxÃ´ng": 2867,
      "Ġnhá»§": 2868,
      "ĠchÃ¹m": 2869,
      "Ġquá»³nh": 2870,
      "Ġláº¥m": 2871,
      "Ġráº¯c": 2872,
      "áº¹t": 2873,
      "Ġgiai": 2874,
      "ĠgÃµ": 2875,
      "Ġkhua": 2876,
      "ĠlÃ´i": 2877,
      "ĠbÃŃ": 2878,
      "Ġniu": 2879,
      "ĠxÃ¡": 2880,
      "Ġnhá»ĭn": 2881,
      "Ġtá»Ļc": 2882,
      "Ġhá»Ŀi": 2883,
      "Ġáº§m": 2884,
      "Ġsáº¯n": 2885,
      "Ġchá»Ńa": 2886,
      "ĠbÃ¬": 2887,
      "ĠchÆ°Æ¡ng": 2888,
      "ĠmÅ©i": 2889,
      "ĠtrÆ¡n": 2890,
      "Ġhang": 2891,
      "Ġchai": 2892,
      "Ġngá»£i": 2893,
      "Ġran": 2894,
      "Ġloan": 2895,
      "ĠmÃ£": 2896,
      "ĠrÃ¡ng": 2897,
      "Ġtá»Ŀ": 2898,
      "ĠvÃ¡ch": 2899,
      "ĠvÃ£ng": 2900,
      "ĠtÃ¡o": 2901,
      "ĠngÆ°": 2902,
      "Ġháº§u": 2903,
      "TBTBTB": 2904,
      "Ġxum": 2905,
      "ĠluáºŃn": 2906,
      "Ġlim": 2907,
      "Ġcáº¯n": 2908,
      "ĠbÃ¹a": 2909,
      "ĠnhÃ¨": 2910,
      "Ġthá»ī": 2911,
      "Ġlen": 2912,
      "Ġáº§u": 2913,
      "Ġlá»¯": 2914,
      "Ġbáº¥c": 2915,
      "ĠchiÃªu": 2916,
      "Ġhiáº¿n": 2917,
      "ĠbÃª": 2918,
      "ĠngÃ¹ng": 2919,
      "ĠtÃº": 2920,
      "Ġxáº¡c": 2921,
      "ĠphÆ°á»Ľc": 2922,
      "Ġbá»«a": 2923,
      "ĠphiÃªn": 2924,
      "Ġthuá»Ļc": 2925,
      "Ġráº¡": 2926,
      "Ġxá»©ng": 2927,
      "ĠtÃ´ng": 2928,
      "ĠnÃł": 2929,
      "ĠnÃµ": 2930,
      "ĠgÃło": 2931,
      "ĠphÃłng": 2932,
      "ĠÄĳinh": 2933,
      "Ġmáº¡n": 2934,
      "Ġnai": 2935,
      "Ġgháº¿": 2936,
      "ĠgiÃ²n": 2937,
      "Ġbuá»ĵm": 2938,
      "Ġbáº»": 2939,
      "Ġhá»Ł": 2940,
      "Ãµa": 2941,
      "ĠtÃ¹ng": 2942,
      "Ġtanh": 2943,
      "Ġmá»ĩnh": 2944,
      "Ġnhá»¥c": 2945,
      "ĠkhuÃ´n": 2946,
      "ĠcÃ¡m": 2947,
      "Ġbiá»ģn": 2948,
      "Ġxoa": 2949,
      "áºµng": 2950,
      "ĠtÃ²a": 2951,
      "ĠnhÃ´": 2952,
      "Ġtá»ĭnh": 2953,
      "Ġkháº¥n": 2954,
      "ĠcÃºng": 2955,
      "ĠhÃ²n": 2956,
      "Ġbá»Ļi": 2957,
      "Ġtháº£n": 2958,
      "ĠnÃµn": 2959,
      "ĠghÃ¬": 2960,
      "Ġbá»įt": 2961,
      "ĠmÃ¨o": 2962,
      "Ġkáº½": 2963,
      "Ġxung": 2964,
      "Ġoai": 2965,
      "ĠvÃ¡": 2966,
      "ĠchÃ¹ng": 2967,
      "ĠtÃ½": 2968,
      "ĠÄĳuÃ´i": 2969,
      "ĠlÃ¡ng": 2970,
      "ĠgÃ¡y": 2971,
      "Ġquáº·n": 2972,
      "Ġláº¯t": 2973,
      "Ġgiáº¿t": 2974,
      "Ġloáº¡n": 2975,
      "ĠnhÃ³i": 2976,
      "ĠlÆ°a": 2977,
      "ĠnhÄĥn": 2978,
      "Ġtá»ĵn": 2979,
      "Ġnháº«n": 2980,
      "TTBBB": 2981,
      "Ġgá»£n": 2982,
      "Ġcáº¥m": 2983,
      "ĠlÆ°á»Ľi": 2984,
      "Ġngáº¡t": 2985,
      "ĠtrÃ¬": 2986,
      "ĠdÅ©ng": 2987,
      "ĠchÆ°ng": 2988,
      "ĠcÃ¢m": 2989,
      "Ġthon": 2990,
      "Ġngá»±": 2991,
      "Ġcá»Ļt": 2992,
      "ĠbÃ´n": 2993,
      "Ġmá»Ļc": 2994,
      "Ġbuá»ĵng": 2995,
      "Ġcháº¿": 2996,
      "ĠphÅ©": 2997,
      "Ġyáº¿n": 2998,
      "Ġná»ķ": 2999,
      "Ġsáº¥m": 3000,
      "Ġxiáº¿t": 3001,
      "ĠÆ°a": 3002,
      "ĠÄĳáº£m": 3003,
      "Ġbáº©y": 3004,
      "áº¿c": 3005,
      "Ġcá»Ń": 3006,
      "ĠvÃªnh": 3007,
      "Ġná»į": 3008,
      "Ġxui": 3009,
      "Ġvá»ĩ": 3010,
      "Ġngá»ķn": 3011,
      "Ġlá»¥t": 3012,
      "Ġmáº¡c": 3013,
      "Ġgiá»¥c": 3014,
      "ĠnghiÃªm": 3015,
      "Ġoanh": 3016,
      "Ġthá»į": 3017,
      "Ġni": 3018,
      "ĠphÃł": 3019,
      "Ġsá»Ł": 3020,
      "ĠtÃŃt": 3021,
      "ĠrÃ²ng": 3022,
      "ĠvÃ£": 3023,
      "Ġsáº¯m": 3024,
      "Ġliáº¿c": 3025,
      "Ġtáº¥c": 3026,
      "ĠchÃ³i": 3027,
      "Ġsá»Ŀn": 3028,
      "ĠgÃ£y": 3029,
      "Ġsá»Ŀ": 3030,
      "ĠtrÆ°Æ¡ng": 3031,
      "ĠquÃ©t": 3032,
      "ĠtáºŃt": 3033,
      "ĠhÃłm": 3034,
      "ĠlÃºng": 3035,
      "Ġveo": 3036,
      "Ġmáº¡ch": 3037,
      "ĠgiÃ¡ng": 3038,
      "Ġnháº¡n": 3039,
      "Ġká»¹": 3040,
      "ĠthÃ³c": 3041,
      "Ġthoáº¯t": 3042,
      "Ġsim": 3043,
      "Ġme": 3044,
      "ĠhÃ´": 3045,
      "BTTBBB": 3046,
      "ĠuyÃªn": 3047,
      "ĠxÃ²e": 3048,
      "ĠvÃ©n": 3049,
      "Ġtáº¡c": 3050,
      "Ġrá»£p": 3051,
      "ĠvÃ³c": 3052,
      "ĠÃ³ng": 3053,
      "ĠthÆ°á»Łng": 3054,
      "ĠmÄĥng": 3055,
      "Ġháº±n": 3056,
      "ĠÄĳá»ĵn": 3057,
      "ĠlÃ¢n": 3058,
      "ĠdÃª": 3059,
      "Ġbung": 3060,
      "Ġhoen": 3061,
      "Ġkhá»ĳi": 3062,
      "Ġchuá»Ļt": 3063,
      "á»¡n": 3064,
      "ĠbÃºp": 3065,
      "Ġtiá»ĥu": 3066,
      "Ġtáº§u": 3067,
      "Ġmá»ĳt": 3068,
      "ĠÄĳáº¡t": 3069,
      "ĠquÃ½t": 3070,
      "ĠgáºŃp": 3071,
      "ĠrÃ¢u": 3072,
      "ĠmÃ´n": 3073,
      "Ġáº¥u": 3074,
      "Ġmu": 3075,
      "Ġtra": 3076,
      "ĠlÅ©y": 3077,
      "Ġhá»ķ": 3078,
      "ĠngÃ¡c": 3079,
      "ĠthÃ¡p": 3080,
      "ĠchÃłnh": 3081,
      "Ġhiá»ĥn": 3082,
      "Ġgáº¥p": 3083,
      "Ġxáº»": 3084,
      "Ġcá»Łi": 3085,
      "Ġlá»£n": 3086,
      "ĠchÃ²ng": 3087,
      "ĠxÃµa": 3088,
      "ĠthÃ¬nh": 3089,
      "Ġnháº§m": 3090,
      "ĠÃŃch": 3091,
      "ĠvÃ¡y": 3092,
      "Ġmá»ĵm": 3093,
      "ĠsÆ°á»Łi": 3094,
      "ĠÄĳá»ĩ": 3095,
      "BTTB": 3096,
      "Ġchá»«a": 3097,
      "ĠÄĳáº¿": 3098,
      "ĠthÃły": 3099,
      "Ġtro": 3100,
      "Ġbong": 3101,
      "Ġsá»ķ": 3102,
      "Ġváº©n": 3103,
      "ĠbÃ¹": 3104,
      "Ġcháº£i": 3105,
      "Ġlá»ĩnh": 3106,
      "ĠrÃłnh": 3107,
      "Ġkhá»ĳn": 3108,
      "ĠquÃ¢y": 3109,
      "Ġbáº£ng": 3110,
      "Ġváº£i": 3111,
      "Ġláº¡t": 3112,
      "ĠtÃ¡t": 3113,
      "ĠkhÃ³m": 3114,
      "ĠÄĳáº»": 3115,
      "Ġmá»įng": 3116,
      "Ġháº¡c": 3117,
      "ĠquÃ£ng": 3118,
      "Ġuy": 3119,
      "á»ĭm": 3120,
      "Ġdiá»ħn": 3121,
      "uá»ĳm": 3122,
      "Ġhá»ĳi": 3123,
      "ĠÃ´n": 3124,
      "Ġnhuá»ĳm": 3125,
      "Ġcháº¥m": 3126,
      "ĠvÄ©": 3127,
      "uá»Ļc": 3128,
      "ĠlÆ°á»£ng": 3129,
      "Ġgáº¥m": 3130,
      "Ġtá»ĭch": 3131,
      "Ġláº«y": 3132,
      "Ġxen": 3133,
      "ĠphÃ³ng": 3134,
      "Ġung": 3135,
      "ĠmÃ¡c": 3136,
      "ĠxÃ¢m": 3137,
      "Ġquáº¡t": 3138,
      "Ġquá»·": 3139,
      "ĠÄĳá»ĳ": 3140,
      "ĠnhÃło": 3141,
      "Ġlá»ĭm": 3142,
      "Ġvá»±c": 3143,
      "Ġviáº¿ng": 3144,
      "Ġnháº¯m": 3145,
      "Ġgáº·t": 3146,
      "BTBBTB": 3147,
      "ĠmÆ°á»Ľt": 3148,
      "Ġtrá»¥": 3149,
      "Ġnhiá»ĩt": 3150,
      "Ġnhá»ĩn": 3151,
      "Ġvong": 3152,
      "Ġbá»ıng": 3153,
      "ĠÄĳÃ²n": 3154,
      "Ġgiáº£n": 3155,
      "BTTBTB": 3156,
      "ĠÄĳuá»ĳi": 3157,
      "Ġchá»ĳc": 3158,
      "ĠthuÃª": 3159,
      "ĠÄĳáº·ng": 3160,
      "ĠÄĳÄĥm": 3161,
      "ĠhÆ°ng": 3162,
      "Ġnháº£": 3163,
      "Ġthá»ĭnh": 3164,
      "ĠgÆ°Æ¡m": 3165,
      "Ġlem": 3166,
      "ĠphÃŃm": 3167,
      "ĠbáºŃt": 3168,
      "ĠchÃ³ng": 3169,
      "ĠngÆ°Æ¡i": 3170,
      "Ġle": 3171,
      "ĠlÃ³": 3172,
      "Ġgá»«ng": 3173,
      "Ġná»ī": 3174,
      "ĠtÆ°á»Ľi": 3175,
      "á»³": 3176,
      "ĠthiÃªu": 3177,
      "ĠlÆ°á»£c": 3178,
      "Ġkháº¿": 3179,
      "Ġxáº£": 3180,
      "ĠbÆ°ng": 3181,
      "Ġngá»Ńa": 3182,
      "Ġcá»ĳt": 3183,
      "ĠmÃ¬": 3184,
      "Ġmá»¥c": 3185,
      "Ġngá»¥c": 3186,
      "ĠrÃ©o": 3187,
      "ĠrÃ¨n": 3188,
      "Ġkiá»ĥu": 3189,
      "ĠxÃ¡m": 3190,
      "ĠÄĳá»ĳng": 3191,
      "Ġdai": 3192,
      "Ġvá»Ľt": 3193,
      "Ġdá»įn": 3194,
      "Ġthoang": 3195,
      "ĠhÆ°u": 3196,
      "Ġnghá»ĭch": 3197,
      "Ġeo": 3198,
      "Ġchá»ģ": 3199,
      "Ġcáº¯m": 3200,
      "ĠdÃ´ng": 3201,
      "Ġliáº¿ng": 3202,
      "Ġthá»ĳt": 3203,
      "ĠvÃ¡c": 3204,
      "Ġmáº¡": 3205,
      "ĠnháºŃu": 3206,
      "Ġthoáº¡i": 3207,
      "ĠÃ¡n": 3208,
      "Ġtiá»ĩc": 3209,
      "Ġdáº»o": 3210,
      "Ġdáº¿": 3211,
      "Ġlá»ģ": 3212,
      "ĠlÃ¬m": 3213,
      "Ġgá»Ļi": 3214,
      "ĠÆ°": 3215,
      "Ġngoáº£nh": 3216,
      "Ġchá»Ńi": 3217,
      "Ġhiá»ĩu": 3218,
      "Ġá»ĳc": 3219,
      "Ġviá»ĩn": 3220,
      "Ġchuáº©n": 3221,
      "ĠsÃ³t": 3222,
      "ĠÄĳÃ£ng": 3223,
      "Ġtiá»ĩn": 3224,
      "Ġphá»ĵng": 3225,
      "Ġbo": 3226,
      "Ġbá»±c": 3227,
      "ĠlÃło": 3228,
      "Ġhoáº·c": 3229,
      "Ġmiá»ħn": 3230,
      "ĠcÃłn": 3231,
      "ĠÄĳáº·c": 3232,
      "Ġbáº¿": 3233,
      "ĠloÃł": 3234,
      "ĠÄĳÃ¹ng": 3235,
      "ĠcÃ¹": 3236,
      "Ġmá»¥": 3237,
      "Ġngáº¥m": 3238,
      "Ġdá»¯": 3239,
      "ĠÄĳÃ¬u": 3240,
      "Ġdiá»ĩn": 3241,
      "á»£t": 3242,
      "Ġnhiá»ħm": 3243,
      "Ġngá»ĵng": 3244,
      "Ġduy": 3245,
      "ĠmÃµ": 3246,
      "ĠtháºŃp": 3247,
      "iáº¿m": 3248,
      "Ġtrá»«": 3249,
      "ĠhoÃłnh": 3250,
      "Ġtáº¥n": 3251,
      "ĠthÃ³t": 3252,
      "Ġgiáº£ng": 3253,
      "Ġdáº±ng": 3254,
      "ĠhÃ¡n": 3255,
      "Ġvo": 3256,
      "ĠkÃª": 3257,
      "ĠcÃºt": 3258,
      "ĠlÆ°á»Ŀi": 3259,
      "Ġngan": 3260,
      "Ġáº£i": 3261,
      "Ġcáº±n": 3262,
      "Ġrá»Ļ": 3263,
      "Ġloa": 3264,
      "Ġvá»ĭt": 3265,
      "ĠÃ©p": 3266,
      "Ġvá»«ng": 3267,
      "ĠmÃ£n": 3268,
      "Ġlá»įt": 3269,
      "Ġtráº¡ng": 3270,
      "Ġtuyáº¿n": 3271,
      "ĠsuÃ´ng": 3272,
      "Ġdá»ĭp": 3273,
      "ĠngÆ°á»Ľc": 3274,
      "Ġro": 3275,
      "Ġlá»±a": 3276,
      "Ġchuá»Ĺi": 3277,
      "Ġlá»įc": 3278,
      "Ġnhá»Ł": 3279,
      "ĠnhÃ£n": 3280,
      "Ġkiá»ĩt": 3281,
      "ĠkÃ¨m": 3282,
      "Ġrao": 3283,
      "Ġlá»ĩch": 3284,
      "Ġcháº¯n": 3285,
      "Ġláº¥t": 3286,
      "Ġváº¡c": 3287,
      "Ġgiá»ģ": 3288,
      "ĠthÃºc": 3289,
      "ĠpháºŃp": 3290,
      "Ġbá»ķ": 3291,
      "Ġgiá»Ĺ": 3292,
      "ĠtÃłnh": 3293,
      "Ġfa": 3294,
      "ĠnhÆ¡": 3295,
      "Ġtráº¯c": 3296,
      "iá»ģng": 3297,
      "ĠlÃ£nh": 3298,
      "ĠÆ°á»Ľp": 3299,
      "ĠtrÃ²ng": 3300,
      "Ġvan": 3301,
      "Ġráº£i": 3302,
      "Ġcá»Ĺ": 3303,
      "Ġthoi": 3304,
      "ĠnhÃ³m": 3305,
      "Ġdáº¹p": 3306,
      "ĠkhoÄĥn": 3307,
      "TTBBTB": 3308,
      "ĠbÄĥn": 3309,
      "Ġhoe": 3310,
      "Ġchui": 3311,
      "ĠláºŃt": 3312,
      "Ġcá»ĳc": 3313,
      "ĠvÄĥng": 3314,
      "Ġdiá»ħm": 3315,
      "Ġquyáº¿n": 3316,
      "á»¥m": 3317,
      "Ġbá»įc": 3318,
      "ĠxÆ¡i": 3319,
      "Ġgiá»Ł": 3320,
      "ĠvÃ¢ng": 3321,
      "Ġnhai": 3322,
      "ĠsÃło": 3323,
      "Ġráº£": 3324,
      "ĠchÃºm": 3325,
      "Ã²m": 3326,
      "ĠgÃ£": 3327,
      "Ġgiá»ģng": 3328,
      "Ġthiu": 3329,
      "ĠbáºŃp": 3330,
      "ĠtrÆ°ng": 3331,
      "ĠtÃ¹y": 3332,
      "Ġphá»Ŀ": 3333,
      "Ġá»Ľt": 3334,
      "ĠcáºŃp": 3335,
      "Ġvoi": 3336,
      "Ġvon": 3337,
      "Ġhuynh": 3338,
      "Ġláº§y": 3339,
      "ĠbáºŃu": 3340,
      "ĠxÃ©t": 3341,
      "ĠkhiÃªm": 3342,
      "ĠtÄĥn": 3343,
      "ĠmÃŃ": 3344,
      "Ġxá»Ń": 3345,
      "Ġruá»ķi": 3346,
      "ĠÃ¹a": 3347,
      "Ġáº©m": 3348,
      "ĠláºŃn": 3349,
      "Ġvá»Ł": 3350,
      "TTBBBB": 3351,
      "Ġpháº¡m": 3352,
      "ĠthÆ°á»Ľc": 3353,
      "Ġháº¯n": 3354,
      "Ġráº¡o": 3355,
      "Ġcá»©ng": 3356,
      "Ġnuá»ĳi": 3357,
      "BTBBBB": 3358,
      "Ġnhen": 3359,
      "Ġkhá»©": 3360,
      "Ġkhá»ıa": 3361,
      "Ġhuyáº¿t": 3362,
      "ĠtÃło": 3363,
      "Ġkhoa": 3364,
      "Ġsá»©": 3365,
      "un": 3366,
      "ĠbÃ¡": 3367,
      "Ġbáº§m": 3368,
      "Ġngá»¯": 3369,
      "Ġháº§m": 3370,
      "ĠkhoÃ¡c": 3371,
      "ĠgiÃ¡p": 3372,
      "Ġvá»ĵng": 3373,
      "ĠtÃłng": 3374,
      "Ġsá»ıi": 3375,
      "Ġnhiá»ħu": 3376,
      "Ġhá»ĩ": 3377,
      "Ġphá»Ł": 3378,
      "ĠliÃªng": 3379,
      "Ġnáº£y": 3380,
      "Ġhung": 3381,
      "Ġtáº¥p": 3382,
      "ĠthÃ©t": 3383,
      "Ġchong": 3384,
      "ĠdÃ¨": 3385,
      "Ġdá»Ļi": 3386,
      "ĠkhÃ¹ng": 3387,
      "ĠlÆ°á»£t": 3388,
      "ĠhÃª": 3389,
      "Ġngáº§m": 3390,
      "Ġtá»Ľ": 3391,
      "Ġcháº§u": 3392,
      "Ġrang": 3393,
      "ĠlÃ¡ch": 3394,
      "ĠgáºŃt": 3395,
      "Ġgá»įn": 3396,
      "ĠdáºŃu": 3397,
      "ĠrÃ´": 3398,
      "TTTBBB": 3399,
      "ĠgÃ¹": 3400,
      "Ġrá»įi": 3401,
      "ĠtrÃ¢n": 3402,
      "Ġday": 3403,
      "Ġáº¯p": 3404,
      "Ġláº³ng": 3405,
      "ĠxÆ°á»Ľng": 3406,
      "Ġráº§m": 3407,
      "Ġphá»¥ng": 3408,
      "Ġgiáº£m": 3409,
      "Ġtá»ĳn": 3410,
      "ĠÄĳung": 3411,
      "Ġmá»ĭn": 3412,
      "ĠtÃ¡p": 3413,
      "ĠÄĳÃ¨": 3414,
      "ĠmÆ°Æ¡ng": 3415,
      "ĠÄĳÃ²ng": 3416,
      "Ġtriá»ĥn": 3417,
      "ĠchÃŃm": 3418,
      "ĠhuyÃªn": 3419,
      "Ġdá»¥ng": 3420,
      "TTTBTB": 3421,
      "Ġchuyá»ģn": 3422,
      "ĠnÃ©p": 3423,
      "ce": 3424,
      "Ġrá»ĥ": 3425,
      "Ġthá»īnh": 3426,
      "ĠrÃły": 3427,
      "ĠphÃ¡ch": 3428,
      "Ġtháº¡ch": 3429,
      "Ġlá»ģu": 3430,
      "ĠchÃł": 3431,
      "Ġngáº¥n": 3432,
      "Ġchiáº¿m": 3433,
      "ĠcáºŃu": 3434,
      "Ġnhá»±a": 3435,
      "Ġmá»¡": 3436,
      "ĠthÃło": 3437,
      "á»ıa": 3438,
      "Ġsá»Ńu": 3439,
      "Ġface": 3440,
      "Ġváº¥p": 3441,
      "ĠnÃ²i": 3442,
      "Ġnhá»Ļn": 3443,
      "ĠÆ°ng": 3444,
      "ĠcÆ°ng": 3445,
      "ĠthÃ¢y": 3446,
      "Ġhiá»ĩp": 3447,
      "Ġrá»ī": 3448,
      "Ġrá»§i": 3449,
      "ĠÄĳÃºc": 3450,
      "Ġphá»ĵn": 3451,
      "ĠquÃŃ": 3452,
      "Ġxi": 3453,
      "Ġá»ĵn": 3454,
      "Å©a": 3455,
      "ĠsÃ¡": 3456,
      "ĠkÃ©n": 3457,
      "Ġpháº£ng": 3458,
      "Ġvung": 3459,
      "Ġrá»ģn": 3460,
      "Ġtá»¥ng": 3461,
      "ĠquÃłng": 3462,
      "ĠcháºŃt": 3463,
      "ĠÄĳá»ĭch": 3464,
      "ĠchÃ©m": 3465,
      "Ġngao": 3466,
      "ĠphÃ¹n": 3467,
      "ĠcÆ°": 3468,
      "ĠnÆ°á»Ľng": 3469,
      "ĠsÃ¹i": 3470,
      "Ġthá»£": 3471,
      "Ġáº¯t": 3472,
      "ĠlÃ¬nh": 3473,
      "ĠchÃ©p": 3474,
      "ĠnÃ¹ng": 3475,
      "ĠnhÃłi": 3476,
      "Ġcá»ĳi": 3477,
      "Ġthá»ķ": 3478,
      "Ġchá»¥p": 3479,
      "ĠÄĳáºŃn": 3480,
      "Ġhi": 3481,
      "ĠÄĳáº¡m": 3482,
      "Ġgá»Ĺ": 3483,
      "ĠchoÃłng": 3484,
      "Ġbá»§a": 3485,
      "ĠnhÅ©ng": 3486,
      "Ġthen": 3487,
      "ĠÄĳiá»ģn": 3488,
      "Ġtrá»Ļn": 3489,
      "ĠsÆ°á»Ŀn": 3490,
      "Ġrá»ħ": 3491,
      "Ġrá»Ŀn": 3492,
      "Ġnghá»ĭ": 3493,
      "ĠthÃ¹y": 3494,
      "Ġá»©ng": 3495,
      "Ġnáº¿n": 3496,
      "Ġloanh": 3497,
      "Ġmáº§n": 3498,
      "ĠbÃµ": 3499,
      "Ġnáº¿m": 3500,
      "Ġmá»ı": 3501,
      "Ġvá»¥t": 3502,
      "ĠchÆ¡": 3503,
      "ĠrÃ¡c": 3504,
      "ĠrÄĥn": 3505,
      "ĠÄĳáº§n": 3506,
      "Ġmáº¯m": 3507,
      "ĠnhÃ£": 3508,
      "ĠxÃŃch": 3509,
      "Ġnghiá»ĩt": 3510,
      "Ġoáº±n": 3511,
      "Ġbáº¯n": 3512,
      "ĠvÃ¨o": 3513,
      "ĠtÃŃn": 3514,
      "Ġtáº¥u": 3515,
      "ĠmÃŃt": 3516,
      "Ġcháº·n": 3517,
      "ĠvÃ³": 3518,
      "Ġphá»Ľi": 3519,
      "iá»ĥu": 3520,
      "ĠÄĳáº¯n": 3521,
      "Ġgáº§m": 3522,
      "ĠbÃ´i": 3523,
      "Ġnáº§n": 3524,
      "ĠtoÃ¡n": 3525,
      "ĠquÆ¡": 3526,
      "Ġchuá»ĳc": 3527,
      "ĠdÃŃnh": 3528,
      "ĠÄĳÄ©": 3529,
      "Ġdá»ĵi": 3530,
      "ĠgiÃ£i": 3531,
      "ĠtÃ©p": 3532,
      "ĠrÃªn": 3533,
      "ĠtÃ¡nh": 3534,
      "Ġcháº·ng": 3535,
      "ĠÄĳÃ£i": 3536,
      "ĠlÃŃu": 3537,
      "Ġnáº¥m": 3538,
      "ĠchÃ³t": 3539,
      "Ġtáº¡nh": 3540,
      "Ġcá»§i": 3541,
      "ĠlÆ°": 3542,
      "Ġgiá»¡n": 3543,
      "ĠvÃ²m": 3544,
      "á»µ": 3545,
      "Ġchá»¯a": 3546,
      "ĠÄĳÃ¬a": 3547,
      "Ġsá»¯ng": 3548,
      "ĠkhÃ¢u": 3549,
      "Ġvá»¥n": 3550,
      "ĠxiÃªn": 3551,
      "áº¥ng": 3552,
      "Ġpháº©m": 3553,
      "Ġthui": 3554,
      "ĠmÄ©": 3555,
      "Ġthung": 3556,
      "ĠnÃ¨": 3557,
      "Ġmo": 3558,
      "ĠnÃ©m": 3559,
      "ĠÄĳá»±": 3560,
      "á»įa": 3561,
      "ĠkhuÃª": 3562,
      "ĠvÃ£n": 3563,
      "ĠgiÃ¡m": 3564,
      "Ġcá»ĳm": 3565,
      "Ġdá»±a": 3566,
      "ĠtÃªm": 3567,
      "Ġráº·ng": 3568,
      "Ġhuyá»ĩn": 3569,
      "Ġdinh": 3570,
      "ĠlÃ©n": 3571,
      "ĠchiÃªng": 3572,
      "ĠvÃ¡n": 3573,
      "ĠcÆ°á»¡i": 3574,
      "á»Ľp": 3575,
      "ĠkhÃ³a": 3576,
      "Ġvá»ı": 3577,
      "Ġnhá»¡": 3578,
      "ĠmÃ³c": 3579,
      "ĠlÄ©nh": 3580,
      "Ġcháº§m": 3581,
      "ĠlÃ³t": 3582,
      "Ġgáº¡t": 3583,
      "Ġpháº£n": 3584,
      "Ġcá»Ńu": 3585,
      "Ġhuá»ĩ": 3586,
      "Ġtuyá»ģn": 3587,
      "ĠÄĳÃ¡o": 3588,
      "Ġri": 3589,
      "Ġmáº©n": 3590,
      "ĠngÃ³i": 3591,
      "Ġnghiá»ĩm": 3592,
      "Ġbáº¡o": 3593,
      "Ġhan": 3594,
      "Ã½t": 3595,
      "ĠnhoÃłi": 3596,
      "Ġbá»ĳc": 3597,
      "Ġráº¯n": 3598,
      "ĠtrÃº": 3599,
      "Ġnhá»©c": 3600,
      "Ġtáº¯c": 3601,
      "ĠmáºŃn": 3602,
      "Ġcheo": 3603,
      "áº©ng": 3604,
      "ĠÃºt": 3605,
      "ĠvÃ¡i": 3606,
      "ĠcÃ´n": 3607,
      "Ġáº¿ch": 3608,
      "Ġráº£nh": 3609,
      "Ġpháº¡t": 3610,
      "ĠmÆ°á»Ľp": 3611,
      "Ġbá»ĳi": 3612,
      "Ġhá»¥t": 3613,
      "ĠÃ³c": 3614,
      "ĠvÅ©ng": 3615,
      "Ġdá»ģ": 3616,
      "Ġkáº¹t": 3617,
      "ĠgÃ²": 3618,
      "ĠdÃ©p": 3619,
      "áº½o": 3620,
      "Ġláº¥n": 3621,
      "ĠnáºŃp": 3622,
      "Ġsá»¥t": 3623,
      "Ġoi": 3624,
      "Ġcá»į": 3625,
      "ĠdÃ¹m": 3626,
      "Ġva": 3627,
      "Ġtrá»£": 3628,
      "Ġmáº¯n": 3629,
      "Ġdim": 3630,
      "ĠxÃł": 3631,
      "Ġdá»Ńng": 3632,
      "Ġtá»·": 3633,
      "ĠsiÃªng": 3634,
      "ĠtuyÃªn": 3635,
      "ĠhÃº": 3636,
      "Ġlá»Ĺ": 3637,
      "Ġbáº¡i": 3638,
      "ĠngÆ°ng": 3639,
      "ĠbÃ©o": 3640,
      "ĠtrÃ¡ng": 3641,
      "ĠngÆ°á»¡ng": 3642,
      "ĠnÄĥn": 3643,
      "Ġráº»": 3644,
      "Ġvá»©t": 3645,
      "Ġngáº©ng": 3646,
      "ĠquÃ¡i": 3647,
      "Ġnung": 3648,
      "Ġnáº©y": 3649,
      "Ġtrá»©ng": 3650,
      "Ġnhá»ĳt": 3651,
      "ĠdÃ¬": 3652,
      "Ġbiá»ĥu": 3653,
      "ĠkhÃłng": 3654,
      "Ġhun": 3655,
      "Ġliá»ĩng": 3656,
      "Ġá»ķ": 3657,
      "Ġmiáº¿t": 3658,
      "ĠhÃ²ng": 3659,
      "Ġcáº§y": 3660,
      "ĠtrÃ¢m": 3661,
      "Ġgáº¡ch": 3662,
      "ĠnghiÃªn": 3663,
      "ĠÄĳoÃłi": 3664,
      "Ġvá»ĭn": 3665,
      "ĠÄĳiáº¿u": 3666,
      "Ġhá»«ng": 3667,
      "ĠgiáºŃu": 3668,
      "Ġhá»ĳ": 3669,
      "Ġtrá»įc": 3670,
      "ĠsÄĥn": 3671,
      "ĠgiÃ²ng": 3672,
      "ĠgiÃ¹m": 3673,
      "Ġdáº¡ng": 3674,
      "Ġquáº¥t": 3675,
      "Ġtá»ķng": 3676,
      "ĠlÃ¬": 3677,
      "ĠnhÃº": 3678,
      "á»±u": 3679,
      "Ġnáº¥y": 3680,
      "Ġdáº·t": 3681,
      "Ġquai": 3682,
      "Ġgháº¹o": 3683,
      "Ġkhoáº£nh": 3684,
      "Ġtrá»±c": 3685,
      "ĠkÃ¬": 3686,
      "Ġkeo": 3687,
      "ĠbÃ¡ch": 3688,
      "ĠmÆ°á»Ŀng": 3689,
      "ĠlÃ³ng": 3690,
      "ĠbÃ¡i": 3691,
      "ĠkÃªnh": 3692,
      "Ġkáº½o": 3693,
      "Ġmá»ĳc": 3694,
      "Ġkiá»ĥm": 3695,
      "ĠÄĳÄ©a": 3696,
      "Ġlon": 3697,
      "ĠthÃºy": 3698,
      "Ġháº¹p": 3699,
      "Ġmáº¯ng": 3700,
      "Ġhuá»ģ": 3701,
      "Ġgay": 3702,
      "Ġthoa": 3703,
      "ĠÄĳá»Ŀn": 3704,
      "Ġrá»Ĺi": 3705,
      "Ġmáº»": 3706,
      "ĠbÆ°Æ¡n": 3707,
      "ĠtrÃºng": 3708,
      "ĠcÃ²i": 3709,
      "ĠbÃ³n": 3710,
      "ĠmÃŃa": 3711,
      "Ġthá»¥c": 3712,
      "Ġganh": 3713,
      "Ġngáº§u": 3714,
      "ĠlÃºm": 3715,
      "ĠtrÃ£i": 3716,
      "ĠkhoÃ¡i": 3717,
      "Ġmá»Łn": 3718,
      "ĠphÃłm": 3719,
      "Ġteo": 3720,
      "Ġgiam": 3721,
      "Ġkháº©n": 3722,
      "ĠkhÃ¡": 3723,
      "Ġkháº£i": 3724,
      "ÃŃn": 3725,
      "ĠcÃ¡n": 3726,
      "Ġthe": 3727,
      "ĠcháºŃu": 3728,
      "ĠgáºŃy": 3729,
      "ĠtrÃ¡n": 3730,
      "Ġáº¿": 3731,
      "ĠchÃły": 3732,
      "ĠgiÃły": 3733,
      "á»ĭn": 3734,
      "ĠÄĳá»Ĺi": 3735,
      "Ġsá»ĳt": 3736,
      "ĠchÃłi": 3737,
      "ĠÄĳÃ³m": 3738,
      "ĠÄĳá»±ng": 3739,
      "Ġá»ķi": 3740,
      "ĠngÆ°u": 3741,
      "ĠcÃ¡o": 3742,
      "ĠlÅ©ng": 3743,
      "ĠthÃŃ": 3744,
      "Ġthá»¥": 3745,
      "ĠhÃªn": 3746,
      "ĠngÃ´ng": 3747,
      "Ġtrá»į": 3748,
      "Ġtuyá»ĥn": 3749,
      "ĠÄĳÅ©a": 3750,
      "ĠsÃ©t": 3751,
      "ĠdÃ¢m": 3752,
      "ĠxÆ°ng": 3753,
      "ĠgiÃ²": 3754,
      "Ġchay": 3755,
      "Ġnhem": 3756,
      "ĠrÃ¡t": 3757,
      "Ġquáº¿": 3758,
      "Ġáº¥n": 3759,
      "ĠhÃ£i": 3760,
      "Ġmuá»Ļi": 3761,
      "ĠÄĳÃ¹m": 3762,
      "Ġgá»¥c": 3763,
      "Ġgáº·m": 3764,
      "ĠgiÆ¡": 3765,
      "Ġmiáº¿u": 3766,
      "Ġláº¡ng": 3767,
      "ĠkÃ¨n": 3768,
      "Ġdá»ģnh": 3769,
      "Ġroi": 3770,
      "ĠngÆ°á»£ng": 3771,
      "ĠtrÃ³i": 3772,
      "ĠxÃłi": 3773,
      "Ġcháº¿ch": 3774,
      "ĠgÆ°á»£ng": 3775,
      "Ġgiáº·t": 3776,
      "Ġtá»§": 3777,
      "Ġthau": 3778,
      "Ġcáº¯p": 3779,
      "Ġquáº¯t": 3780,
      "ĠtÃ²ng": 3781,
      "Ġhoáº¡n": 3782,
      "Ġá»ĳng": 3783,
      "Ġchuá»ĳt": 3784,
      "Ġhá»ıa": 3785,
      "ĠkhÃ¡nh": 3786,
      "Ġtuá»ĩ": 3787,
      "ĠtÃŃa": 3788,
      "ĠlÃ¡t": 3789,
      "Ġá»Ŀ": 3790,
      "ĠnhÃ¢m": 3791,
      "ĠxÃ¬": 3792,
      "Ġchá»įc": 3793,
      "Ġnheo": 3794,
      "ĠtÃ©": 3795,
      "ĠnÃŃn": 3796,
      "ĠrÃŃch": 3797,
      "Ġcá»¥c": 3798,
      "Ġná»©t": 3799,
      "Ġgang": 3800,
      "Ġnong": 3801,
      "Ġcáº©n": 3802,
      "Ġbáº¥m": 3803,
      "Ġháº©m": 3804,
      "Ġhoáº¡ch": 3805,
      "Ġchá»īnh": 3806,
      "ĠÄĳÃ¡u": 3807,
      "ĠthÃ¡ch": 3808,
      "ĠkhÃŃch": 3809,
      "Ġthá»§i": 3810,
      "Ġá»§i": 3811,
      "Ġváº¡ch": 3812,
      "Ġnhá»ķ": 3813,
      "Ġtráº¥n": 3814,
      "ĠnhÃ¬": 3815,
      "Ġtuá»ĵng": 3816,
      "ĠÄĳá»£t": 3817,
      "ok": 3818,
      "Ġráº§y": 3819,
      "Ġkhan": 3820,
      "Ġhoay": 3821,
      "Ġthá»ım": 3822,
      "ĠsáºŃp": 3823,
      "ĠrÃł": 3824,
      "Ġngoa": 3825,
      "ĠÃ¡": 3826,
      "ĠÄĳai": 3827,
      "Ġlá»¥i": 3828,
      "Ġbá»¥t": 3829,
      "ĠÄĳáº¥ng": 3830,
      "ĠbÃ£": 3831,
      "Ġá»ķn": 3832,
      "Ġbá»Ľi": 3833,
      "Ġnáº¥c": 3834,
      "ĠdÃł": 3835,
      "Ġráº©y": 3836,
      "Ġcá»£t": 3837,
      "ĠlÃµng": 3838,
      "ĠhÃ¢m": 3839,
      "ĠdÃ£y": 3840,
      "Ġxá»Ľi": 3841,
      "Ġráº¡ch": 3842,
      "Ġphau": 3843,
      "Ġkhiáº¿t": 3844,
      "ĠxiÃªm": 3845,
      "Ġbáº¯p": 3846,
      "ĠvÃ©o": 3847,
      "ĠchÃ¢m": 3848,
      "Ġdoanh": 3849,
      "Ġtruyá»ĩn": 3850,
      "Ġkiá»ĩu": 3851,
      "Ġz": 3852,
      "ĠÃ¡m": 3853,
      "Ġtráº¡m": 3854,
      "Ġcá»įng": 3855,
      "Ġhá»Ńng": 3856,
      "Ġhá»ķng": 3857,
      "ĠphÃ¡n": 3858,
      "Ġbook": 3859,
      "Ġcáº©m": 3860,
      "Ġtráº¡i": 3861,
      "ĠthÆ°á»Ł": 3862,
      "ĠcÆ¡i": 3863,
      "Ġbá»ĩn": 3864,
      "Ġphanh": 3865,
      "ĠcÃ³c": 3866,
      "Ġloay": 3867,
      "ĠkhuÃ¢y": 3868,
      "Ġty": 3869,
      "ĠthÃ²": 3870,
      "ĠnÃªu": 3871,
      "Ġnoi": 3872,
      "Ġnhá»«": 3873,
      "Ġxuá»ĵng": 3874,
      "ĠbÃ¬m": 3875,
      "Ġdá»Ļt": 3876,
      "Ġcá»ĳng": 3877,
      "Ġtháº»": 3878,
      "á»§ng": 3879,
      "Ġhá»ıng": 3880,
      "Ġráº¯t": 3881,
      "ĠchÃ¬": 3882,
      "ĠcÃ²m": 3883,
      "ĠnhÆ¡n": 3884,
      "ĠcÃ£i": 3885,
      "ĠlÃ³c": 3886,
      "Ġná»ĵm": 3887,
      "ĠbÃłnh": 3888,
      "Ġsá»«ng": 3889,
      "ĠdáºŃt": 3890,
      "Ġthoáº£i": 3891,
      "Ġtoi": 3892,
      "Ġá»©a": 3893,
      "Ġhiáº¿m": 3894,
      "Ġdá»¥": 3895,
      "Ġgáº¯t": 3896,
      "ĠnghÃ©": 3897,
      "ĠthÃºng": 3898,
      "Ġhá»Ľn": 3899,
      "Ġrá»©t": 3900,
      "ĠphÃ¡i": 3901,
      "ĠvÆ°á»£ng": 3902,
      "ĠngÃ¡n": 3903,
      "ĠphÃ´": 3904,
      "Ġmáº¡i": 3905,
      "Ġchá»ĳi": 3906,
      "Ġghe": 3907,
      "ĠvÃ©t": 3908,
      "Ġtrá»Ĺi": 3909,
      "Ġcuá»ĵn": 3910,
      "Ġtá»ģ": 3911,
      "ĠsÃłn": 3912,
      "Ġbang": 3913,
      "Ġbáº©n": 3914,
      "Ġnhá»Łn": 3915,
      "ĠtÃºng": 3916,
      "ĠÄĳáº³ng": 3917,
      "ĠtrÆ°á»£t": 3918,
      "ĠkÃŃch": 3919,
      "Ġtoang": 3920,
      "ĠmÃ²i": 3921,
      "Ġbáº·t": 3922,
      "ĠbÃ¨n": 3923,
      "ĠxoÃ¡y": 3924,
      "Ġngá»¥y": 3925,
      "ĠrÄĥm": 3926,
      "ĠrÆ°á»£i": 3927,
      "ĠnghÃª": 3928,
      "á»īa": 3929,
      "ĠÄĳoÃ¡n": 3930,
      "Ġluá»ĵng": 3931,
      "Ġluá»Ļc": 3932,
      "Ġbiáº¿ng": 3933,
      "ĠmÃ¢n": 3934,
      "Ġláº£ng": 3935,
      "ĠvÃª": 3936,
      "áºµm": 3937,
      "Ġbiáº¿u": 3938,
      "ĠnhÆ°Æ¡ng": 3939,
      "Ġmuá»ĳng": 3940,
      "Ġlá»į": 3941,
      "ĠlÃ²e": 3942,
      "Ġray": 3943,
      "Ġngoai": 3944,
      "ĠtrÃ¹m": 3945,
      "Ġnhoi": 3946,
      "Ġphim": 3947,
      "ĠthuáºŃt": 3948,
      "Ġuáº¥t": 3949,
      "Ġte": 3950,
      "ĠbÃ¢n": 3951,
      "Ġnu": 3952,
      "ĠphÃ³": 3953,
      "Ġtráº±n": 3954,
      "Æ°á»Ľn": 3955,
      "Ġtá»Ńu": 3956,
      "ĠÄĳá»Ŀ": 3957,
      "ĠtrÃłnh": 3958,
      "Ġguá»ĳc": 3959,
      "ĠhÃ³ng": 3960,
      "Ġnua": 3961,
      "Ġkhá»ī": 3962,
      "ĠchÆ°á»Ľng": 3963,
      "ĠquÄĥng": 3964,
      "á»ĭu": 3965,
      "ĠvÃŃa": 3966,
      "ĠhÃŃt": 3967,
      "Ġná»Ļ": 3968,
      "Ġtrá»¥i": 3969,
      "Ġranh": 3970,
      "ĠhÃ´ng": 3971,
      "Ġtrá»ħ": 3972,
      "Ġko": 3973,
      "Ġkem": 3974,
      "ĠkhÆ°": 3975,
      "Ġquáº¡": 3976,
      "Æ°á»Ŀm": 3977,
      "Ġnáº¯n": 3978,
      "ĠkhÃ¡m": 3979,
      "ĠchÃ¡nh": 3980,
      "Ġha": 3981,
      "Ġná»±c": 3982,
      "Ġgáº¡n": 3983,
      "Ġláº©n": 3984,
      "ĠkhÃ¡ng": 3985,
      "ĠlÃ¡c": 3986,
      "Ġkhoanh": 3987,
      "Ġtrá»Ľ": 3988,
      "Ġkiá»ĩm": 3989,
      "uá»Ļi": 3990,
      "Ġbá»Ŀm": 3991,
      "Ġtiá»ģm": 3992,
      "Ġnuá»Ļt": 3993,
      "Ġrai": 3994,
      "Ġkáº¹o": 3995,
      "Ġdáº«m": 3996,
      "ĠrÃ¹a": 3997,
      "ĠáºŃp": 3998,
      "Ġnom": 3999,
      "Ġsáº£i": 4000,
      "Ġi": 4001,
      "Ġcai": 4002,
      "Ġbe": 4003,
      "ĠsÃł": 4004,
      "Ġphiáº¿n": 4005,
      "ĠbÃ³p": 4006,
      "ĠchÆ°á»Ŀng": 4007,
      "Ġniáº¿t": 4008,
      "Ġnháº§u": 4009,
      "ĠxÃ²a": 4010,
      "Ġquáº½": 4011,
      "ĠdÃŃu": 4012,
      "Ġpháº³ng": 4013,
      "ĠcÆ°u": 4014,
      "Ġnguá»Ļi": 4015,
      "Ġcáº£n": 4016,
      "Ġliá»ģm": 4017,
      "Ġuá»ķng": 4018,
      "ĠvÃ£i": 4019,
      "á»ĭt": 4020,
      "Ġrá»©a": 4021,
      "Ġrá»ĭn": 4022,
      "ĠÄĳá»¥ng": 4023,
      "ĠbÃºa": 4024,
      "Ġxáº£y": 4025,
      "ĠphÃ¬": 4026,
      "Ġviá»ģn": 4027,
      "ĠchoÃ¡ng": 4028,
      "Ġchuá»ĵng": 4029,
      "ĠcÃº": 4030,
      "ĠÄĳáº¯t": 4031,
      "Ġkhoang": 4032,
      "Ġtá»ĳc": 4033,
      "Ġmáº£ng": 4034,
      "Ġpháº¿": 4035,
      "ĠtÃ¢u": 4036,
      "ĠlÃ£i": 4037,
      "ĠvÃ¹": 4038,
      "Ġhá»·": 4039,
      "Ġsáº¡n": 4040,
      "Ġtong": 4041,
      "ĠtÃły": 4042,
      "ĠtÃºc": 4043,
      "Ġcuá»ĳng": 4044,
      "Ġhá»§": 4045,
      "Ġngai": 4046,
      "ĠgiÃ£n": 4047,
      "Ġmy": 4048,
      "Ġhá»ĳt": 4049,
      "Ġnháº¥m": 4050,
      "ĠkhÃ¬": 4051,
      "á»ĥnh": 4052,
      "Ġhá»Łi": 4053,
      "Ġthá»Ľt": 4054,
      "ĠbÃºn": 4055,
      "ĠsÃłnh": 4056,
      "Ġtem": 4057,
      "Ġmá»µ": 4058,
      "ĠnhÃ¡t": 4059,
      "ĠphÃ¨o": 4060,
      "iáº¿c": 4061,
      "ĠÄĳe": 4062,
      "ĠÄĳáº©u": 4063,
      "ĠÃºp": 4064,
      "ĠÄĳÃ¹i": 4065,
      "Ġbai": 4066,
      "ĠnhÃ²e": 4067,
      "ĠkhÄĥng": 4068,
      "Ġcháº¡p": 4069,
      "Ġná»ĭnh": 4070,
      "ĠdÆ¡": 4071,
      "Å©i": 4072,
      "ĠÃ¹": 4073,
      "Ġton": 4074,
      "Ġnáºµng": 4075,
      "ĠdÃłn": 4076,
      "ĠdÄĥng": 4077,
      "ĠÄĳáº¯c": 4078,
      "Ġváº¡": 4079,
      "Ġtruy": 4080,
      "ĠxÃ¡ch": 4081,
      "ĠÄĳom": 4082,
      "Ġtiá»ģu": 4083,
      "ĠÄĳÃŃch": 4084,
      "ĠbÃº": 4085,
      "ĠbÃ³c": 4086,
      "ĠvÃ´ng": 4087,
      "Ġráº«y": 4088,
      "ĠÄĳuá»ĳc": 4089,
      "ĠmÃ³ng": 4090,
      "Ġgáº¯m": 4091,
      "ĠxoÃłi": 4092,
      "Ġsiáº¿t": 4093,
      "Ġbá»ĭt": 4094,
      "Ġcá»Ĺi": 4095,
      "ĠnÅ©ng": 4096,
      "ĠÄĳá»Ļt": 4097,
      "Ġcá»ıi": 4098,
      "ĠthÃ¡o": 4099,
      "ĠhÃ©t": 4100,
      "Ġtrá»¯": 4101,
      "Ġgiá»ı": 4102,
      "Ġnghiá»ĩn": 4103,
      "Ġbá»ĭn": 4104,
      "ĠmÃ¨m": 4105,
      "ĠtháºŃn": 4106,
      "ĠbÃŃch": 4107,
      "Ġhá»ī": 4108,
      "ĠthuyÃªn": 4109,
      "Ġchá»ķ": 4110,
      "Ġná»ı": 4111,
      "Ġhá»Ļp": 4112,
      "Ġtá»ĵi": 4113,
      "Ġchá»ĳt": 4114,
      "Ġváº·t": 4115,
      "Ġkiá»ĩn": 4116,
      "Ġvá»ĩt": 4117,
      "ĠkhiÃªn": 4118,
      "Ġláº¹": 4119,
      "ĠmÃ©": 4120,
      "ĠmÃºc": 4121,
      "Ġnháº±m": 4122,
      "Ġnghiá»ģn": 4123,
      "ĠchiÃªn": 4124,
      "Ġmáº«n": 4125,
      "Ġchá»±c": 4126,
      "ĠniÃªu": 4127,
      "Ġtráº©y": 4128,
      "Ġdá»Ŀ": 4129,
      "ĠgiÆ°Æ¡ng": 4130,
      "Ġghiá»ģn": 4131,
      "ĠtÃ²": 4132,
      "Ġcháº§y": 4133,
      "ĠhÃ£": 4134,
      "Ġnáº»": 4135,
      "ĠngÃ¡i": 4136,
      "Ġnháº¥n": 4137,
      "Ġdáº¡n": 4138,
      "ĠxÄĥng": 4139,
      "Ġkhiáº¿p": 4140,
      "Ġphá»Ľt": 4141,
      "ĠcÃºn": 4142,
      "ĠxÃ¬nh": 4143,
      "ĠliÃªm": 4144,
      "ĠloÃ¡ng": 4145,
      "ĠthÃ´": 4146,
      "Ġláº»o": 4147,
      "ĠnghÃªnh": 4148,
      "ĠchÃŃch": 4149,
      "Ġtrá»ĭnh": 4150,
      "ĠchÆ°": 4151,
      "ĠsÅ©ng": 4152,
      "ĠbiÃªng": 4153,
      "ĠhÆ¡": 4154,
      "Ġxay": 4155,
      "Ġcá»¡": 4156,
      "ĠbÃ´": 4157,
      "ĠbÃªnh": 4158,
      "ĠnÃ¡o": 4159,
      "Ġmuá»Ĺi": 4160,
      "Ġthiá»ĩp": 4161,
      "Ġváº¯n": 4162,
      "Ġphe": 4163,
      "ĠthÃŃnh": 4164,
      "Ġbáº«y": 4165,
      "ĠtuÃ´ng": 4166,
      "ĠdiÃªm": 4167,
      "ĠbÃ¡u": 4168,
      "Ġná»ĭu": 4169,
      "Ġkhanh": 4170,
      "ĠkhÃ¨n": 4171,
      "ĠhÃ¡o": 4172,
      "ĠkÃ¨": 4173,
      "Ġtáº£n": 4174,
      "Ġcá»±a": 4175,
      "Ġmon": 4176,
      "Ġthá»ĳi": 4177,
      "Ġchá»ķi": 4178,
      "ĠnÃºp": 4179,
      "Ġhoáº£i": 4180,
      "Ġtháº«m": 4181,
      "ĠvÃ©": 4182,
      "Ġdan": 4183,
      "á»±ng": 4184,
      "Ġcháº»": 4185,
      "ĠÄĳá»ĩm": 4186,
      "Ġlá»ıng": 4187,
      "Ġchá»Ľi": 4188,
      "ĠxÃ¢u": 4189,
      "Ġghim": 4190,
      "Ġváº±ng": 4191,
      "Ġháº£o": 4192,
      "áº«ng": 4193,
      "ĠlÆ°á»£m": 4194,
      "ĠgiÅ©": 4195,
      "ĠÄĳiá»ĥn": 4196,
      "ĠcÆ°a": 4197,
      "Ġvá»īa": 4198,
      "Ġngá»¥p": 4199,
      "Ġrá»Ĺng": 4200,
      "ĠmÆ°á»Ľn": 4201,
      "ĠnhÃ¨m": 4202,
      "ĠgÃ¢n": 4203,
      "ĠsÃ²ng": 4204,
      "Ġsáº¥u": 4205,
      "uyáº¿t": 4206,
      "ĠchÃłm": 4207,
      "ĠmÃ¡ch": 4208,
      "Ġháº¥p": 4209,
      "ĠsÃ¹ng": 4210,
      "Ġpa": 4211,
      "Ġtá»±u": 4212,
      "Ġvá»ĭnh": 4213,
      "ĠnhÃ¡": 4214,
      "Ġnhá»ī": 4215,
      "Ġkhom": 4216,
      "Ġhuyá»ħn": 4217,
      "ĠÆ°á»Ľm": 4218,
      "ĠÄĳay": 4219,
      "ĠÄĳá»Ļn": 4220,
      "ĠrÃ³c": 4221,
      "Ġphá»ķ": 4222,
      "Ġnháº±ng": 4223,
      "ĠnÃªm": 4224,
      "ĠÄĳÃłm": 4225,
      "ĠthÃ²i": 4226,
      "Ġxá»ī": 4227,
      "Ġcá»įc": 4228,
      "ĠthÃ¹a": 4229,
      "Ġná»ĥ": 4230,
      "Ġsá»¥c": 4231,
      "ĠtruÃ´ng": 4232,
      "Ġbáº½n": 4233,
      "um": 4234,
      "Ġlá»ĳc": 4235,
      "Ġkháº£m": 4236,
      "ĠphÄĥng": 4237,
      "Ġquá»ĩn": 4238,
      "Ġhoáº¡t": 4239,
      "Ġtoáº¡i": 4240,
      "Ġmá»ģn": 4241,
      "Ġsáº§n": 4242,
      "Ġdá»Ŀn": 4243,
      "Ġrá»©c": 4244,
      "Ġcá»ın": 4245,
      "Ġphun": 4246,
      "ĠmáºŃp": 4247,
      "Ġvin": 4248,
      "Ġthuáº§n": 4249,
      "Ġláº½n": 4250,
      "Ġná»ĩ": 4251,
      "Ġxáº¯n": 4252,
      "Ġá»ī": 4253,
      "Ġá»©": 4254,
      "Ġtá»ĳng": 4255,
      "ĠmÃ©o": 4256,
      "Ġgáº«y": 4257,
      "ĠgÅ©i": 4258,
      "ĠxáºŃp": 4259,
      "ĠquáºŃn": 4260,
      "á»£m": 4261,
      "Ġruá»ĵi": 4262,
      "ĠÄĳá»ĳm": 4263,
      "Ġsáº¿p": 4264,
      "Ġhoáº£ng": 4265,
      "ĠchÃŃt": 4266,
      "ĠlÆ°Æ¡n": 4267,
      "ĠsuÃ´n": 4268,
      "Ġphao": 4269,
      "Ġá»ĳi": 4270,
      "ĠbÃºc": 4271,
      "Ġchá»¥m": 4272,
      "Ġtrau": 4273,
      "ĠnhÄĥng": 4274,
      "Ġhoi": 4275,
      "Ġnem": 4276,
      "ĠtÆ°á»Ľc": 4277,
      "Ġtá»įa": 4278,
      "Ġthuyáº¿t": 4279,
      "Ġbáº©m": 4280,
      "ĠchÃ¬a": 4281,
      "ĠnhÄĥm": 4282,
      "ĠthÃ©p": 4283,
      "ĠngÃ£i": 4284,
      "ĠnhÅ©": 4285,
      "Ġmá»ķ": 4286,
      "ĠtráºŃp": 4287,
      "ĠtuÃ¢n": 4288,
      "ĠmÃło": 4289,
      "Ġsá»ĵng": 4290,
      "Ġdá»įa": 4291,
      "ĠrÃ´ng": 4292,
      "Ġphan": 4293,
      "ĠhÃŃ": 4294,
      "88": 4295,
      "ĠÄĳáº£": 4296,
      "Ġxá»ĳi": 4297,
      "ĠngoÃ¡i": 4298,
      "ĠlÃ¨o": 4299,
      "ĠhÃ¡": 4300,
      "ĠtrÃ¹": 4301,
      "áº»n": 4302,
      "ĠnuÃ´ng": 4303,
      "Ġsáº§m": 4304,
      "ĠquáºŃt": 4305,
      "ĠxuÃª": 4306,
      "Ġbá»Ļt": 4307,
      "Ġbá»ĳng": 4308,
      "Ġrá»ĳn": 4309,
      "Ġgiáº§y": 4310,
      "Ġkhuáº¥y": 4311,
      "Ġlá»«": 4312,
      "á»¡m": 4313,
      "Ġgáº£y": 4314,
      "Ġtuá»Ļt": 4315,
      "Ġcá»±u": 4316,
      "ĠbÃ³i": 4317,
      "ĠvÃ¨": 4318,
      "ĠkÃ¬m": 4319,
      "Ġkháº¥t": 4320,
      "Ġtua": 4321,
      "Ġváº¹o": 4322,
      "Ġhá»Ĺ": 4323,
      "ĠnghÃ¬": 4324,
      "Ġtá»ķn": 4325,
      "Ġcáº³ng": 4326,
      "Ġbá»©t": 4327,
      "ĠchÆ°á»Ľc": 4328,
      "ĠsÃ¢m": 4329,
      "Ġxiá»ģng": 4330,
      "Ãµm": 4331,
      "Ġcháº§n": 4332,
      "Ġváº·c": 4333,
      "ĠkhÃªu": 4334,
      "Ġá»ĳ": 4335,
      "Ġá»¡m": 4336,
      "Ġtháº£ng": 4337,
      "ĠdÃ²m": 4338,
      "ĠnÃłi": 4339,
      "ĠphÃ¨n": 4340,
      "ĠtÃ¬": 4341,
      "Ġgáº§u": 4342,
      "ĠrÃ¹ng": 4343,
      "ĠphÃłn": 4344,
      "ĠquÃŃt": 4345,
      "ĠÃ©o": 4346,
      "Ġtáº·c": 4347,
      "Ġváº¹t": 4348,
      "ĠnhÃ¡c": 4349,
      "ĠnhÃºn": 4350,
      "ĠmÃ¨": 4351,
      "ĠÃº": 4352,
      "Ġháº«ng": 4353,
      "Ġngáº«n": 4354,
      "ĠgÃ´ng": 4355,
      "ĠráºŃm": 4356,
      "ĠÄĳá»įt": 4357,
      "Ġsoáº¡n": 4358,
      "Ġcáº¥u": 4359,
      "Ġlá»Ļt": 4360,
      "Ġmeo": 4361,
      "ĠÄĳáºŃy": 4362,
      "ĠhÄĥm": 4363,
      "ĠtrÆ°á»Ľng": 4364,
      "ĠgÃły": 4365,
      "Ġchá»įi": 4366,
      "Ġráº§n": 4367,
      "ĠÄĳoÃ¡i": 4368,
      "ĠcÃºp": 4369,
      "ĠÄĳÃ¡c": 4370,
      "ĠmÃ²ng": 4371,
      "ĠvÃ²i": 4372,
      "Ġkha": 4373,
      "ĠcÃ¡p": 4374,
      "Ġáºµm": 4375,
      "Ġtáº£i": 4376,
      "ĠÄĳá»ĳc": 4377,
      "ĠmÃ©p": 4378,
      "ĠnÃºm": 4379,
      "ĠrÃ£i": 4380,
      "Ġnhe": 4381,
      "ĠgÃ³a": 4382,
      "Ġdáº±n": 4383,
      "ĠlÃłu": 4384,
      "ĠlÃ³i": 4385,
      "Ġráº£o": 4386,
      "ĠnhÃŃ": 4387,
      "ĠdáºŃm": 4388,
      "Ġkháº£o": 4389,
      "ĠghÃ¬m": 4390,
      "Ġren": 4391,
      "Ġmá»įt": 4392,
      "ĠmÃ©t": 4393,
      "ĠnÃ³c": 4394,
      "ĠxÃ³": 4395,
      "ĠxÃŃ": 4396,
      "Ġkháº³ng": 4397,
      "Ġnhuáº§n": 4398,
      "Ġhá»£i": 4399,
      "ĠnhÃ¡y": 4400,
      "ĠsÃ¬nh": 4401,
      "Ġgiáº±ng": 4402,
      "ĠlÃŃ": 4403,
      "Ġvá»įt": 4404,
      "Ġngáº«u": 4405,
      "Ġtrá»ĵi": 4406,
      "Ġnhá»ĵi": 4407,
      "ĠnhÃ²m": 4408,
      "Ġguá»Ļc": 4409,
      "Ġdá»¥m": 4410,
      "ĠrÃ¡o": 4411,
      "ĠÃ¬": 4412,
      "Ġdáº¥n": 4413,
      "ĠphÃło": 4414,
      "ĠlÃłi": 4415,
      "ĠnghÃªu": 4416,
      "Ġngoáº¡n": 4417,
      "Ġtáº¯p": 4418,
      "Ġchuá»Ļ": 4419,
      "Ġngá»į": 4420,
      "Ġnhá»įn": 4421,
      "Ġsá»Ľt": 4422,
      "ĠxÃ©o": 4423,
      "ĠkhÃł": 4424,
      "Ġom": 4425,
      "ĠmÃ£nh": 4426,
      "Ġchuá»Ļng": 4427,
      "ĠÄĳáºµng": 4428,
      "Ġláº£nh": 4429,
      "Ġdá»¡": 4430,
      "ĠxÃŃu": 4431,
      "Ġphang": 4432,
      "Ġlia": 4433,
      "Ġngá»§i": 4434,
      "Ġnguá»Ŀi": 4435,
      "Ġná»ĩm": 4436,
      "Ġtá»ĩ": 4437,
      "Ġngá»¥": 4438,
      "ĠngÃ²i": 4439,
      "ĠrÃºc": 4440,
      "ĠquáºŃy": 4441,
      "Ġkhuyáº¿n": 4442,
      "Ġtáº¡t": 4443,
      "Ġtá»³": 4444,
      "Ġquáº§ng": 4445,
      "ĠlÅ©i": 4446,
      "Ġnáº¥p": 4447,
      "Ġcá»§ng": 4448,
      "Ġthá»¯ng": 4449,
      "Ġbáº£": 4450,
      "Ġvá»ĵ": 4451,
      "Ġgá»Ļt": 4452,
      "ĠdÃ¡t": 4453,
      "ĠrÃª": 4454,
      "Ġmáº½": 4455,
      "Ġváº·n": 4456,
      "ĠsÃ¡m": 4457,
      "Ġsáº«m": 4458,
      "Ġráº¡c": 4459,
      "ĠphÃªn": 4460,
      "Ġquá»Ŀ": 4461,
      "Ġquáº¥y": 4462,
      "ĠcÃ³ng": 4463,
      "Ġmáº§y": 4464,
      "Ġlá»§i": 4465,
      "Ġnáº£n": 4466,
      "Ġgo": 4467,
      "Ġdá»ĥ": 4468,
      "Ġthá»§ng": 4469,
      "ĠÄĳá»ĳn": 4470,
      "Ġmuá»ĳt": 4471,
      "ĠquÃ¡t": 4472,
      "áº½n": 4473,
      "ĠchÃ¬nh": 4474,
      "ĠnÃ¡u": 4475,
      "Ġcháº¿nh": 4476,
      "Ġthá»ĳn": 4477,
      "Ġlá»±u": 4478,
      "Ġhá»©c": 4479,
      "ĠtráºŃt": 4480,
      "ĠrÃ¨": 4481,
      "Ġtráº»o": 4482,
      "Ġá»§ng": 4483,
      "Ġnhoáº»n": 4484,
      "ĠÄĳáº«y": 4485,
      "ĠchÃ¹n": 4486,
      "Ġváº¡i": 4487,
      "ĠkiÃªng": 4488,
      "ĠquÃ¬": 4489,
      "ĠtrÃ¡": 4490,
      "Ġquá»ī": 4491,
      "Ġliáº¿p": 4492,
      "Ġáº£m": 4493,
      "ĠtÃ¡": 4494,
      "Ġtáº©y": 4495,
      "Ġtá»¥i": 4496,
      "Ġchuá»Ļc": 4497,
      "Ġváº»o": 4498,
      "Ġquáº©y": 4499,
      "Ġtá»īa": 4500,
      "Ġcá»¥t": 4501,
      "ĠfÃ¢y": 4502,
      "ĠhÃ¡m": 4503,
      "Ġkhá»ĳc": 4504,
      "ĠquÃ¡ch": 4505,
      "Ġcá»©a": 4506,
      "ĠÃŃ": 4507,
      "ĠÄĳiá»ģm": 4508,
      "Ġvá»¹": 4509,
      "Ġgiáº«m": 4510,
      "Ġam": 4511,
      "Ġuyá»ĥn": 4512,
      "ĠÄĳáº¥m": 4513,
      "ĠÄĳáº£nh": 4514,
      "Ġbiá»ĩn": 4515,
      "Ġngá»«a": 4516,
      "Ġsáº¥p": 4517,
      "ĠxÃªnh": 4518,
      "Ġrá»¥t": 4519,
      "ĠbÃ²n": 4520,
      "Ġsáº¡t": 4521,
      "Ġtuáº¥t": 4522,
      "Ġtháº£y": 4523,
      "Ġchá»¯ng": 4524,
      "Ġsáº£ng": 4525,
      "Ġphá»ī": 4526,
      "ĠphÃ¡c": 4527,
      "ĠÄĳun": 4528,
      "Ġbá»ī": 4529,
      "Ġdá»ĳt": 4530,
      "Ġquáº±n": 4531,
      "Ġtiáº¿u": 4532,
      "Ġkhoáº£n": 4533,
      "ĠlÃ©t": 4534,
      "ĠchÃµng": 4535,
      "ĠgÃłn": 4536,
      "ĠsÃºt": 4537,
      "ĠkhoÃ©t": 4538,
      "ĠÄĳoáº¡t": 4539,
      "Ġtáº£ng": 4540,
      "Ġcá»ĵng": 4541,
      "ĠÄĳÃ¬": 4542,
      "ĠmÃµi": 4543,
      "Ġchon": 4544,
      "Ġnghiáº¿n": 4545,
      "Ġxoe": 4546,
      "Ġbá»ĭp": 4547,
      "Ġqueo": 4548,
      "Ġui": 4549,
      "ĠÃºng": 4550,
      "ĠhÃ£o": 4551,
      "Ġnáº«u": 4552,
      "Ġkháº¥u": 4553,
      "Ġcá»įp": 4554,
      "Ġtháº©m": 4555,
      "Ġviá»ĥn": 4556,
      "Ġhá»ħ": 4557,
      "ĠnhÃ³t": 4558,
      "Ġsá»§a": 4559,
      "Ġsáº¡m": 4560,
      "Ġque": 4561,
      "Ġquá»¹": 4562,
      "ĠÄĳÆ¡": 4563,
      "Ġthá»Ńa": 4564,
      "ĠnhÃ¡o": 4565,
      "ĠgÃłng": 4566,
      "ĠkÃ¨o": 4567,
      "ĠdÃ¬m": 4568,
      "Ġxá»ı": 4569,
      "Ġcá»¥m": 4570,
      "ĠlÃ³e": 4571,
      "Ġlá»ķ": 4572,
      "Ġnáº·n": 4573,
      "Ġngá»Ľ": 4574,
      "Ġgiun": 4575,
      "ĠtÃºy": 4576,
      "Ġná»Ļp": 4577,
      "Ġlá»ĵ": 4578,
      "ĠlÆ¡n": 4579,
      "Ġchau": 4580,
      "Ġhuá»ĳng": 4581,
      "Ġngá»£p": 4582,
      "ĠgÃ¹i": 4583,
      "Ġtá»¥y": 4584,
      "Ġlá»£p": 4585,
      "ĠxÃª": 4586,
      "ĠvÃŃu": 4587,
      "Ġná»Ľ": 4588,
      "ĠgÄĥm": 4589,
      "Ġrá»ı": 4590,
      "Ġtuáº¥n": 4591,
      "Ġcá»¥ng": 4592,
      "Ġchá»ķng": 4593,
      "ĠsÃºc": 4594,
      "Ġráº¡n": 4595,
      "Ġoang": 4596,
      "Ġum": 4597,
      "Ġcá»«": 4598,
      "ĠnhÃ³n": 4599,
      "ĠdÆ°á»£c": 4600,
      "Ġquáº«y": 4601,
      "Ġcáº£ng": 4602,
      "Ġháº¡ng": 4603,
      "Ġsui": 4604,
      "Ġhá»ķi": 4605,
      "Ġxá»ıa": 4606,
      "Æ°Æ¡c": 4607,
      "Ġyá»ĥu": 4608,
      "Ġcháº©y": 4609,
      "Ġnang": 4610,
      "Ġpháº£": 4611,
      "ĠÃªn": 4612,
      "ĠnhÃ³c": 4613,
      "Ġgá»Ľm": 4614,
      "ĠxÃ¡t": 4615,
      "ĠÄĳá»ıng": 4616,
      "Ġphá»§i": 4617,
      "ĠdÃłu": 4618,
      "Ġj": 4619,
      "ĠsÃ³i": 4620,
      "ĠsÃŃnh": 4621,
      "Ġpho": 4622,
      "ĠÄĳáº½o": 4623,
      "Ġbá»į": 4624,
      "ĠvÃº": 4625,
      "Ġgiáº¡t": 4626,
      "Ġchum": 4627,
      "ĠtÃºm": 4628,
      "Ġmá»³": 4629,
      "ĠbÄĥm": 4630,
      "Ġchiá»ģn": 4631,
      "ĠchÃ´m": 4632,
      "Ġgáº£": 4633,
      "ĠÄĥm": 4634,
      "Ġau": 4635,
      "Ġcháºµn": 4636,
      "Ġngáº¡o": 4637,
      "ĠxÃ¡o": 4638,
      "ĠghÃ©m": 4639,
      "ĠniÃªm": 4640,
      "Ġtá»Ļt": 4641,
      "ĠtháºŃm": 4642,
      "ĠchÃ²m": 4643,
      "Ġvy": 4644,
      "Ġhuyá»ĩt": 4645,
      "Ġgáº¥u": 4646,
      "ĠdÃ²n": 4647,
      "ĠxuÃ½t": 4648,
      "Ġliu": 4649,
      "Ġkhuáº©n": 4650,
      "ĠÄĳá»Ľp": 4651,
      "ĠchÆ¡n": 4652,
      "Ġcháº¥n": 4653,
      "Ġvá»Ľ": 4654,
      "TTT": 4655,
      "Ġrá»ķ": 4656,
      "ĠrÃ²i": 4657,
      "ĠkhÃ²": 4658,
      "Ġthuáº¿": 4659,
      "Ġthá»±": 4660,
      "Ġcháº±ng": 4661,
      "Ġhá»§y": 4662,
      "Ġcáº±m": 4663,
      "ĠÄĳáº·n": 4664,
      "ĠÄĳiáº¿c": 4665,
      "Ġlá»³": 4666,
      "ĠgÃłnh": 4667,
      "ĠrÃ¬a": 4668,
      "Ġnghinh": 4669,
      "Ġá»ĵ": 4670,
      "Ġcá»¥i": 4671,
      "Ġthá»ĩ": 4672,
      "Ġlá»įng": 4673,
      "Ġláº±n": 4674,
      "Ġtráº§y": 4675,
      "ĠdÃ¡n": 4676,
      "Ġxá»Ńa": 4677,
      "ĠsuÃ½t": 4678,
      "Ġmá»īa": 4679,
      "ĠÃ¹n": 4680,
      "ĠtÃºp": 4681,
      "Ġnháº½": 4682,
      "Ġriu": 4683,
      "á»±t": 4684,
      "ĠtÆ°Æ¡m": 4685,
      "ĠlÃ¨": 4686,
      "Ġlá»ıi": 4687,
      "ĠlÃ©p": 4688,
      "Ġnhá»į": 4689,
      "Ġkháº¥p": 4690,
      "Ġkháº¡o": 4691,
      "Ġmá»ĭch": 4692,
      "ĠtrÃłm": 4693,
      "Ġá»ķng": 4694,
      "ĠÄĳÃ¹n": 4695,
      "ĠlÃ²i": 4696,
      "Ġgá»įt": 4697,
      "Ġdáº·c": 4698,
      "Ġphiáº¿u": 4699,
      "Ġhá»Ļt": 4700,
      "Ġráº¡t": 4701,
      "Ġgianh": 4702,
      "ĠmuÃ´ng": 4703,
      "ĠmÃºi": 4704,
      "Ġmá»©t": 4705,
      "Ġthá»¥t": 4706,
      "Ġchá»Ń": 4707,
      "Ġcháºµng": 4708,
      "ĠtrÅ©ng": 4709,
      "ĠnhÃ¡i": 4710,
      "ĠnhÃºt": 4711,
      "Ġpháº¥p": 4712,
      "áº»m": 4713,
      "Ġkhiu": 4714,
      "ĠtÃ¹m": 4715,
      "Ġcang": 4716,
      "Ġmá»įn": 4717,
      "Ġmáº©y": 4718,
      "Ġláº¡ch": 4719,
      "ĠtÃ£": 4720,
      "Ġtháº¯c": 4721,
      "Ġlá»įn": 4722,
      "ĠdÆ¡i": 4723,
      "ĠthoÄĥn": 4724,
      "Ġká»µ": 4725,
      "ĠÄĳá»§ng": 4726,
      "ĠgÃłu": 4727,
      "Ġá»Ľi": 4728,
      "ĠchÃ£": 4729,
      "Ãªt": 4730,
      "ĠgiÃ³ng": 4731,
      "ĠhÃ£nh": 4732,
      "Ġcáº¯c": 4733,
      "Ġmáº±n": 4734,
      "Ġbanh": 4735,
      "Ġnháº©m": 4736,
      "Ġ(": 4737,
      "ĠtÃ³m": 4738,
      "ĠÄĳon": 4739,
      "Ġngá»Ĺng": 4740,
      "Ġdáº»": 4741,
      "Ġphay": 4742,
      "á»³nh": 4743,
      "Ġtá»ıi": 4744,
      "Ġthiá»ģu": 4745,
      "ĠbÆ¡m": 4746,
      "ĠnÃºt": 4747,
      "Ġká»ĭch": 4748,
      "ĠngoÃ£n": 4749,
      "ĠkÃŃp": 4750,
      "Ġhá»Ĺn": 4751,
      "ĠÆ°Æ¡i": 4752,
      "Ġcáº·m": 4753,
      "ĠlÃº": 4754,
      "Ġbáº¹": 4755,
      "ĠtrÆ°á»£ng": 4756,
      "ĠxÃºm": 4757,
      "Ġphá»ķi": 4758,
      "Ġngáº·t": 4759,
      "Ġkhá»ģu": 4760,
      "ĠlÃ¡o": 4761,
      "ĠbáºŃy": 4762,
      "Ġháº¿n": 4763,
      "Ġná»±ng": 4764,
      "Ġngá»ĳc": 4765,
      "Ġtrá»«ng": 4766,
      "Ġsáº©y": 4767,
      "Ġxá»īn": 4768,
      "ĠcÆ°á»Ľc": 4769,
      "Ġláº«m": 4770,
      "ĠngÃ³t": 4771,
      "ĠsÃ´": 4772,
      "Ġoa": 4773,
      "Ġláº»n": 4774,
      "Ġmáº£": 4775,
      "Ġhá»Ľ": 4776,
      "ĠhÃ¹m": 4777,
      "ĠdÃ¹i": 4778,
      "Ġpháº©y": 4779,
      "ĠÃ¡t": 4780,
      "Ġtá»µ": 4781,
      "ĠmÃºt": 4782,
      "Ġlá»§ng": 4783,
      "ĠchÃ²i": 4784,
      "ĠhÅ©": 4785,
      "ĠÆ°Æ¡n": 4786,
      "Ġá»·": 4787,
      "Ġcá»Ļ": 4788,
      "Ġbá»ķn": 4789,
      "ĠbÆ°Æ¡m": 4790,
      "ĠvÆ°á»£n": 4791,
      "Ġnhá»Ŀi": 4792,
      "á»¥a": 4793,
      "Ġngoi": 4794,
      "Ġáº¡t": 4795,
      "Ġmáº¡o": 4796,
      "Ġlá»ĳ": 4797,
      "Ġhá»įng": 4798,
      "ĠtrÃª": 4799,
      "Ġnháº½o": 4800,
      "ĠdÃ¬a": 4801,
      "ĠrÃº": 4802,
      "Ġquáº»": 4803,
      "ĠÄĳá»ħ": 4804,
      "ĠkhiÃªng": 4805,
      "ĠhÃ²m": 4806,
      "ĠÄĳÃŃt": 4807,
      "Ġxá»ĭt": 4808,
      "Ġráº¯m": 4809,
      "Ġtáº©m": 4810,
      "ĠthÃ²ng": 4811,
      "Ġhiá»ģm": 4812,
      "Ġná»©a": 4813,
      "Ġnham": 4814,
      "ĠcÃ¡y": 4815,
      "Ġliáº¿m": 4816,
      "ĠcÃ¹n": 4817,
      "ĠlÃªu": 4818,
      "ĠchÃ¨n": 4819,
      "Ġnhao": 4820,
      "Ġsá»ī": 4821,
      "Ġkháº£n": 4822,
      "Ġtá»§m": 4823,
      "Ġw": 4824,
      "ĠÄĳanh": 4825,
      "ĠÄĳÆ°á»Ŀi": 4826,
      "ĠÄĳÃºt": 4827,
      "ĠÄĳiáº¿m": 4828,
      "ĠmÃ¡ng": 4829,
      "Ġhá»Ľp": 4830,
      "Ġngá»©a": 4831,
      "Ġnháº©y": 4832,
      "ĠrÃ¢y": 4833,
      "Ġgiá»±t": 4834,
      "á»ħnh": 4835,
      "Ġiu": 4836,
      "Ġtá»ĵng": 4837,
      "Ġtáº¡p": 4838,
      "Ġcá»Ŀi": 4839,
      "ĠlÃ©o": 4840,
      "Ġchá»ıng": 4841,
      "ĠnÃ´m": 4842,
      "ĠtrÃ¡o": 4843,
      "Ġlom": 4844,
      "Ġtáº»": 4845,
      "Ġmáº¥p": 4846,
      "Ġnáº£i": 4847,
      "ĠgÃłi": 4848,
      "Ġquáº³ng": 4849,
      "ĠnhÆ°á»£": 4850,
      "ĠloÃ£ng": 4851,
      "ĠoÃ¡i": 4852,
      "Ġtháº£i": 4853,
      "ĠsÃ¬": 4854,
      "Ġsá»¥p": 4855,
      "Ġtruá»ĵng": 4856,
      "ĠbÃŃm": 4857,
      "ĠmáºŃu": 4858,
      "ĠbÃŃnh": 4859,
      "ĠhÃ¬": 4860,
      "Ġngá»¥m": 4861,
      "Ġrá»£n": 4862,
      "Ġuáº©n": 4863,
      "Ġhuáº¥n": 4864,
      "ĠmÃ´t": 4865,
      "Ġtáº¯n": 4866,
      "ĠcÃºm": 4867,
      "Ġmá»Ľm": 4868,
      "ĠchÃ³c": 4869,
      "Ġhiáº¿p": 4870,
      "ĠnÃª": 4871,
      "ĠngÃ¡y": 4872,
      "ĠsÆ°ng": 4873,
      "Ġtoa": 4874,
      "ĠchÃ©o": 4875,
      "ĠrÄ©": 4876,
      "Ġkham": 4877,
      "Ġkhuá»·": 4878,
      "Ġkhuá»·u": 4879,
      "Ġthá»«ng": 4880,
      "Ġduyá»ĩt": 4881,
      "ĠÄĳÃŃnh": 4882,
      "ĠmÃ³t": 4883,
      "Ġláº±ng": 4884,
      "Ġbáº¥p": 4885,
      "ĠvÆ°á»Łng": 4886,
      "Ġnáº½o": 4887,
      "ĠtrÆ°á»Ŀn": 4888,
      "Ġxáº£o": 4889,
      "ĠkhÃ¹": 4890,
      "Ġkhá»Ľp": 4891,
      "Ġphá»©c": 4892,
      "ĠtoÃ¡t": 4893,
      "ĠÃłh": 4894,
      "Ġhuá»³nh": 4895,
      "ĠnhuáºŃn": 4896,
      "ĠlÆ°á»¡ng": 4897,
      "Ġláº©y": 4898,
      "ĠlÃºn": 4899,
      "ĠbÃ¢u": 4900,
      "Ġkiá»ģng": 4901,
      "á»Ļp": 4902,
      "ĠÄĳÃ´n": 4903,
      "Ġbá»¡": 4904,
      "ĠchÃ¬u": 4905,
      "ĠhÃ¡ch": 4906,
      "Ġtriá»ĩt": 4907,
      "Ġkháº£": 4908,
      "Ġmoi": 4909,
      "ĠchÃ¹i": 4910,
      "Ġváº¡nh": 4911,
      "ĠdÃ´": 4912,
      "ĠrÃ²n": 4913,
      "ĠtiÃªm": 4914,
      "Ġtá»īm": 4915,
      "ĠhuÃª": 4916,
      "ĠmÃ³": 4917,
      "ĠhÃºc": 4918,
      "ĠhÃºp": 4919,
      "Ġhá»£t": 4920,
      "ĠnÃ¡ch": 4921,
      "Ġná»ĳc": 4922,
      "Ġtrá»ĳi": 4923,
      "ĠtrÃ¬u": 4924,
      "Ġdáº³ng": 4925,
      "Ġbáº½o": 4926,
      "âĢ": 4927,
      "Ġtá»ĭ": 4928,
      "ĠÄĳáº½": 4929,
      "ĠkhÃŃt": 4930,
      "Ġphiáº¿m": 4931,
      "Ġmá»©c": 4932,
      "Ġlá»±": 4933,
      "Ġhá»ĳc": 4934,
      "Ġnháº©n": 4935,
      "Ã¢t": 4936,
      "ĠxÆ°á»Ľc": 4937,
      "Ġsá»ĵi": 4938,
      "Ġkhá»ĥnh": 4939,
      "á»ĩch": 4940,
      "Ġquyá»ĥn": 4941,
      "Ġmá»§": 4942,
      "ĠlÃ¹": 4943,
      "Ġngáº¥p": 4944,
      "ĠrÃ¡n": 4945,
      "ĠrÆ°á»Ľi": 4946,
      "TBBT": 4947,
      "Ġduá»Ĺi": 4948,
      "ĠhÃ£m": 4949,
      "ĠmÃ¨n": 4950,
      "ĠbÃ¬a": 4951,
      "Ġgu": 4952,
      "Ġke": 4953,
      "TBT": 4954,
      "ĠphÃ²": 4955,
      "Ġnghen": 4956,
      "ĠmÃ£o": 4957,
      "Ġthiá»ĩu": 4958,
      "ĠvÃ³t": 4959,
      "ĠgÃ¢u": 4960,
      "Ġgam": 4961,
      "ĠgiÃłng": 4962,
      "Ġgiá»Ń": 4963,
      "ĠtÆ°á»Łi": 4964,
      "Ġthoáº¡t": 4965,
      "Ġtá»¥t": 4966,
      "ĠmÄ©m": 4967,
      "Ġ1": 4968,
      "ĠthÃ¡n": 4969,
      "Ġtrá»įi": 4970,
      "Ġsam": 4971,
      "ĠkhÃ¢m": 4972,
      "Ġxoáº¯n": 4973,
      "Ġtá»£": 4974,
      "Ġlá»ĥ": 4975,
      "Ġhá»±c": 4976,
      "ĠnÃªnh": 4977,
      "Ġgáº©y": 4978,
      "ĠhoÃ£n": 4979,
      "Ġhá»ķm": 4980,
      "Ġcháº£o": 4981,
      "Ġnhong": 4982,
      "ĠdÃ¬nh": 4983,
      "ĠÄĳá»Ł": 4984,
      "á»ım": 4985,
      "Ġtuáº¿": 4986,
      "ĠtÃŃu": 4987,
      "ĠbÃłu": 4988,
      "ĠtÃ©t": 4989,
      "Ġlá»ĵi": 4990,
      "ĠrÃ³i": 4991,
      "ĠkhuÃ¢n": 4992,
      "ĠhÃ²i": 4993,
      "ĠÃ¡ch": 4994,
      "Ġtuá»ĳt": 4995,
      "ĠvÃ¡ng": 4996,
      "Ġkáº¹p": 4997,
      "ĠxÃŃt": 4998,
      "Ġxáº©m": 4999,
      "ĠthÃ³p": 5000,
      "Ġnáº¡i": 5001,
      "Ġtrá»ĵ": 5002,
      "ĠkÃ¬nh": 5003,
      "ĠnghÃ¨n": 5004,
      "ĠcÃ³p": 5005,
      "Ġáº¡": 5006,
      "BBBBB": 5007,
      "ĠnÃ©": 5008,
      "ĠngÃ¡p": 5009,
      "Ġtrá»ķi": 5010,
      "Ġsin": 5011,
      "Ġsuáº¥t": 5012,
      "BBBBBT": 5013,
      "Ġen": 5014,
      "Ġcáº¡o": 5015,
      "Ġbá»Ļc": 5016,
      "Ġváº©y": 5017,
      "ĠhÃªnh": 5018,
      "ĠhÃ£n": 5019,
      "ĠnÃŃt": 5020,
      "Ġsáº¹o": 5021,
      "áº¿nh": 5022,
      "Ġrá»Ŀ": 5023,
      "Ġchá»īn": 5024,
      "Ġtá»Ńng": 5025,
      "Ġlá»¯a": 5026,
      "Ġbáº£nh": 5027,
      "Ġhe": 5028,
      "Ġrá»ĵ": 5029,
      "Ġráº¯p": 5030,
      "ĠrÃ³n": 5031,
      "ĠkhÃłn": 5032,
      "Ġthuá»ĵng": 5033,
      "Ġfay": 5034,
      "ĠâĢ": 5035,
      "Ġthá»ĵ": 5036,
      "Ġláºµng": 5037,
      "Ġsá»±c": 5038,
      "Ġgiá»ĵng": 5039,
      "ĠphÆ¡n": 5040,
      "Ġtiá»ĥn": 5041,
      "Ġbá»ĭnh": 5042,
      "Ġcá»Ńi": 5043,
      "ĠlÃ¹m": 5044,
      "ĠbÃªu": 5045,
      "Ġhá»ĩt": 5046,
      "ĠngÆ°á»Łng": 5047,
      "Ġsá»Ľ": 5048,
      "Ġhom": 5049,
      "Ġnháº¹t": 5050,
      "Ġtáº¡ng": 5051,
      "Ġháº¯c": 5052,
      "Ġhá»Ľt": 5053,
      "ĠnÃ³t": 5054,
      "ĠrÃ©n": 5055,
      "BBBBTT": 5056,
      "Ġbá»ĩ": 5057,
      "Ġbá»Ńa": 5058,
      "Ġnhá»ĳ": 5059,
      "Ġsáº£": 5060,
      "Ġgiáº¯t": 5061,
      "ĠkhoÃ¡n": 5062,
      "Ġxoáº£i": 5063,
      "ĠtÃ¨o": 5064,
      "ĠtÃ³p": 5065,
      "Ġmao": 5066,
      "ĠnÃ£y": 5067,
      "ĠnhÃºm": 5068,
      "Ġgáº¡": 5069,
      "Ġgá»ģnh": 5070,
      "Ġsáº·c": 5071,
      "Ġsáº³n": 5072,
      "Ġdáº¥y": 5073,
      "ĠÄĳÆ°Æ¡c": 5074,
      "ĠhÃ¹a": 5075,
      "Ġngá»Ł": 5076,
      "Ġngáº¡c": 5077,
      "Ġngá»Ľt": 5078,
      "Ġgáº¯p": 5079,
      "Ġgiong": 5080,
      "ĠbuÃ¢ng": 5081,
      "ĠkhoÃ¡ng": 5082,
      "Ġtiá»ĩm": 5083,
      "Ġviá»ģng": 5084,
      "ĠnhÄ©": 5085,
      "Ġgáº¡c": 5086,
      "ĠkÃ©t": 5087,
      "Ġgháº»": 5088,
      "Ġthia": 5089,
      "Ġlá»¥n": 5090,
      "ĠcÆ°á»¡ng": 5091,
      "Ġmá»£": 5092,
      "ĠmÃ¢u": 5093,
      "ĠnÆ¡m": 5094,
      "Ġbá»ĭch": 5095,
      "Ġá»§y": 5096,
      "ĠÆ°á»¡n": 5097,
      "Ġáº¯ng": 5098,
      "Ġmáº¡t": 5099,
      "Ġbáº¡": 5100,
      "Ġngá»Ńi": 5101,
      "ĠnhÃºng": 5102,
      "Ġnháº¿ch": 5103,
      "Ġgiá»Ńa": 5104,
      "ĠkhÆ°á»Ľt": 5105,
      "Ġquá»ĩt": 5106,
      "á»ħng": 5107,
      "Ġdáº¡m": 5108,
      "ĠhÃ²e": 5109,
      "Ġkiá»ĥng": 5110,
      "Ġcá»«u": 5111,
      "Ġá»Ŀi": 5112,
      "ĠÃºi": 5113,
      "ĠtÃ¨": 5114,
      "Ġbá»¥c": 5115,
      "Ġsá»©t": 5116,
      "Ġcá»¡i": 5117,
      "Ġvá»ĳc": 5118,
      "Ġngá»£m": 5119,
      "Ġláº¯p": 5120,
      "Ġbá»£": 5121,
      "Ġbá»Ł": 5122,
      "Ġtrá»Ľn": 5123,
      "ĠnhÃ³": 5124,
      "ĠnhÃ¹ng": 5125,
      "Ġken": 5126,
      "Ġrá»ĳt": 5127,
      "ĠkhÃ¡n": 5128,
      "ĠquÃ¨": 5129,
      "Ġhoáº¡i": 5130,
      "ĠlÃ¡p": 5131,
      "Ġngoáº±n": 5132,
      "ĠthiÃªm": 5133,
      "ĠchÃ²e": 5134,
      "Ġtráº¥u": 5135,
      "Ġriáº¿t": 5136,
      "Ġkhá»ĳ": 5137,
      "Ġlik": 5138,
      "ĠvÃłm": 5139,
      "ĠbÃµm": 5140,
      "Ġinh": 5141,
      "Ġnháº£nh": 5142,
      "ĠgÃ£i": 5143,
      "ĠrÃ¹i": 5144,
      "Ġtoe": 5145,
      "Ġkhá»ķng": 5146,
      "Ġlum": 5147,
      "ĠoÄĥm": 5148,
      "Ġvit": 5149,
      "Ġcui": 5150,
      "ĠlÃ²n": 5151,
      "Ġtráº«m": 5152,
      "Ġnhuá»ĳc": 5153,
      "Ġsáº£y": 5154,
      "ĠdáºŃn": 5155,
      "ĠxÃŃnh": 5156,
      "Æ°Æ¡u": 5157,
      "ĠÄĳÃ³t": 5158,
      "Ġláº¿t": 5159,
      "Ġláº©m": 5160,
      "ĠnhÃ©t": 5161,
      "Ġkháº¯t": 5162,
      "Ġtháº¿ch": 5163,
      "Ġcá»Ļc": 5164,
      "ĠlÃ³a": 5165,
      "Ġgáº«m": 5166,
      "Ġphá»«ng": 5167,
      "Ġpháº¿ch": 5168,
      "ĠnhÃłm": 5169,
      "ĠlÃ¡y": 5170,
      "Ġkhoáº¯t": 5171,
      "ĠÄĳÃºm": 5172,
      "Ġthá»¥y": 5173,
      "Ġbá»±": 5174,
      "ĠnÃ¡": 5175,
      "Ġnáº£o": 5176,
      "ĠkhÆ°Æ¡ng": 5177,
      "ĠthoÃ¡i": 5178,
      "ĠÄĳoÃłng": 5179,
      "ĠrÆ°á»£t": 5180,
      "Ġlá»ĳp": 5181,
      "ĠtÃ³": 5182,
      "ĠthÃŃt": 5183,
      "ĠláºŃy": 5184,
      "Ġbeo": 5185,
      "ĠbÃ©t": 5186,
      "ĠnhÃ´ng": 5187,
      "Ġnhá»©t": 5188,
      "ĠkÄ©": 5189,
      "ĠxÃ¹": 5190,
      "ĠxÃ¨o": 5191,
      "Ġkhá»§ng": 5192,
      "Ġthoai": 5193,
      "ĠsoÃ¡t": 5194,
      "Ġchiáº¿t": 5195,
      "ĠhÃ¹": 5196,
      "Ġhá»ķn": 5197,
      "ĠngÃ¡o": 5198,
      "Ġngá»įng": 5199,
      "Ġnháº¡nh": 5200,
      "ĠgÃ¡o": 5201,
      "ĠsÄĥm": 5202,
      "ĠriÃªu": 5203,
      "ĠkhÃ©t": 5204,
      "á»ĩu": 5205,
      "ĠkhoÃ¡t": 5206,
      "ĠÄĳoáº£n": 5207,
      "Ġtrá»ĭa": 5208,
      "Ġria": 5209,
      "Ġ3": 5210,
      "ĠcÃ¹m": 5211,
      "ĠÄĳáº«n": 5212,
      "Ġmá»ķi": 5213,
      "ĠluyÃªn": 5214,
      "ĠnÃ²ng": 5215,
      "ĠnÃºng": 5216,
      "ĠsÃ²": 5217,
      "Ġdáº¥p": 5218,
      "Ġxá»ĭn": 5219,
      "ĠphÃ¬nh": 5220,
      "Ġchá»§ng": 5221,
      "Ġnia": 5222,
      "ĠÄĳá»±c": 5223,
      "Ġmom": 5224,
      "ĠlÆ°á»Ŀm": 5225,
      "TTTT": 5226,
      "Ġdz": 5227,
      "Ġxá»ķ": 5228,
      "ĠxÃ©n": 5229,
      "ĠxÃºng": 5230,
      "ĠxÆ°á»Łng": 5231,
      "Äĥc": 5232,
      "TTBT": 5233,
      "Ġchoai": 5234,
      "Ġnháº¥c": 5235,
      "ĠnhÃ¡p": 5236,
      "Ġchoa": 5237,
      "ĠthÃ¬a": 5238,
      "ĠnguÃ½t": 5239,
      "ĠÄĳui": 5240,
      "Ġlike": 5241,
      "Ġá»Ľ": 5242,
      "Ġlá»§": 5243,
      "ĠlÃµm": 5244,
      "Ġngá»ĵn": 5245,
      "Ġtrá»¥c": 5246,
      "Ġkhay": 5247,
      "Ġnguáº©y": 5248,
      "Ġká»ģnh": 5249,
      "ĠnhÆ°á»£c": 5250,
      "Ġngá»«": 5251,
      "ĠtrÃ´n": 5252,
      "ĠtrÃŃch": 5253,
      "Ġseo": 5254,
      "ĠrÆ°á»¡i": 5255,
      "Ġriá»ģng": 5256,
      "ĠgiÃ¡n": 5257,
      "Ġkháº»": 5258,
      "ĠquÃ¡ng": 5259,
      "Ġbá»ĭu": 5260,
      "ĠÃºc": 5261,
      "Ġcáº©u": 5262,
      "ĠlÃ¨n": 5263,
      "Ġnáº±ng": 5264,
      "ĠnhÃµm": 5265,
      "ĠgÃ´n": 5266,
      "Ġkiáº¿t": 5267,
      "ĠkÃ©p": 5268,
      "Ġxáº¥p": 5269,
      "Ġráº±n": 5270,
      "Ġquáº¡i": 5271,
      "ĠÄĳá»ķng": 5272,
      "ĠrÃ£nh": 5273,
      "oc": 5274,
      "Ġcháº¥u": 5275,
      "ĠnÆ¡": 5276,
      "Ġngáº¡n": 5277,
      "ĠngiÃªng": 5278,
      "ĠngÃ¡ch": 5279,
      "Ġngá»Ļn": 5280,
      "ĠsáºŃu": 5281,
      "ĠdÃŃ": 5282,
      "ĠgiÃ¨m": 5283,
      "Ġngháº½n": 5284,
      "Ġchoáº¡ng": 5285,
      "Ġá»ıi": 5286,
      "ĠáºŃm": 5287,
      "Ġcáº·n": 5288,
      "Ġmá»ģ": 5289,
      "ĠlÃŃt": 5290,
      "Ġchá»ĵm": 5291,
      "ĠvÃ³i": 5292,
      "Ġháº¥t": 5293,
      "Ġtriáº¿t": 5294,
      "Ġnhá»ĳi": 5295,
      "ĠdiÃªn": 5296,
      "ĠrÃ¢n": 5297,
      "ĠrÃ¹": 5298,
      "Ġrá»¯a": 5299,
      "ĠrÃ¡m": 5300,
      "TBBBTT": 5301,
      "Äĥt": 5302,
      "ĠcÃłm": 5303,
      "Ġcá»±": 5304,
      "ĠlÃºt": 5305,
      "Ġháº©y": 5306,
      "Ġkháº£y": 5307,
      "ĠviÃªm": 5308,
      "Ġtá»ĳp": 5309,
      "ĠtÃ³e": 5310,
      "Ġcá»¯": 5311,
      "ĠbÃºi": 5312,
      "Ġnáº¡p": 5313,
      "Ġtrá»£n": 5314,
      "ĠnhÃŃch": 5315,
      "ĠsáºŃy": 5316,
      "ÃŃa": 5317,
      "Ġcáº£o": 5318,
      "ĠhÃ¨m": 5319,
      "Ġjan": 5320,
      "Ġcom": 5321,
      "ĠmÃ¬n": 5322,
      "ĠmÃ³m": 5323,
      "Ġháº»m": 5324,
      "Ġxáº¡": 5325,
      "ĠrÃ¡p": 5326,
      "ĠcÃłu": 5327,
      "ĠhuÃ¢n": 5328,
      "ah": 5329,
      "Ġtau": 5330,
      "Ġtáº±n": 5331,
      "Ġtháº¡o": 5332,
      "Ġváº¥y": 5333,
      "ĠngáºŃy": 5334,
      "Ġtrá»Ĺ": 5335,
      "Ġtráº¡ch": 5336,
      "Ġdá»įi": 5337,
      "Ġráº¡p": 5338,
      "ĠphÃ¨": 5339,
      "Ġphá»ıng": 5340,
      "ĠnghÃ¨": 5341,
      "ĠngoÃ¨o": 5342,
      "Ġtá»¥m": 5343,
      "ĠtÃ²m": 5344,
      "Ġmá»§i": 5345,
      "ĠlÃ¹n": 5346,
      "ĠlÃµa": 5347,
      "Ġnanh": 5348,
      "Ġdá»©a": 5349,
      "ĠnghÃ©n": 5350,
      "Ġmáº¹t": 5351,
      "Ġtoáº¡c": 5352,
      "Ġchá»£p": 5353,
      "Ġcáº¡p": 5354,
      "Ġlá»įi": 5355,
      "Ġbá»¡i": 5356,
      "ĠnÃºc": 5357,
      "ĠnhÃ£o": 5358,
      "Ġká»ĭt": 5359,
      "Ġdua": 5360,
      "Ġpháº¡c": 5361,
      "Ġquáº£y": 5362,
      "ĠnghÃŃa": 5363,
      "Ġ88": 5364,
      "Ġtáº¹o": 5365,
      "ĠlÃ¨m": 5366,
      "Ġbáº«m": 5367,
      "Ġnhá»£t": 5368,
      "Ġgá»ĵm": 5369,
      "Ġduá»ĳi": 5370,
      "Ġrá»§a": 5371,
      "ĠkháºŃp": 5372,
      "áº¡y": 5373,
      "ĠkhiÃªu": 5374,
      "Ġkhuynh": 5375,
      "ĠluÃ´ng": 5376,
      "ĠÃ³": 5377,
      "ĠÄĳiáº¿ng": 5378,
      "Ġhá»«": 5379,
      "ĠsÃºn": 5380,
      "Ġvuá»Ļt": 5381,
      "ĠchuÃ¢n": 5382,
      "Ġliá»ĩm": 5383,
      "ĠthÃŃm": 5384,
      "ck": 5385,
      "Ġlá»¥ng": 5386,
      "Ġváº¿": 5387,
      "Ġváº¡ng": 5388,
      "Ġnháºµn": 5389,
      "Ġdá»¥i": 5390,
      "Ġkhiá»ĥn": 5391,
      "Ġoáº£n": 5392,
      "ĠnhoÃ¡ng": 5393,
      "ynh": 5394,
      "ĠcÃ¹i": 5395,
      "Ġcáº¡m": 5396,
      "Ġmung": 5397,
      "Ġmáº©u": 5398,
      "Ġháº£y": 5399,
      "Ġná»Ľi": 5400,
      "Ġnáº¥ng": 5401,
      "ĠngÃºng": 5402,
      "Ġxáº©y": 5403,
      "ĠrÃ¬u": 5404,
      "ĠkhÃ¢n": 5405,
      "Ġquáº§y": 5406,
      "Ġquáº¹o": 5407,
      "Ġchin": 5408,
      "ĠlÃ¡n": 5409,
      "Ġoe": 5410,
      "Ġrá»§ng": 5411,
      "ĠtáºŃu": 5412,
      "ĠcáºŃt": 5413,
      "ĠÄĳuá»ĳng": 5414,
      "Ġcháº¡ng": 5415,
      "ĠnÆ°á»Ŀng": 5416,
      "Ġloáº¡t": 5417,
      "Ġchá»ĭt": 5418,
      "ĠtoÃ©t": 5419,
      "Ġxoong": 5420,
      "ĠthÃ£i": 5421,
      "ĠthÃµng": 5422,
      "BBT": 5423,
      "Ġbá»ķi": 5424,
      "ĠchÃ¡c": 5425,
      "ĠsÃª": 5426,
      "ĠrÆ°Æ¡i": 5427,
      "TBBBBT": 5428,
      "ĠquÃ¡nh": 5429,
      "Ġbuá»Ļt": 5430,
      "Ġthá»ĥu": 5431,
      "ĠlÃ£m": 5432,
      "ĠmÃŃm": 5433,
      "Ġ2": 5434,
      "ĠchÃ¡i": 5435,
      "Ġcháº£nh": 5436,
      "Ġgio": 5437,
      "Ġkhá»«ng": 5438,
      "Äĥp": 5439,
      "Ġhoáº±ng": 5440,
      "BTBBB": 5441,
      "Ġbáº¥n": 5442,
      "Ġvá»±a": 5443,
      "Ġhá»ĳng": 5444,
      "ĠsÃ²n": 5445,
      "ĠsÃ¡p": 5446,
      "Ġxáº»o": 5447,
      "Ġkhá»Ń": 5448,
      "Ġkhá»±a": 5449,
      "Ġláº¡m": 5450,
      "Ġbáº»m": 5451,
      "Ġfaay": 5452,
      "Ġnghá»ĭu": 5453,
      "Ġguá»ĵng": 5454,
      "BTBBBT": 5455,
      "ĠÃ¬nh": 5456,
      "Ġáº¥t": 5457,
      "Ġáº¹o": 5458,
      "Ġbáº·m": 5459,
      "Ġhen": 5460,
      "Ġnáº¡": 5461,
      "Ġnáº¡t": 5462,
      "Ġgá»ıi": 5463,
      "ĠgiÅ©a": 5464,
      "ĠcÃ³i": 5465,
      "Ġbá»ım": 5466,
      "Ġza": 5467,
      "ĠthÃ¡m": 5468,
      "ĠbÃºng": 5469,
      "Ġcháº±m": 5470,
      "Ġvá»ķ": 5471,
      "Ġvá»ĥnh": 5472,
      "ĠnáºŃm": 5473,
      "Ġnháº¯p": 5474,
      "Ã¢p": 5475,
      "ĠsÆ°á»Ľt": 5476,
      "ĠdÆ°á»£ng": 5477,
      "ĠrÆ°á»Ŀi": 5478,
      "ĠrÃ´m": 5479,
      "Ġkhau": 5480,
      "Ġyáº¿t": 5481,
      "Ã©c": 5482,
      "Ġquá»µ": 5483,
      "eu": 5484,
      "Ġtiá»ĩt": 5485,
      "ĠtÃ³t": 5486,
      "Ġláº·t": 5487,
      "Ġhá»ĥn": 5488,
      "Ġná»ĩn": 5489,
      "ĠtrÆ¡i": 5490,
      "Ġnháº¹n": 5491,
      "Ġsáº¿u": 5492,
      "ĠrÃ¡": 5493,
      "Ġrá»ĩu": 5494,
      "Ġkháº£nh": 5495,
      "Ġphá»ĳi": 5496,
      "ĠloÃłn": 5497,
      "Ġrá»īnh": 5498,
      "Ġáº©u": 5499,
      "Ġlá»ĳt": 5500,
      "Ġlá»±ng": 5501,
      "Ġbá»ĳt": 5502,
      "ĠgÃ¡n": 5503,
      "ĠdÃ¨m": 5504,
      "Ġdáº«y": 5505,
      "ĠxÃłng": 5506,
      "ĠxÃ¨": 5507,
      "ĠrÆ¡n": 5508,
      "ĠghÃ¨": 5509,
      "ĠÄĳá»įi": 5510,
      "ĠtÃ¡ng": 5511,
      "ĠÄĳÆ°á»Ľc": 5512,
      "Ġngáº©m": 5513,
      "Ãªc": 5514,
      "Ġsá»ģ": 5515,
      "Ġsá»§i": 5516,
      "Ġkiá»ģn": 5517,
      "ĠthÃ¬n": 5518,
      "ĠxoÃłng": 5519,
      "Ġfe": 5520,
      "Ġnhá»ķm": 5521,
      "Ġá»ħnh": 5522,
      "Ġcáº¥n": 5523,
      "Ġcáº¡ch": 5524,
      "ĠlÃµi": 5525,
      "ĠbÄ©": 5526,
      "ĠvÃły": 5527,
      "Ġhem": 5528,
      "Ġhá»§i": 5529,
      "ĠnÃ¡n": 5530,
      "Ġgá»Ŀn": 5531,
      "Ġka": 5532,
      "Ġrá»¥i": 5533,
      "ĠpiÃªu": 5534,
      "Ġpháº¿t": 5535,
      "Ġquáº¡ng": 5536,
      "ĠcÃ¡u": 5537,
      "TTBBBT": 5538,
      "Ġleng": 5539,
      "Ġmá»¥n": 5540,
      "Ġsá»īn": 5541,
      "Ġ5": 5542,
      "Ġtáº§y": 5543,
      "Ġmáº«m": 5544,
      "ĠmÃ©m": 5545,
      "Ġláº©u": 5546,
      "ĠbÆ°Æ¡ng": 5547,
      "Ġbáºµng": 5548,
      "Ġngáº£i": 5549,
      "ĠngÃ³c": 5550,
      "Ġgá»ĳm": 5551,
      "Ġquyá»ĩt": 5552,
      "Ġnguoi": 5553,
      "Ġoáº£i": 5554,
      "ĠzÃ´": 5555,
      "Ġon": 5556,
      "ĠtÃ¨m": 5557,
      "Ġchiá»ĩn": 5558,
      "Ġhá»¥c": 5559,
      "ĠhÆ°Æ¡u": 5560,
      "Ġnáº¯p": 5561,
      "ĠgáºŃm": 5562,
      "Ġdá»ģn": 5563,
      "Ġdiá»ĩp": 5564,
      "Ġrá»Ł": 5565,
      "Ġrá»¥c": 5566,
      "ĠrÆ°á»Łi": 5567,
      "Ġquáº«n": 5568,
      "ĠÄĳá»ĵm": 5569,
      "Ġvoan": 5570,
      "ĠrÃłm": 5571,
      "ĠÃ¨o": 5572,
      "Ġtá»§a": 5573,
      "Ġtháº§u": 5574,
      "Ġtháº¡nh": 5575,
      "BBTBBT": 5576,
      "Ġngong": 5577,
      "ĠsÃº": 5578,
      "ĠsÆ¡i": 5579,
      "Ġsá»¡": 5580,
      "ĠsÆ°á»£ng": 5581,
      "Ġdoi": 5582,
      "Ġkhá»ģ": 5583,
      "TTBBTT": 5584,
      "ĠcÃ³t": 5585,
      "Ġthun": 5586,
      "Ġkhui": 5587,
      "Ġvá»Łn": 5588,
      "ĠmÄĥm": 5589,
      "ĠcháºŃn": 5590,
      "ĠvÃ¡t": 5591,
      "Ġhá»ĭch": 5592,
      "Ġgá»¥": 5593,
      "ĠgÄĥng": 5594,
      "ĠsÃ£i": 5595,
      "ĠdÆ¡n": 5596,
      "ĠdÃ³c": 5597,
      "ĠxÃ³i": 5598,
      "Ġnhá»Ŀn": 5599,
      "Ġmiá»ĩn": 5600,
      "Ġthá»ĳc": 5601,
      "ĠngÄĥm": 5602,
      "Ġngáº¹n": 5603,
      "Ġgá»įng": 5604,
      "ĠsÃ¨o": 5605,
      "BBBTTT": 5606,
      "á»ın": 5607,
      "ĠkiÃªm": 5608,
      "Ġduá»ģnh": 5609,
      "ĠÄĳá»¥n": 5610,
      "Ġmun": 5611,
      "ĠthÃŃa": 5612,
      "Ġá»į": 5613,
      "ĠcÆ°á»Ŀm": 5614,
      "Ġtháº¯n": 5615,
      "ĠchÃ£i": 5616,
      "Ġchá»Ļt": 5617,
      "ĠnÃ£": 5618,
      "ĠnhÃ´i": 5619,
      "ĠnhÃºc": 5620,
      "Ġrá»Ľm": 5621,
      "Ġloe": 5622,
      "Ġngoe": 5623,
      "Ġkeng": 5624,
      "ĠÄĳÃ¡i": 5625,
      "Ġbá»ħ": 5626,
      "Ġvá»ĳi": 5627,
      "ark": 5628,
      "ĠtrÃ¡c": 5629,
      "ĠnhÃŃu": 5630,
      "Ġnhiáº¿p": 5631,
      "ĠgÃº": 5632,
      "ĠsÆ°u": 5633,
      "ĠdÄĥn": 5634,
      "Ġxáº¯p": 5635,
      "ĠkhÆ°á»Ľc": 5636,
      "Ġpin": 5637,
      "Ġphá»ķng": 5638,
      "á»Ńu": 5639,
      "Ġbua": 5640,
      "Ġtom": 5641,
      "BTBBTT": 5642,
      "Ġnick": 5643,
      "ĠnhÅ©n": 5644,
      "ĠÄĳáº¡c": 5645,
      "Ġthá»Ľ": 5646,
      "ĠchÆ°á»Łng": 5647,
      "Ġngá»Ĺ": 5648,
      "Ġngáº§y": 5649,
      "Ġngá»Ļt": 5650,
      "Ġgao": 5651,
      "ĠsáºŃm": 5652,
      "Ġká»ĭ": 5653,
      "Ġxuy": 5654,
      "Ġpark": 5655,
      "Ġquáº¹t": 5656,
      "BBBTBT": 5657,
      "Ġláº¡p": 5658,
      "Ġchoang": 5659,
      "á»īu": 5660,
      "Ġthá»ĭch": 5661,
      "ĠâĢĿ": 5662,
      ")]": 5663,
      "Ġcá»¯u": 5664,
      "Ġmáº£y": 5665,
      "Ġbáº¿t": 5666,
      "Ġbá»¥a": 5667,
      "ĠváºŃp": 5668,
      "ĠngÃ²": 5669,
      "Ġngá»£": 5670,
      "ĠnhÃ£ng": 5671,
      "Ġde": 5672,
      "Ġkhá»ĳng": 5673,
      "ĠpÃ¢y": 5674,
      "ĠpÃ´n": 5675,
      "Ġpháº«n": 5676,
      "Ġquáº¯p": 5677,
      "Ġnhá»Ľp": 5678,
      "ĠxuÃ´ng": 5679,
      "Ġthuáº«n": 5680,
      "Ġtá»ĥ": 5681,
      "ĠÄĳáº©m": 5682,
      "BBTTBT": 5683,
      "Ġbá»¡n": 5684,
      "Ġnhom": 5685,
      "Ġgá»¯": 5686,
      "Ġxá»ģ": 5687,
      "ĠxÃºi": 5688,
      "ĠrÆ°Æ¡ng": 5689,
      "ĠhoÃ¡n": 5690,
      "Ġkhoáº¯c": 5691,
      "ĠtoÃłng": 5692,
      "Ġtá»ın": 5693,
      "Ġnhoáº¹t": 5694,
      "Ġrá»īa": 5695,
      "ĠxÃłm": 5696,
      "Ġgá»¯i": 5697,
      "ĠmÃ£ng": 5698,
      "BBTB": 5699,
      "Ġbá»£m": 5700,
      "ĠchÃ³p": 5701,
      "Ġngá»ĳ": 5702,
      "Ġsá»§ng": 5703,
      "ĠdÃ´i": 5704,
      "Ġgiáº¿m": 5705,
      "Ġkhá»©a": 5706,
      "Ġquá»£": 5707,
      "Ġnhá»Ľn": 5708,
      "Ġmáº¹o": 5709,
      "Ġkhum": 5710,
      "Ġluáº©n": 5711,
      "Ġlá»Ļp": 5712,
      "ĠâĢľ": 5713,
      "BBTBTT": 5714,
      "Ġá»¥": 5715,
      "Ġá»Ľn": 5716,
      "ĠtÃ²i": 5717,
      "ĠÄĳÃ¡n": 5718,
      "ĠÄĳáº¿ch": 5719,
      "Ġlá»Ľi": 5720,
      "ĠbÃ¡ng": 5721,
      "ĠbÃŃt": 5722,
      "Ġbáºµm": 5723,
      "Ġnáº¥n": 5724,
      "Ġtráº£y": 5725,
      "Ġnháº§y": 5726,
      "Ġsh": 5727,
      "Ġsáº£o": 5728,
      "Ġdáº±m": 5729,
      "ĠdÃºi": 5730,
      "ĠkhÃ¡i": 5731,
      "áº¯k": 5732,
      "á»ĭa": 5733,
      "Ġtiáº¿m": 5734,
      "ĠchuÃ´m": 5735,
      "Ġmui": 5736,
      "Ġgame": 5737,
      "Ġ8888": 5738,
      "Ġ4": 5739,
      "Ġtá»Ł": 5740,
      "ĠtÃ¢ng": 5741,
      "ĠÄĳÆ¡i": 5742,
      "ĠkÃ¬n": 5743,
      "Ġkiá»ģm": 5744,
      "Ġrá»ģ": 5745,
      "ĠrÆ°á»Ľm": 5746,
      "Äĥk": 5747,
      "Ġduá»ĩ": 5748,
      "Ġlá»Łn": 5749,
      "Ġmuá»ĵi": 5750,
      "ĠÃºy": 5751,
      "Ġtáº¹t": 5752,
      "ĠthÃ¨n": 5753,
      "Ġbá»§": 5754,
      "Ġchá»Ńng": 5755,
      "ĠnÃŃch": 5756,
      "Ġnháº¡i": 5757,
      "ĠnhÃ©o": 5758,
      "ĠgÃ¡": 5759,
      "Ġsá»Ńng": 5760,
      "ĠkÄ©u": 5761,
      "ĠxÃ¬u": 5762,
      "ĠkhÃº": 5763,
      "ĠdÄ©a": 5764,
      "Ġthá»īu": 5765,
      "Ġmuá»ĵng": 5766,
      "ĠÄĳá»ĳp": 5767,
      "ĠmÃµm": 5768,
      "Ġchiá»ģng": 5769,
      "Ġháºµng": 5770,
      "Ġnáº¡ng": 5771,
      "ĠngáºŃt": 5772,
      "ĠnhÃ´m": 5773,
      "ĠnhÃµng": 5774,
      "Ġnhá»Ļt": 5775,
      "Ġgá»ĵ": 5776,
      "Ġsua": 5777,
      "Ġdáº¡c": 5778,
      "Ġxá»Ł": 5779,
      "Ġxá»ĳc": 5780,
      "Ġgiáº§n": 5781,
      "ĠcÃ¡ng": 5782,
      "Æ°á»£p": 5783,
      "Ġtuá»ĵn": 5784,
      "ĠkhuÃ´ng": 5785,
      "ĠviÃªc": 5786,
      "ĠmÅ©m": 5787,
      "ĠÃ©m": 5788,
      "Ġáº»m": 5789,
      "Ġthá»Ľi": 5790,
      "Ġby": 5791,
      "Ġváº£ng": 5792,
      "Ġváº±n": 5793,
      "Ġhá»¥p": 5794,
      "Ġná»įc": 5795,
      "Ġnin": 5796,
      "Ġngáº¥u": 5797,
      "Ã´c": 5798,
      "Ġgá»Ŀ": 5799,
      "Ġrá»į": 5800,
      "Ġrá»ĳc": 5801,
      "ĠgiÃª": 5802,
      "Ġnghá»ħ": 5803,
      "Ġchá»Ŀm": 5804,
      "Ġtá»«a": 5805,
      "Ġchuáº¿nh": 5806,
      "Ġkáº½m": 5807,
      "Ġboong": 5808,
      "ĠÄĳep": 5809,
      "or": 5810,
      "ĠÃ²": 5811,
      "ĠÄĳÃ¡t": 5812,
      "ĠÄĳáºŃt": 5813,
      "ĠÄĳáº¥p": 5814,
      "Ġtháº»o": 5815,
      "Ġchuy": 5816,
      "Ġchá»ım": 5817,
      "Ġvá»ĵi": 5818,
      "ĠnÆ°á»£p": 5819,
      "Ġtrá»ı": 5820,
      "Ġnhá»Ļng": 5821,
      "Ġriá»ĩu": 5822,
      "ĠkhÃªnh": 5823,
      "Ġkhiáº¿u": 5824,
      "Ġphung": 5825,
      "ĠquÄĥn": 5826,
      "ĠÄĳá»ĭu": 5827,
      "Ġdiá»ħu": 5828,
      "ĠÄĳá»¥p": 5829,
      "ĠsoÃłi": 5830,
      "Ġnghá»ĩch": 5831,
      "ĠnhÆ°á»£ng": 5832,
      "ĠÃ£": 5833,
      "Ġtá»ĵ": 5834,
      "Ġthiáº¿n": 5835,
      "ĠbÃ¨m": 5836,
      "ĠnÆ°ng": 5837,
      "ĠnÃ©o": 5838,
      "Ġtrá»£t": 5839,
      "Ġgá»«": 5840,
      "Ġsy": 5841,
      "ĠdÅ©a": 5842,
      "Ġdiáº¿c": 5843,
      "Ġxá»Ļn": 5844,
      "ĠrÃłn": 5845,
      "Ġhoáº¯c": 5846,
      "Ġkáº»ng": 5847,
      "Ġáº³m": 5848,
      "ĠthÃºt": 5849,
      "Ġláº£o": 5850,
      "ĠláºŃu": 5851,
      "Ġbáº£i": 5852,
      "Ġbáº¥u": 5853,
      "ĠchÄ©u": 5854,
      "Ġvá»ĵn": 5855,
      "Ġná»Ļm": 5856,
      "Ġtrá»Ŀ": 5857,
      "ĠtrÃ©o": 5858,
      "ĠnhÃ¨o": 5859,
      "ĠsÃ¨": 5860,
      "ĠsÃŃt": 5861,
      "Ġxá»īa": 5862,
      "Ġráº·t": 5863,
      "Ġruá»ĳc": 5864,
      "ĠgiáºŃy": 5865,
      "Ġkheo": 5866,
      "TBBTTT": 5867,
      "á»ĳp": 5868,
      "Ġkhuyá»ĥn": 5869,
      "ĠÄĳuá»ģ": 5870,
      "ĠÃµng": 5871,
      "ĠmÆ¡i": 5872,
      "ĠthÆ°á»£c": 5873,
      "Ġbáº±m": 5874,
      "ĠchÃªm": 5875,
      "Ġháº§y": 5876,
      "ĠnÆ°á»Ŀm": 5877,
      "Ġnhuy": 5878,
      "ĠgÃ¡t": 5879,
      "ĠgÃºt": 5880,
      "ĠdÃ£n": 5881,
      "Ġdá»¡n": 5882,
      "Ġxá»ĭ": 5883,
      "Ġrá»£": 5884,
      "ĠgiÃ£y": 5885,
      "Ġpáº¯c": 5886,
      "Ġcup": 5887,
      "Ġrá»¡n": 5888,
      "ĠÄĳá»īa": 5889,
      "Ġngá»¥a": 5890,
      "ĠÃ¹ng": 5891,
      "Ġuá»Ļt": 5892,
      "ĠtÆ¡n": 5893,
      "ĠcÆ°á»£c": 5894,
      "Ġcá»Ľn": 5895,
      "Ġthá»įc": 5896,
      "ĠthÃ²m": 5897,
      "ĠnÃ¬": 5898,
      "Ġtráº½n": 5899,
      "ĠxÃ³c": 5900,
      "ĠgiáºŃm": 5901,
      "Ġgiá»¥a": 5902,
      "ĠtoÃ¡i": 5903,
      "Ġmiá»ħu": 5904,
      "ĠsÃłm": 5905,
      "ĠlÃŃp": 5906,
      "Ġbá»§n": 5907,
      "Ġtá»Ļ": 5908,
      "Ġtáº©u": 5909,
      "ĠÄĳÃ©c": 5910,
      "ĠmÃ³i": 5911,
      "Ġluá»ĳc": 5912,
      "Ġlá»ģnh": 5913,
      "Ġháº¯ng": 5914,
      "ĠnÃ¹i": 5915,
      "ĠnÃ¡m": 5916,
      "Ġnháº¯t": 5917,
      "ĠgÄĥp": 5918,
      "Ġsá»ĩt": 5919,
      "Ġsáº¡p": 5920,
      "Ġxáº¡o": 5921,
      "Ġxá»Ļc": 5922,
      "ĠrÆ¡": 5923,
      "ĠrÃ´i": 5924,
      "Ġkhiá»ħng": 5925,
      "ĠtoÃ¡c": 5926,
      "Ġuáº¿": 5927,
      "ĠhuÃªnh": 5928,
      "Ġten": 5929,
      "ĠmÃ¡n": 5930,
      "Ġthiá»ĥu": 5931,
      "Ġlá»ĭnh": 5932,
      "ĠbÆ°Æ¡i": 5933,
      "ĠbÆ°á»Ľng": 5934,
      "ĠchÃ¹": 5935,
      "Ġvá»¯a": 5936,
      "Ġná»Ĺ": 5937,
      "Ġnhon": 5938,
      "Ġnhá»Ń": 5939,
      "Ġgáº¥c": 5940,
      "ĠkÃ©": 5941,
      "Ġdáº¥m": 5942,
      "Ġxá»ĩch": 5943,
      "ĠrÃ´n": 5944,
      "Ġráº»o": 5945,
      "ĠphÃ´ng": 5946,
      "Ġquáº¿t": 5947,
      "Ġngháº¿ch": 5948,
      "ĠghÃ¡nh": 5949,
      "ĠuÃ´ng": 5950,
      "Ġang": 5951,
      "Ġcá»ĵ": 5952,
      "ĠmuÃ´i": 5953,
      "Ġmiáº¿n": 5954,
      "Ġmá»§ng": 5955,
      "Ġlá»Ŀn": 5956,
      "ĠchÃ¢y": 5957,
      "Ġchá»Ļi": 5958,
      "Ġchá»ģnh": 5959,
      "Ġháº¹": 5960,
      "ĠhÃ½": 5961,
      "Ġnáº·c": 5962,
      "Ġtrá»ĩ": 5963,
      "ĠtrÃ³c": 5964,
      "Ġtráº£ng": 5965,
      "Ġsáº¥y": 5966,
      "Ġsá»įt": 5967,
      "Ġdáº£": 5968,
      "Ġdáº©u": 5969,
      "ĠkhÃ¨": 5970,
      "ĠkháºŃt": 5971,
      "Ġngháº»o": 5972,
      "Ġtum": 5973,
      "Ġvá»£t": 5974,
      "Ġtrum": 5975,
      "Ġah": 5976,
      "ĠlÃ²m": 5977,
      "Ġnhuyá»ħn": 5978,
      "et": 5979,
      "ĠtÃ£i": 5980,
      "Ġtáº¿u": 5981,
      "Ġláº£y": 5982,
      "ĠbÆ°a": 5983,
      "Ġcháº³n": 5984,
      "Ġchá»Ļp": 5985,
      "ĠvÆ°": 5986,
      "ĠvÃ¹n": 5987,
      "Ġná»Ľp": 5988,
      "Ġsá»į": 5989,
      "ĠkÃ´ng": 5990,
      "Ġxá»ĳp": 5991,
      "Ġrim": 5992,
      "ĠphÃ´n": 5993,
      "Ã©ng": 5994,
      "Ġthuong": 5995,
      "Ġtoáº£n": 5996,
      "ĠxoÄĥn": 5997,
      "Ġbá»ĭa": 5998,
      "ĠbiÃªt": 5999,
      "BTTBTT": 6000,
      "Ġluy": 6001,
      "ĠbÆ°u": 6002,
      "Ġcháº¯ng": 6003,
      "ĠhÆ°á»Ľc": 6004,
      "Ġháº±m": 6005,
      "Ġhá»£m": 6006,
      "ĠtrÄ©": 6007,
      "Ġgá»Ł": 6008,
      "ĠxÄĥn": 6009,
      "ĠrÆ°á»Ŀm": 6010,
      "Ġquáº·ng": 6011,
      "Ġyá»ĥ": 6012,
      "ĠgiÃ³t": 6013,
      "ĠloÃ©t": 6014,
      "Ġngoáº·t": 6015,
      "Ġruá»ĵng": 6016,
      "Ġcuá»Ŀi": 6017,
      "Ġxáº»ng": 6018,
      "Ġmáº¿u": 6019,
      "Ġthá»ĳ": 6020,
      "Ġthá»ıi": 6021,
      "Ġláº·c": 6022,
      "Ġbáº¹p": 6023,
      "Ġchá»ħm": 6024,
      "Ġvao": 6025,
      "Ġháº¥u": 6026,
      "ĠnÆ°": 6027,
      "Ġtran": 6028,
      "ĠtriÃªu": 6029,
      "ĠtrÃ¡p": 6030,
      "Ġnhá»ĳn": 6031,
      "Ġnháº£m": 6032,
      "Ġnhá»¡n": 6033,
      "Ġky": 6034,
      "Ġdá»ķi": 6035,
      "Ġdiá»ĩm": 6036,
      "Ġxiu": 6037,
      "Ġxáº¡m": 6038,
      "Ġgiáº·m": 6039,
      "TBTBBT": 6040,
      "ĠphÃ©t": 6041,
      "Ġquo": 6042,
      "ĠquÃłnh": 6043,
      "Ġtiu": 6044,
      "ĠthuÃ´n": 6045,
      "Ġchuá»ķi": 6046,
      "Ġcháº¡ch": 6047,
      "Ġduá»ķi": 6048,
      "ĠngÃ³p": 6049,
      "ĠsuÃª": 6050,
      "Ġcá»¥p": 6051,
      "Ġnghá»ĭÃªn": 6052,
      "Äĳ": 6053,
      "ĠtÆ°a": 6054,
      "Ġcá»¯a": 6055,
      "ĠÄĳáº¯k": 6056,
      "ĠmÃªng": 6057,
      "BBTTTT": 6058,
      "Ġlá»Ń": 6059,
      "Ġbá»¥m": 6060,
      "ĠchÆ¡m": 6061,
      "Ġvá»ĩn": 6062,
      "Ġváºµng": 6063,
      "Ġhinh": 6064,
      "ĠhiÃªu": 6065,
      "ĠtrÃ¡t": 6066,
      "Ġtrá»įt": 6067,
      "Ġnhá»ħ": 6068,
      "Ġsá»ĵn": 6069,
      "Ġsá»Ĺ": 6070,
      "ĠsÃ²m": 6071,
      "Ġdá»«": 6072,
      "Ġxáº§m": 6073,
      "Ġrá»Ĺ": 6074,
      "ĠpÃ¡c": 6075,
      "Ġruá»Ĺi": 6076,
      "Ġngun": 6077,
      "ĠnguÃ²i": 6078,
      "Ġchun": 6079,
      "ĠhuÆ¡": 6080,
      "ĠvÃŃn": 6081,
      "Ġbá»īu": 6082,
      "Ġjuy": 6083,
      "BTTBB": 6084,
      "ĠcÃ£": 6085,
      "ĠÄĳÃªn": 6086,
      "Ġmá»ĵn": 6087,
      "Ġlua": 6088,
      "Ġvá»¥c": 6089,
      "Ġnáº¯c": 6090,
      "Ġnáº¡m": 6091,
      "ĠsÃ©m": 6092,
      "Ġxáº±ng": 6093,
      "ĠxÃ©m": 6094,
      "ĠgiáºŃp": 6095,
      "Ġkhem": 6096,
      "Ġpi": 6097,
      "Ġláº¡n": 6098,
      "Ġhoáº±n": 6099,
      "Ġchoi": 6100,
      "ĠÄĳá»ĥu": 6101,
      "ĠngoÃ¡y": 6102,
      "Ġngá»Ļp": 6103,
      "Ġá»īu": 6104,
      "BTTBBT": 6105,
      "eng": 6106,
      "ine": 6107,
      "Ġá»³": 6108,
      "ĠÄĳÃ¹": 6109,
      "ĠÄĳáº£n": 6110,
      "ĠmÃ¡nh": 6111,
      "ĠmÆ°Æ¡n": 6112,
      "Ġláº¹o": 6113,
      "ĠbÆ¡n": 6114,
      "Ġcháº½": 6115,
      "ĠchÃ£o": 6116,
      "ĠhÃ¢u": 6117,
      "Ġhá»Ļc": 6118,
      "ĠhÃ£ng": 6119,
      "ĠnÃ¡i": 6120,
      "ĠngÃ¨o": 6121,
      "Ġngá»Ńng": 6122,
      "Ġngá»įa": 6123,
      "Ġtrá»ĥ": 6124,
      "Ġtráº¡nh": 6125,
      "ĠsuÃ´i": 6126,
      "Ġsá»ķng": 6127,
      "ĠdÃºm": 6128,
      "Ġgiá»Ļi": 6129,
      "á»įe": 6130,
      "Ġngháº¹t": 6131,
      "iá»ĥm": 6132,
      "Ġngoáº¯c": 6133,
      "Ġkiá»ħng": 6134,
      "Ġlunh": 6135,
      "ĠxoÃłn": 6136,
      "ĠchÃ³e": 6137,
      "ĠÄĳá»ħnh": 6138,
      "ĠvÆ°á»¡n": 6139,
      "ĠÄĳÆ°Æ¡m": 6140,
      "ĠÄĳÄ©nh": 6141,
      "ĠmÄĥt": 6142,
      "Æ°c": 6143,
      "Ġláº³n": 6144,
      "Ġlá»£t": 6145,
      "Ġlá»īu": 6146,
      "ĠbÄ©u": 6147,
      "Ġná»Ŀ": 6148,
      "Ġnáº£": 6149,
      "Ġná»Ľt": 6150,
      "Ġngáº¡": 6151,
      "Ġkon": 6152,
      "Ġká»ģm": 6153,
      "ĠxÃºt": 6154,
      "Ġxiáº¿c": 6155,
      "Ġpá»ĳt": 6156,
      "ĠbuÃ½t": 6157,
      "Ġgháº¹": 6158,
      "Ġrá»§n": 6159,
      "Ġká»ĩch": 6160,
      "ĠngÆ°Ã²i": 6161,
      "ĠroÃłi": 6162,
      "Ġtá»§y": 6163,
      "Ġá»Ļp": 6164,
      "ĠtÆ°á»£c": 6165,
      "Ġtáº±ng": 6166,
      "Ġcá»Ł": 6167,
      "Ġmáº¿": 6168,
      "Ġmá»ĩ": 6169,
      "Ġmáº§ng": 6170,
      "ĠthÃ¢t": 6171,
      "Ġlá»ĳm": 6172,
      "Ġbin": 6173,
      "Ġbáº©u": 6174,
      "Ġchá»Ļn": 6175,
      "ĠhÃ³i": 6176,
      "Ġngá»¥t": 6177,
      "Ġtráº¯m": 6178,
      "ĠnháºŃm": 6179,
      "Ġnháº·n": 6180,
      "Ġgá»ķ": 6181,
      "ĠgÃ¢m": 6182,
      "ĠsÃªn": 6183,
      "Ġxá»Ŀ": 6184,
      "Ġxá»«": 6185,
      "TBBTBT": 6186,
      "Æ°á»Ľu": 6187,
      "Ġtháº¿p": 6188,
      "Ġrua": 6189,
      "Ġun": 6190,
      "ĠngÃłu": 6191,
      "Ġbá»Ļp": 6192,
      "ĠcuÃ´c": 6193,
      "ĠkhÃŃa": 6194,
      "Ġkhá»īnh": 6195,
      "Ġtrump": 6196,
      "Ġyá»ĥm": 6197,
      "ĠmiÃªu": 6198,
      "ĠthÆ°ng": 6199,
      "Ġthiá»ĥn": 6200,
      "Ġláº·p": 6201,
      "ĠvÃ¡o": 6202,
      "Ġháº¥ng": 6203,
      "ĠnÆ°a": 6204,
      "Ġnáº¡nh": 6205,
      "Ġtráº¡c": 6206,
      "Ġtrá»ĳc": 6207,
      "ĠnhÃ¢u": 6208,
      "Ġgáº·ng": 6209,
      "Ġgoi": 6210,
      "ĠgÆ°á»Ŀm": 6211,
      "Ġsáº£nh": 6212,
      "Ġsá»Ļt": 6213,
      "Ġxá»ĵm": 6214,
      "ĠrÃªm": 6215,
      "ĠgiÃ¡t": 6216,
      "Ġkháº³m": 6217,
      "Ġpo": 6218,
      "ĠpÆ¡": 6219,
      "ĠghÃ¨n": 6220,
      "ĠÄĳiá»ĥu": 6221,
      "Ġsoáº¡t": 6222,
      "Ġlá»Łm": 6223,
      "Ġngá»Ĺn": 6224,
      "Ġtá»Łm": 6225,
      "Ġ8": 6226,
      "ĠÃºn": 6227,
      "Ġtiá»ĩp": 6228,
      "ĠÄĳÃºa": 6229,
      "ĠmÆ°ng": 6230,
      "ĠthÃµa": 6231,
      "Ġlá»ķi": 6232,
      "ĠchÃ²": 6233,
      "Ġchá»įt": 6234,
      "ĠhÃ³c": 6235,
      "ĠhÃºng": 6236,
      "Ġháº»o": 6237,
      "Ġngá»ĳn": 6238,
      "Ġtrá»ĳ": 6239,
      "ĠtrÄ©nh": 6240,
      "Ġnhá»ģn": 6241,
      "Ġnhin": 6242,
      "Ġnháº¡y": 6243,
      "ĠgÃ©t": 6244,
      "ĠsÃŃ": 6245,
      "ĠsÃ¡c": 6246,
      "Ġdon": 6247,
      "Ġxáº¯c": 6248,
      "Ġxuá»ĳt": 6249,
      "ĠxÃ¹m": 6250,
      "ĠrÃłi": 6251,
      "ĠrÃºm": 6252,
      "Ġkhong": 6253,
      "Ġkhá»±ng": 6254,
      "TBTTTT": 6255,
      "ĠpÃ´": 6256,
      "ĠphÆ°á»£t": 6257,
      "Ġphiu": 6258,
      "Ġquá»Ł": 6259,
      "Ġhoai": 6260,
      "Ġnhá»Ľt": 6261,
      "á»Ĺm": 6262,
      "Ġháº¡ch": 6263,
      "Ġghá»ģ": 6264,
      "ĠruÃ´ng": 6265,
      "ĠchÃŃp": 6266,
      "Ġxoáº¡c": 6267,
      "ĠtrÃ²i": 6268,
      "Ġnet": 6269,
      "Ġsoan": 6270,
      "ĠphÃºn": 6271,
      "Ġrá»Ļp": 6272,
      "Ġit": 6273,
      "Ġá»īm": 6274,
      "Ġ6": 6275,
      "ĠÃ¹m": 6276,
      "ĠtÃµa": 6277,
      "Ġmem": 6278,
      "ĠthÃ¨": 6279,
      "ĠlÃ´n": 6280,
      "Ġláº£i": 6281,
      "ĠlÃ´m": 6282,
      "Ġbar": 6283,
      "Ġngáº¥y": 6284,
      "Ġngá»¯a": 6285,
      "Ġngáº¡nh": 6286,
      "Ġngá»Ľn": 6287,
      "Ġtrá»¡": 6288,
      "Ġtrá»Ļi": 6289,
      "ĠtrÃ¡m": 6290,
      "Ġnháº¡o": 6291,
      "ĠgÆ°á»Ŀng": 6292,
      "ĠsÃ£": 6293,
      "Ġsáº¿nh": 6294,
      "ĠdÅ©": 6295,
      "Ġdiá»ģm": 6296,
      "Ġxá»¥p": 6297,
      "Ġrá»Ļm": 6298,
      "Ġngho": 6299,
      "Å©m": 6300,
      "Ġliá»ħn": 6301,
      "Ġngoáº·c": 6302,
      "Ġkhuáº¿ch": 6303,
      "Ġuá»ĥ": 6304,
      "Ġtráº£m": 6305,
      "ĠtrÃłu": 6306,
      "ĠsoÃ¡i": 6307,
      "Ġnhuá»ĩ": 6308,
      "ve": 6309,
      "Ġá»ı": 6310,
      "Ġtá»ģnh": 6311,
      "Ġtá»ħnh": 6312,
      "Ġcáº¡y": 6313,
      "ĠÄĳáºµm": 6314,
      "ĠthÃ£": 6315,
      "Ġchá»ĩ": 6316,
      "Ġcháº¡n": 6317,
      "Ġcháº¡c": 6318,
      "Ġvanh": 6319,
      "Ġháº¥n": 6320,
      "ĠháºŃm": 6321,
      "ĠnÃ¡c": 6322,
      "Ġngáº¯c": 6323,
      "Ġngáº±n": 6324,
      "ĠngÃ¹n": 6325,
      "ĠtrÆ°á»£c": 6326,
      "Ġsáº¯ng": 6327,
      "Ġsá»¥": 6328,
      "ĠsÆ¡m": 6329,
      "Ġká»ģn": 6330,
      "Ġdáº£nh": 6331,
      "Ġdá»£n": 6332,
      "Ġdiáº¿p": 6333,
      "Ġxá»Ľt": 6334,
      "ĠrÃŃ": 6335,
      "Ġráº¥m": 6336,
      "TBTTBT": 6337,
      "Ġphá»ģu": 6338,
      "á»ĥng": 6339,
      "ĠtiÃªng": 6340,
      "ĠchÃŃu": 6341,
      "Ġoáº¡p": 6342,
      "ĠviÃªt": 6343,
      "ĠquÃ½nh": 6344,
      "Ġfacee": 6345,
      "Ġxá»īu": 6346,
      "al": 6347,
      "op": 6348,
      "ĠÃ¨": 6349,
      "Ġtáº»o": 6350,
      "ĠÄĳÃ©t": 6351,
      "Ġthá»«": 6352,
      "Ġthá»Ńng": 6353,
      "ĠlÃŃch": 6354,
      "Ġcháº£ng": 6355,
      "Ġcháº·c": 6356,
      "ĠchÆ°á»Łi": 6357,
      "Ġvá»ī": 6358,
      "Ġhá»±": 6359,
      "Ġhá»ın": 6360,
      "ĠnÆ°Æ¡c": 6361,
      "Ġngá»ķ": 6362,
      "Æ¡c": 6363,
      "Ġtron": 6364,
      "ĠtrÃ¢y": 6365,
      "Ġgáº±n": 6366,
      "Ġgá»§i": 6367,
      "Ġsá»įc": 6368,
      "ĠsÃªnh": 6369,
      "ĠsÃµng": 6370,
      "Ġsáº©m": 6371,
      "Ġdd": 6372,
      "Ġdá»į": 6373,
      "ĠrÆ°á»Ŀng": 6374,
      "Ġráº¿t": 6375,
      "Ġrá»£i": 6376,
      "Ġráº·n": 6377,
      "Ġrá»ĭa": 6378,
      "Ġgiá»ĳc": 6379,
      "Ġgiáº«y": 6380,
      "Ġgiá»ħu": 6381,
      "ĠkhÃ²m": 6382,
      "Ġpu": 6383,
      "ĠphÃºng": 6384,
      "Ġmá»Ļi": 6385,
      "Ġloáº±ng": 6386,
      "Ġgháº½": 6387,
      "Ġthá»ģu": 6388,
      "Ġnháº¹m": 6389,
      "Ġxoang": 6390,
      "ĠÄĳá»Ļp": 6391,
      "ĠnoÃłng": 6392,
      "TBTBTT": 6393,
      "Ġtrui": 6394,
      "ĠfÃª": 6395,
      "Ġmá»ım": 6396,
      "th": 6397,
      "Ġá»ĵi": 6398,
      "Ġáº¡ch": 6399,
      "ĠÄĳá»Ľi": 6400,
      "ĠÄĳÅ©ng": 6401,
      "Ġmá»ĳng": 6402,
      "ĠthÃ¡t": 6403,
      "ĠthÄ©": 6404,
      "Ġthin": 6405,
      "Ġlá»£": 6406,
      "Ġbáº»o": 6407,
      "Ġchá»įe": 6408,
      "ĠhÃ¡c": 6409,
      "Ġhá»ģu": 6410,
      "Ãªp": 6411,
      "ĠgÃ´": 6412,
      "Ġgá»ī": 6413,
      "ĠsÃ¹": 6414,
      "Ġxoi": 6415,
      "Ġrá»įc": 6416,
      "Ġráº¥p": 6417,
      "Ġgiáº»": 6418,
      "ĠkhÆ¡": 6419,
      "Ġkhiáº¿m": 6420,
      "ĠphÄĥm": 6421,
      "ĠphÆ°á»Ľn": 6422,
      "ĠquÃły": 6423,
      "Ġbui": 6424,
      "Ġxuá»ģ": 6425,
      "Ġsea": 6426,
      "ĠhuÃ½t": 6427,
      "ĠÃ¡y": 6428,
      "Ġtá»ĭt": 6429,
      "Ãłm": 6430,
      "ĠláºŃm": 6431,
      "Ġbá»Ľ": 6432,
      "Ġbá»¥": 6433,
      "Ġbáº±n": 6434,
      "ĠchÃłn": 6435,
      "Ġvá»ĥ": 6436,
      "ĠhÃ¹n": 6437,
      "Ġná»Ń": 6438,
      "Ġnhá»ĵn": 6439,
      "ĠnhÃ¹i": 6440,
      "ĠnhÃ©p": 6441,
      "Ġnhá»ĥu": 6442,
      "Ġsá»ı": 6443,
      "Ġsáº¿n": 6444,
      "Ġsá»ĳc": 6445,
      "ĠsÃºp": 6446,
      "Ġku": 6447,
      "Ġdá»ķ": 6448,
      "ĠdÃ¡i": 6449,
      "Ġdiáº¿m": 6450,
      "Ġxiá»ģn": 6451,
      "ĠxiÃªng": 6452,
      "Ġkhá»«": 6453,
      "ĠkhÃºm": 6454,
      "ĠphÃ£i": 6455,
      "ĠthÆ¡n": 6456,
      "ĠcÅ©i": 6457,
      "Ġháº¡m": 6458,
      "Ġcá»©t": 6459,
      "Ġngoáº¯t": 6460,
      "Ġngoáº±ng": 6461,
      "Ġruá»Ĺng": 6462,
      "ĠtÃłm": 6463,
      "Ġsoong": 6464,
      "Ġfi": 6465,
      "Ġfan": 6466,
      "ĠnÃłm": 6467,
      "Ġphá»īnh": 6468,
      "Ġbá»īnh": 6469,
      "Ġ10": 6470,
      "Ġbye": 6471,
      "!)": 6472,
      "ĠtÃµm": 6473,
      "Ġck": 6474,
      "ĠcÃ´m": 6475,
      "Ġtháº¿t": 6476,
      "Ġthá»įt": 6477,
      "Ġtháº¡c": 6478,
      "Ġbim": 6479,
      "Ġbá»Ńu": 6480,
      "Ġchá»ĩch": 6481,
      "Ġhá»Ńu": 6482,
      "ĠtrÃ¹n": 6483,
      "ĠnhÃŃt": 6484,
      "Ġnhá»Ńng": 6485,
      "ĠgÆ¡": 6486,
      "Ġgá»Ļp": 6487,
      "ĠsÃ¢y": 6488,
      "ĠsÃ¡n": 6489,
      "Ġrá»įt": 6490,
      "Ġrá»ĭch": 6491,
      "Ġgiáº¥m": 6492,
      "Ġkhá»ĩnh": 6493,
      "ĠpÄĥng": 6494,
      "Ġphin": 6495,
      "Ġchiá»ĥu": 6496,
      "ĠchÃºi": 6497,
      "Ġloáº¡ng": 6498,
      "ĠgháºŃp": 6499,
      "ĠÄĳá»§i": 6500,
      "ĠnoÃ¡i": 6501,
      "Ġdá»Łm": 6502,
      "Ġchá»Łm": 6503,
      "Ġzai": 6504,
      "ĠhÃŃp": 6505,
      "Ġwor": 6506,
      "ld": 6507,
      "uc": 6508,
      "Ġtáº©n": 6509,
      "ĠÄĳáºµn": 6510,
      "ĠmÃº": 6511,
      "ĠbáºŃm": 6512,
      "ĠbÃ¹m": 6513,
      "Ġcháº±n": 6514,
      "ĠvÃªu": 6515,
      "Ġváº¯c": 6516,
      "Ġváº±m": 6517,
      "ĠhÃ¡u": 6518,
      "ĠhÃ³m": 6519,
      "Ġhá»¥i": 6520,
      "ĠtrÃ´m": 6521,
      "ĠnhÃ²": 6522,
      "Ġgen": 6523,
      "Ġsá»Ľi": 6524,
      "ĠsÃ¡i": 6525,
      "Ġsáº¡c": 6526,
      "Ġdá»ım": 6527,
      "Ġxá»ĵn": 6528,
      "Ġxáº¡t": 6529,
      "ĠxÃºp": 6530,
      "Ġxá»ĭch": 6531,
      "Ġron": 6532,
      "ĠrÃµi": 6533,
      "ĠrÃºn": 6534,
      "Ġgiá»įi": 6535,
      "Ġkháº©y": 6536,
      "ĠpÃł": 6537,
      "Ġpháº¯t": 6538,
      "Ġhoc": 6539,
      "ĠÄĥng": 6540,
      "ĠÄĳá»¥t": 6541,
      "Ġtáº¿ch": 6542,
      "ĠnhoÃłng": 6543,
      "Ġzin": 6544,
      "ĠmÃ©c": 6545,
      "Ġáº¯c": 6546,
      "ĠiÃªu": 6547,
      "Ġá»¥c": 6548,
      "ĠÄĳÃ¢t": 6549,
      "ĠthÃłng": 6550,
      "ĠthÆ°á»£t": 6551,
      "Ġlá»£m": 6552,
      "ĠchÃ¡ch": 6553,
      "ĠnÃ¢y": 6554,
      "Ġnhiáº¿c": 6555,
      "ĠsÃ¨m": 6556,
      "Ġdau": 6557,
      "Ġdáº¯ng": 6558,
      "Ġdeo": 6559,
      "ĠráºŃn": 6560,
      "ĠkhÄĥm": 6561,
      "Ġkháº¥m": 6562,
      "Ġkháº¡c": 6563,
      "Ġkháº¡ng": 6564,
      "Ġquáº¯c": 6565,
      "áº¹c": 6566,
      "ĠcÃ³m": 6567,
      "Ġthuá»Ļt": 6568,
      "Ġseine": 6569,
      "Ġiem": 6570,
      "Ġ888": 6571,
      "Ġshop": 6572,
      "Ġáº»o": 6573,
      "Ġá»ıng": 6574,
      "Ġtá»ħu": 6575,
      "Ġmá»į": 6576,
      "ĠthÃºi": 6577,
      "Ġláº±m": 6578,
      "Ġlá»ĵm": 6579,
      "Ġbá»¥p": 6580,
      "ĠbÅ©a": 6581,
      "Ġcháº«m": 6582,
      "ĠhÃ³p": 6583,
      "Ġnáº±n": 6584,
      "ĠngÃ£ng": 6585,
      "Ġtrá»©": 6586,
      "ĠnhÃ¡ch": 6587,
      "Ġnháº£n": 6588,
      "ĠgÃ¡p": 6589,
      "Ġgáº¹o": 6590,
      "TTTBBT": 6591,
      "Ġsli": 6592,
      "Ġdem": 6593,
      "Ġdáº©n": 6594,
      "Ġdá»ıng": 6595,
      "ĠxÃº": 6596,
      "Ġráº¿": 6597,
      "ĠrÃ²": 6598,
      "ĠrÃºng": 6599,
      "Ġgiáº§m": 6600,
      "Ġgiáº¥n": 6601,
      "ĠkhÃ¡o": 6602,
      "ĠpÄĥk": 6603,
      "ĠnghiÃªu": 6604,
      "Ġliá»ĥu": 6605,
      "Ä©m": 6606,
      "áº½m": 6607,
      "Ġtuáº¿ch": 6608,
      "Ġtá»ıng": 6609,
      "Ġbiáº¿m": 6610,
      "Ġnoá»įng": 6611,
      "ĠcuÃ´ng": 6612,
      "Ġnhoáº¡ng": 6613,
      "Ġmuá»Ĺng": 6614,
      "ĠhÃªt": 6615,
      "Ġphone": 6616,
      "Ġfei": 6617,
      "ĠÃ¢y": 6618,
      "Ġtá»©a": 6619,
      "Ġtá»£n": 6620,
      "ĠÄĳÃº": 6621,
      "ĠÄĳÃ´m": 6622,
      "ĠÄĳáº·m": 6623,
      "ĠÄĳÅ©i": 6624,
      "Ġmá»±": 6625,
      "Ġmá»Ńa": 6626,
      "ĠmÃŃch": 6627,
      "ĠthÄĥn": 6628,
      "Ġlá»ī": 6629,
      "Ġlá»Łi": 6630,
      "Ġlá»ķng": 6631,
      "Ġbá»ĩt": 6632,
      "Ġbá»©ng": 6633,
      "Ġchá»Ļ": 6634,
      "ĠhÃ¡ng": 6635,
      "Ġhá»ĥ": 6636,
      "á»Ŀng": 6637,
      "Ġná»¥c": 6638,
      "Ġngá»ĵ": 6639,
      "Ġnhay": 6640,
      "Ġnháº»m": 6641,
      "Ġgon": 6642,
      "ĠgÆ¡n": 6643,
      "Ġsáº¡": 6644,
      "Ġsáº¡o": 6645,
      "ĠsÄĥc": 6646,
      "ĠxÃ¡ng": 6647,
      "Ġxáº¯t": 6648,
      "Ġxáº¹p": 6649,
      "Ġrá»ĳng": 6650,
      "Ġrá»ģu": 6651,
      "ĠrÃ¹m": 6652,
      "ĠrÆ°á»Ľn": 6653,
      "Ġgiá»ĵi": 6654,
      "ĠkhÃ¢ng": 6655,
      "ĠhoÃ¡c": 6656,
      "TTTBTT": 6657,
      "Ġtiá»ħu": 6658,
      "Ġtuá»ģnh": 6659,
      "Ġghanh": 6660,
      "ĠquyÃ©t": 6661,
      "Ġruá»Ļm": 6662,
      "ĠuÃ´m": 6663,
      "Ġá»§n": 6664,
      "ĠsoÃ¡n": 6665,
      "ĠmÃ²m": 6666,
      "Ġhia": 6667,
      "Ġvá»ın": 6668,
      "Ġbeng": 6669,
      "Ġláº¹m": 6670,
      "ĠchÆ°n": 6671,
      "Ġwi": 6672,
      "Ġgames": 6673,
      "Ġworld": 6674,
      "at": 6675,
      "ym": 6676,
      "Ã¶": 6677,
      "Ġá»§a": 6678,
      "Ġáº«m": 6679,
      "Ġá»īa": 6680,
      "Ġtá»ĥnh": 6681,
      "Ġtáº½n": 6682,
      "Ġcáº¡": 6683,
      "ĠÄĳÃ¢n": 6684,
      "Ġmá»«": 6685,
      "ĠmÄĥc": 6686,
      "Ġtháº±m": 6687,
      "ĠlÃºp": 6688,
      "Ġcháº·p": 6689,
      "ĠchÄ©nh": 6690,
      "Ġcháº½n": 6691,
      "Ġvá»įc": 6692,
      "Ġváº£y": 6693,
      "Ġváº¡m": 6694,
      "Ġhá»Ń": 6695,
      "ĠháºŃp": 6696,
      "ĠhÆ¡m": 6697,
      "Ġná»įt": 6698,
      "ĠtrÆ°": 6699,
      "Ġnháº¹p": 6700,
      "Ġnhiá»ĥu": 6701,
      "ĠgÃ´m": 6702,
      "Ġsá»ĥnh": 6703,
      "Ġdiu": 6704,
      "ĠxÃ²m": 6705,
      "Ġrá»ķn": 6706,
      "ĠgiÃ¢": 6707,
      "Ġkhá»ħnh": 6708,
      "Ġphá»Ĺng": 6709,
      "ĠquÃłi": 6710,
      "TTBTTT": 6711,
      "Ġtoanh": 6712,
      "ĠchuÃ´i": 6713,
      "ĠoÃ¡nh": 6714,
      "Ġchá»Ľn": 6715,
      "Ġbá»ĥn": 6716,
      "Ġcor": 6717,
      "ĠhuyÃªnh": 6718,
      "Ġsoáº£i": 6719,
      "Ġxáº¿ch": 6720,
      "Ġphá»Łn": 6721,
      "Ġwa": 6722,
      "ĠdzÃ´": 6723,
      "ĠphÃ¨ng": 6724,
      "ĠsÃºy": 6725,
      "Ġ88888": 6726,
      "oo": 6727,
      "ss": 6728,
      "Ġá»ĭ": 6729,
      "Ġá»ĵm": 6730,
      "Ġáº»n": 6731,
      "ĠÄĳc": 6732,
      "ĠmÄĥn": 6733,
      "ĠmiÃªng": 6734,
      "Ġmáº¥u": 6735,
      "Ġmiá»ģm": 6736,
      "Ġmáº¿ch": 6737,
      "Ġthy": 6738,
      "Ġthiá»ģm": 6739,
      "Ġtháº±n": 6740,
      "ĠlÃ©m": 6741,
      "Ġláº¿ch": 6742,
      "Ġbiá»ģu": 6743,
      "Ġbá»£n": 6744,
      "Ġbáº«ng": 6745,
      "ĠchÃ©": 6746,
      "ĠchÅ©m": 6747,
      "Ġvá»į": 6748,
      "ĠhÆ°á»Ŀm": 6749,
      "Ġnáº¹t": 6750,
      "ĠngÃ²m": 6751,
      "Ġtroi": 6752,
      "Ġtrá»¥y": 6753,
      "ĠnhÃ¢y": 6754,
      "Ġnháº·ng": 6755,
      "Ġgá»ĵi": 6756,
      "Ġgá»ıng": 6757,
      "Ġsáº¥n": 6758,
      "Ġdáº½": 6759,
      "Ġdáºµm": 6760,
      "ĠxÃ¹i": 6761,
      "ĠxÃ¡p": 6762,
      "Ġgiáº¥t": 6763,
      "ĠkhÆ°á»Ľu": 6764,
      "Ġpháº¯c": 6765,
      "Ġpháº«u": 6766,
      "Ġphá»ģnh": 6767,
      "Ġphá»¡n": 6768,
      "Ġnghá»ĥn": 6769,
      "ĠchoÃ¡n": 6770,
      "Ġthuáº¥n": 6771,
      "Ġram": 6772,
      "Ġlin": 6773,
      "Ä©a": 6774,
      "Ġháº¡o": 6775,
      "iá»ĥng": 6776,
      "ĠÄĳoi": 6777,
      "BTBTTT": 6778,
      "Ġlac": 6779,
      "Ġsáº»n": 6780,
      "Ġhum": 6781,
      "Ġsing": 6782,
      "Ġphui": 6783,
      "Ġsoa": 6784,
      "Ġnhoai": 6785,
      "Ġmuá»Ĺm": 6786,
      "Ġhá»īnh": 6787,
      "Ġgá»Ŀm": 6788,
      "ĠsÃŃp": 6789,
      "ac": 6790,
      "ll": 6791,
      "se": 6792,
      "ur": 6793,
      "Ġá»ģ": 6794,
      "Ġá»ın": 6795,
      "Ġtá»Ŀi": 6796,
      "ĠtÃ¨n": 6797,
      "ĠlÆ°á»Ŀn": 6798,
      "Ġláº¹t": 6799,
      "Ġlá»µ": 6800,
      "ĠbÃŃu": 6801,
      "Ġchá»Ŀi": 6802,
      "Ġcháº¥y": 6803,
      "ĠnÃłnh": 6804,
      "Ġniá»ģn": 6805,
      "ĠngÃ²n": 6806,
      "Ġtráº¡o": 6807,
      "Ġnhá»ģ": 6808,
      "Ġsá»§": 6809,
      "ĠkÃŃt": 6810,
      "ĠdÃ³ng": 6811,
      "Ġdam": 6812,
      "ĠdÃµng": 6813,
      "Ġxáº½": 6814,
      "Ġrá»Ńng": 6815,
      "Ġrá»±a": 6816,
      "Ġrá»±u": 6817,
      "Ġrá»¥a": 6818,
      "Ġgim": 6819,
      "Ġgiáº¯c": 6820,
      "Ġkháº¯ng": 6821,
      "ĠphÃ©ng": 6822,
      "Äĥu": 6823,
      "ona": 6824,
      "Ġhot": 6825,
      "Ġyeu": 6826,
      "Ġxuá»ĥ": 6827,
      "Ġxuáº©n": 6828,
      "Ġtuá»ĵi": 6829,
      "Ġcuá»Ļng": 6830,
      "ĠngoÃ¡c": 6831,
      "Ġkiáº¿ng": 6832,
      "ĠtoÃłi": 6833,
      "Ġtoáº¹t": 6834,
      "ĠÄĳoÃłnh": 6835,
      "ĠluÃªnh": 6836,
      "ĠÄĳá»įn": 6837,
      "Ġnguyen": 6838,
      "Ġreng": 6839,
      "Ġsuá»ĵng": 6840,
      "Ġnhip": 6841,
      "ĠxÃłu": 6842,
      "Ġnui": 6843,
      "ĠÄĳá»Ŀm": 6844,
      "Ġxá»īnh": 6845,
      "Ġá»ĳp": 6846,
      "Ġnghoáº£nh": 6847,
      "Ġcorona": 6848,
      "it": 6849,
      "ui": 6850,
      "ut": 6851,
      "Ġ0": 6852,
      "Ġ9": 6853,
      "Ġá»«a": 6854,
      "ĠÃªnh": 6855,
      "Ġtiá»ģng": 6856,
      "Ġcá»ķi": 6857,
      "ĠÄ©": 6858,
      "ĠÄĳÄĥk": 6859,
      "ĠmÃ¡o": 6860,
      "Ġtháº·ng": 6861,
      "Ġtháº©y": 6862,
      "Ġtháºµm": 6863,
      "Ġluá»Ļt": 6864,
      "Ġbá»±a": 6865,
      "ĠchÆ°á»Ŀm": 6866,
      "Ġhiá»ģu": 6867,
      "ĠhÃºi": 6868,
      "Ġnáº¡c": 6869,
      "ĠngÆ°Æ¡n": 6870,
      "Ġtráº·c": 6871,
      "Ġnháº£i": 6872,
      "ĠgÃŃ": 6873,
      "ĠgÃ¹ng": 6874,
      "ĠgÃ©p": 6875,
      "ĠsÃ¹m": 6876,
      "Ġsá»ĭt": 6877,
      "Ġdá»ī": 6878,
      "Ġdá»įt": 6879,
      "ĠdÃ¡c": 6880,
      "ĠdÃ¬n": 6881,
      "Ġdá»±c": 6882,
      "Ġxá»ĩ": 6883,
      "ĠxÆ°á»£c": 6884,
      "ĠxÃ©p": 6885,
      "Ġxuyáº¿t": 6886,
      "Ġrá»ıi": 6887,
      "ĠrÆ°Æ¡u": 6888,
      "Ġgiáº¿c": 6889,
      "ĠpÃª": 6890,
      "ĠÄĳá»³": 6891,
      "áº¹m": 6892,
      "ĠvuÃ´n": 6893,
      "Ġloai": 6894,
      "ĠnghÄ©nh": 6895,
      "Ġgháº¿ch": 6896,
      "ĠÄĳá»«a": 6897,
      "Ġnhá»ım": 6898,
      "BTTTTT": 6899,
      "ĠoÃłng": 6900,
      "Ġoáº¡i": 6901,
      "Ġdich": 6902,
      "Ġhuáº§y": 6903,
      "ĠdoÃłnh": 6904,
      "Ġnghá»īm": 6905,
      "Ġeng": 6906,
      "ĠrÅ©a": 6907,
      "Ġnhoáº½n": 6908,
      "Ġsá»Łn": 6909,
      "ĠvÄ©a": 6910,
      "Ġtrá»«u": 6911,
      "Ġval": 6912,
      "Ġváº¡y": 6913,
      "Ġá»įp": 6914,
      "de": 6915,
      "id": 6916,
      "ow": 6917,
      "ph": 6918,
      "Ġ-": 6919,
      "ĠÆ°Æ¡c": 6920,
      "Ġmá»Ľn": 6921,
      "Ġtháº½": 6922,
      "ĠthÆ°á»Ŀn": 6923,
      "ĠlÃ©ng": 6924,
      "Ġbá»įng": 6925,
      "Ġbáº¹o": 6926,
      "Ġcháº©n": 6927,
      "Ġhá»Ľi": 6928,
      "Ġhá»¡": 6929,
      "ĠnÃ¨o": 6930,
      "Ġnáº¡o": 6931,
      "Ġnáº«y": 6932,
      "Ġnge": 6933,
      "ĠngÃ¹": 6934,
      "ĠtrÃ£": 6935,
      "ĠtrÃ¢ng": 6936,
      "Ġnhá»įt": 6937,
      "ĠgÃªm": 6938,
      "ĠgÃ¬m": 6939,
      "ĠgÃ©m": 6940,
      "Ġsá»Ľn": 6941,
      "ĠkÃ´n": 6942,
      "Ġdá»£m": 6943,
      "Ġxy": 6944,
      "Ġxon": 6945,
      "Ġxá»ķi": 6946,
      "Ġxá»¥i": 6947,
      "Ġrá»ķi": 6948,
      "Ġrá»ģnh": 6949,
      "Ġgien": 6950,
      "Ġgiá»ķ": 6951,
      "Ġgiá»Ĺi": 6952,
      "Ġgiáº£o": 6953,
      "ĠgiÃ²i": 6954,
      "ĠkhÃ¨o": 6955,
      "Ġkháº¡p": 6956,
      "Ġpre": 6957,
      "Ġpak": 6958,
      "Ġphá»ĩ": 6959,
      "Ġphá»įt": 6960,
      "Ġnghá»ħnh": 6961,
      "ĠÄĳin": 6962,
      "Ġchoáº£ng": 6963,
      "Ġxam": 6964,
      "Ġchá»īa": 6965,
      "Ġngoáº¡c": 6966,
      "Ġnguá»ĩch": 6967,
      "Ġluc": 6968,
      "Ġoáº³n": 6969,
      "Ġduá»Ľi": 6970,
      "ĠmÃ¹n": 6971,
      "ĠthÆ°ong": 6972,
      "ĠthÃ¹m": 6973,
      "Ġbáº»n": 6974,
      "Ġmuá»Ŀi": 6975,
      "Ġteen": 6976,
      "Ġpost": 6977,
      "ĠthÃ£m": 6978,
      "ii": 6979,
      "nn": 6980,
      "Ġá»ģnh": 6981,
      "ĠÃºm": 6982,
      "ĠtÃºa": 6983,
      "ĠtÄ©u": 6984,
      "ĠcÃ¢ng": 6985,
      "ĠcÆ°Æ¡i": 6986,
      "Ġcá»ĵm": 6987,
      "Ġcá»¡n": 6988,
      "ĠmÃ¢ng": 6989,
      "ĠmáºŃm": 6990,
      "Ġthá»¥p": 6991,
      "ĠlÃºi": 6992,
      "Ġlá»©t": 6993,
      "ĠlÃ¢p": 6994,
      "Ġbl": 6995,
      "Ġben": 6996,
      "ĠbÆ°Æ¡u": 6997,
      "ĠchÃµ": 6998,
      "Ġvá»įi": 6999,
      "Ġhim": 7000,
      "ĠhÆ°Æ¡m": 7001,
      "Ġny": 7002,
      "ĠnÃ£i": 7003,
      "ĠnÆ¡ng": 7004,
      "Ġnuá»Ļc": 7005,
      "Ġngáº£nh": 7006,
      "Ã´t": 7007,
      "Ġtrá»īu": 7008,
      "Ġnhá»¥t": 7009,
      "Ġnhá»±t": 7010,
      "Ġnhá»¥a": 7011,
      "ĠgÃ¡ng": 7012,
      "Ġgá»¡i": 7013,
      "Ġsá»Ļ": 7014,
      "ĠkÃªn": 7015,
      "ĠdÃ¡o": 7016,
      "Ġdá»ıi": 7017,
      "Ġxáº©u": 7018,
      "Ġxáº¹t": 7019,
      "ĠrÃ£o": 7020,
      "Ġrá»ķng": 7021,
      "Ġrá»ĭm": 7022,
      "ĠrÃ²m": 7023,
      "Ġrá»ĭt": 7024,
      "Ġriáº¿c": 7025,
      "ĠgiÃ¢n": 7026,
      "Ġgiuá»Ļc": 7027,
      "Ġkhá»įt": 7028,
      "ĠpÃ³": 7029,
      "Ġpáº±ng": 7030,
      "Ġpheo": 7031,
      "Ġquáº·p": 7032,
      "ĠquÃ¨n": 7033,
      "Äĥy": 7034,
      "ĠÄĳá»Ń": 7035,
      "á»£u": 7036,
      "TTBTBT": 7037,
      "Ġhoáº¡nh": 7038,
      "ĠÄĳiu": 7039,
      "Ġyo": 7040,
      "Ġxun": 7041,
      "ĠxuÃ´n": 7042,
      "Ġtiá»ĥng": 7043,
      "ĠlÃ¡u": 7044,
      "Ġloáº¹t": 7045,
      "Ġngoáº£i": 7046,
      "ĠkhoÃ¨o": 7047,
      "Ġkhoáº¯n": 7048,
      "Ġruá»£u": 7049,
      "Ġkhuá»µ": 7050,
      "BTBTBT": 7051,
      "Ġchuc": 7052,
      "Ġná»£n": 7053,
      "Ġlá»¡m": 7054,
      "ĠxoÃ£i": 7055,
      "Ġphá»¥t": 7056,
      "Ġhuong": 7057,
      "Ġel": 7058,
      "Ġphuc": 7059,
      "ĠvÃ£nh": 7060,
      "Ġlá»ķm": 7061,
      "ĠlÃºy": 7062,
      "Ġmá»§m": 7063,
      "ĠÄĳá»Łn": 7064,
      "Ġá»įe": 7065,
      "Ġshi": 7066,
      "Ġlá»īnh": 7067,
      "Ġkhuá»µu": 7068,
      "es": 7069,
      "ia": 7070,
      "ot": 7071,
      "Ġ7": 7072,
      "Ġline": 7073,
      "Ġá»±c": 7074,
      "ĠÃ£o": 7075,
      "Ġmá»·": 7076,
      "Ġmiá»ģng": 7077,
      "ĠthÃ¡": 7078,
      "Ġlá»©c": 7079,
      "Ġláº«u": 7080,
      "Ġluá»Ļm": 7081,
      "ĠlÃ£n": 7082,
      "Ġlá»ım": 7083,
      "ĠbÆ°": 7084,
      "ĠbÃ©p": 7085,
      "Ġbá»©a": 7086,
      "ĠbÃ£ng": 7087,
      "Ġbá»Ńng": 7088,
      "ĠbÄ©nh": 7089,
      "ĠchÃªu": 7090,
      "Ġcháº«u": 7091,
      "Ġchá»ĩnh": 7092,
      "Ġchá»¥t": 7093,
      "Ġchá»ĥnh": 7094,
      "ĠvÆ°á»Ŀng": 7095,
      "Ġvá»§": 7096,
      "Ġhá»¥": 7097,
      "ĠhÄ©m": 7098,
      "ĠngÃ¡ng": 7099,
      "Ġngáº¡ch": 7100,
      "Ġtráº±m": 7101,
      "ĠtrÃªnh": 7102,
      "Ġtriá»ĩn": 7103,
      "Ġtrá»¥t": 7104,
      "Ġtráº¹o": 7105,
      "ĠnhÃ¡m": 7106,
      "Ġnhá»Ļm": 7107,
      "Ġxáº¯m": 7108,
      "Ġxiá»ĥn": 7109,
      "Ġxá»Łi": 7110,
      "Ġxá»ķng": 7111,
      "Ġráº·c": 7112,
      "Ġráº·m": 7113,
      "ĠgiÃ¢ng": 7114,
      "Ġgiá»ĩt": 7115,
      "Ġkhá»ĵng": 7116,
      "Ġkháº¯n": 7117,
      "Ġpan": 7118,
      "Ġpháº¡n": 7119,
      "ĠquÃ¡c": 7120,
      "ĠquÃ©o": 7121,
      "Ġquáº¯n": 7122,
      "Ġhoáº¯t": 7123,
      "Ġvuong": 7124,
      "Ġbac": 7125,
      "Ġvá»£n": 7126,
      "ĠtoÃ¡ng": 7127,
      "ĠÄĳoai": 7128,
      "Ġbá»ģu": 7129,
      "Ġngui": 7130,
      "Ġcheng": 7131,
      "Ġbiá»ħn": 7132,
      "Ġnghiá»ħm": 7133,
      "Ġnen": 7134,
      "Ġká»īnh": 7135,
      "Ġmot": 7136,
      "ĠhÃºy": 7137,
      "Ġzan": 7138,
      "ĠzÃ¬a": 7139,
      "Ġwe": 7140,
      "Ġngá»«oi": 7141,
      "Ġsá»§u": 7142,
      "!)]": 7143,
      "BTTTB": 7144,
      "Ġay": 7145,
      "Ġá»Ń": 7146,
      "ĠÆ°á»Ŀn": 7147,
      "ĠÃ¨n": 7148,
      "ĠtÃªu": 7149,
      "ĠtÃºt": 7150,
      "Ġtá»ĭu": 7151,
      "Ġmiu": 7152,
      "ĠthÃ¹i": 7153,
      "ĠlÆ¡m": 7154,
      "Ġláº¯k": 7155,
      "ĠbÆ°á»Ŀng": 7156,
      "Ġvá»Ńng": 7157,
      "Ġhau": 7158,
      "ĠhÃ¨o": 7159,
      "ĠhÄ©nh": 7160,
      "Ġháº¿ch": 7161,
      "ĠhÃµm": 7162,
      "Ġháº½m": 7163,
      "ĠnÃŃ": 7164,
      "Ġná»ĳng": 7165,
      "ĠngÃªu": 7166,
      "Ġngá»ĭu": 7167,
      "ent": 7168,
      "ars": 7169,
      "Ġtráº±ng": 7170,
      "Ġtrá»ĭch": 7171,
      "Ġnhá»¯": 7172,
      "Ġnháº»o": 7173,
      "Ġnhá»¥i": 7174,
      "Ġnhá»ģu": 7175,
      "Ġnhiá»ĥm": 7176,
      "Ġsá»¯": 7177,
      "Ġsá»įi": 7178,
      "Ġsá»©ng": 7179,
      "Ġsá»ĭn": 7180,
      "Ġsars": 7181,
      "Ġkg": 7182,
      "ĠkÃł": 7183,
      "Ġdá»©": 7184,
      "Ġdá»Ń": 7185,
      "Ġdá»įng": 7186,
      "ĠdÃ³n": 7187,
      "Ġrin": 7188,
      "ĠgiÃ¹ng": 7189,
      "Ġgiáº½": 7190,
      "ĠgiÄĥc": 7191,
      "ĠkhÃło": 7192,
      "Ġpháº£y": 7193,
      "ĠphÃŃch": 7194,
      "ĠquÃło": 7195,
      "ĠquÃłn": 7196,
      "ĠhoÃ¡y": 7197,
      "ĠyÃªng": 7198,
      "á»Ĺn": 7199,
      "Ġchit": 7200,
      "Ġthuá»ķ": 7201,
      "uá»Ļn": 7202,
      "ĠtuÆ¡i": 7203,
      "Ġmail": 7204,
      "Ġbat": 7205,
      "Ġkiáº¿u": 7206,
      "Ġkhoen": 7207,
      "Ã½nh": 7208,
      "Ġthá»Ŀn": 7209,
      "Ġuáº¥n": 7210,
      "Ġuá»ģnh": 7211,
      "ĠnoÃ£n": 7212,
      "Ġsun": 7213,
      "ĠnhiÃªm": 7214,
      "Ġnhoáº±ng": 7215,
      "ĠnhoÃ¨n": 7216,
      "Ġfai": 7217,
      "Ġxáº»n": 7218,
      "Ġnháº£u": 7219,
      "ĠroÄĥng": 7220,
      "Ġgiá»Łn": 7221,
      "ĠnhÃŃm": 7222,
      "ĠlÃ¨ng": 7223,
      "Ġlá»§y": 7224,
      "Ġgoing": 7225,
      "Ġngá»ķm": 7226,
      "BTTTBT": 7227,
      ":âĢ": 7228,
      "er": 7229,
      "ÅĦ": 7230,
      "ĠÃ³i": 7231,
      "Ŀ]": 7232,
      "ĠtÆ°á»Ľp": 7233,
      "Ġcá»įt": 7234,
      "ĠÄĳÆ°": 7235,
      "ĠÄĳÆ°ng": 7236,
      "Ġmg": 7237,
      "Ġmáº³n": 7238,
      "ĠthÃ©": 7239,
      "Ġláº·m": 7240,
      "Ġláº¿u": 7241,
      "Ġbáº¯ng": 7242,
      "Ġbá»ıi": 7243,
      "Ġbá»Ļng": 7244,
      "ĠbÆ°á»Ľu": 7245,
      "Ġnáº¥t": 7246,
      "Ġngáº«ng": 7247,
      "Ġtram": 7248,
      "Ġtrá»ĳt": 7249,
      "Ġtrá»ıng": 7250,
      "ĠtrÃºm": 7251,
      "ĠnhÆ¡i": 7252,
      "Ġnháº«m": 7253,
      "Ã¢Ãº": 7254,
      "ĠsÃªu": 7255,
      "Ġsuá»ĳng": 7256,
      "ĠsÆ°á»£t": 7257,
      "Ġsá»ĭch": 7258,
      "ĠdÃªm": 7259,
      "ĠdÃ¡nh": 7260,
      "Ġdá»Ľt": 7261,
      "Ġdá»ĩn": 7262,
      "Ġdáº¹o": 7263,
      "ĠxÃ´m": 7264,
      "Ġxá»©c": 7265,
      "ĠxÃ£y": 7266,
      "Ġxá»¥t": 7267,
      "Ġráº¯ng": 7268,
      "Ġriáº¿u": 7269,
      "Ġgiu": 7270,
      "Ġgiáº¡m": 7271,
      "Ġkhá»Ĺ": 7272,
      "Ġkhá»§": 7273,
      "ĠkhÃ¹a": 7274,
      "ĠkhÃ¡u": 7275,
      "ĠpÃŃ": 7276,
      "Ġphiá»ĩt": 7277,
      "Ġphiá»ĩn": 7278,
      "ĠquÃ¨o": 7279,
      "Ġquáº·t": 7280,
      "Ġquáº¡ch": 7281,
      "ĠnghÃ©t": 7282,
      "ĠÄĳiá»ħm": 7283,
      "Ġthuá»Ļm": 7284,
      "ĠtuÃ½": 7285,
      "Ġkhoáº¯ng": 7286,
      "Ġtoong": 7287,
      "ĠÄĳoáº£ng": 7288,
      "Ġdun": 7289,
      "....": 7290,
      "Ġlá»¥p": 7291,
      "Ġmá»ĭa": 7292,
      "Ġhui": 7293,
      "Ġrem": 7294,
      "ĠsoÃ£i": 7295,
      "Ġsoáº¡ng": 7296,
      "Ġkhá»©u": 7297,
      "Ġnghá»ĭt": 7298,
      "Ġrit": 7299,
      "Ġteng": 7300,
      "Ġtá»Łn": 7301,
      "Ġsá»¥n": 7302,
      "ĠbÆ°á»ĵn": 7303,
      "Ġweb": 7304,
      ":âĢĿ]": 7305,
      "bÃłn": 7306,
      "ho": 7307,
      "ra": 7308,
      "vi": 7309,
      "Ã«": 7310,
      "Ġpl": 7311,
      "Ġáº§n": 7312,
      "ĠÅ©": 7313,
      "Ġáº¡nh": 7314,
      "Ġá»ım": 7315,
      "Ġáº¹c": 7316,
      "Ġtáº¥y": 7317,
      "ĠtÃ¬n": 7318,
      "Ġtuá»Ļc": 7319,
      "ĠÄĳáº¡": 7320,
      "ĠÄĳÃªu": 7321,
      "ĠÄĳÃŃ": 7322,
      "ĠÄĳÆ°á»Łng": 7323,
      "ĠmÆ°": 7324,
      "Ġmá»Ĺ": 7325,
      "Ġmá»ħ": 7326,
      "ĠmÃ©n": 7327,
      "Ġmá»©a": 7328,
      "ĠthÃłi": 7329,
      "Ġthá»¥ng": 7330,
      "Ġtháº¹o": 7331,
      "ĠbiÃªu": 7332,
      "Ġbá»§ng": 7333,
      "Ġbá»ĩch": 7334,
      "ĠchÃ´i": 7335,
      "ĠchÃ©t": 7336,
      "ĠchÃ¨m": 7337,
      "Ġváº§u": 7338,
      "Ġhá»©": 7339,
      "Ġnau": 7340,
      "ĠnÃ¡y": 7341,
      "Ġná»ĭt": 7342,
      "ĠngÆ°á»Ŀ": 7343,
      "Ġngung": 7344,
      "Ġtray": 7345,
      "ĠtrÃªm": 7346,
      "Ġtráº£o": 7347,
      "ĠtrÃ¹i": 7348,
      "Ġtráº©u": 7349,
      "Ġnháº¯ng": 7350,
      "ĠnháºŃy": 7351,
      "Ġnhá»§i": 7352,
      "Ġnhá»ķn": 7353,
      "Ã¢Ã¹": 7354,
      "Ġsá»ĩ": 7355,
      "Ġsáº±ng": 7356,
      "ĠsÃ³m": 7357,
      "Ġsáº±n": 7358,
      "Ġden": 7359,
      "Ġdá»¯ng": 7360,
      "Ġdáº·ng": 7361,
      "ĠdÅ©i": 7362,
      "ĠxÃ²n": 7363,
      "Ġxá»ĳng": 7364,
      "Ġxá»±c": 7365,
      "Ġxáº«m": 7366,
      "ĠrÃ©": 7367,
      "Ġrá»įng": 7368,
      "Ġráº£ng": 7369,
      "Ġrá»ĭp": 7370,
      "Ġgie": 7371,
      "Ġkhá»ĭ": 7372,
      "Ġkháº¯m": 7373,
      "Ġkháº¥c": 7374,
      "ĠkhÃ¬a": 7375,
      "Ġpham": 7376,
      "ĠphÆ°á»Ľng": 7377,
      "Ġquáº¿n": 7378,
      "Ġquáº£i": 7379,
      "ĠquÄ©": 7380,
      "Ġquáº·c": 7381,
      "ĠnghÃªng": 7382,
      "ĠyÃª": 7383,
      "Æ°á»£i": 7384,
      "ĠbuÃ¢n": 7385,
      "áº»u": 7386,
      "Ġlich": 7387,
      "Ġháº¡p": 7388,
      "ĠtuÃ´i": 7389,
      "ĠghÃ¬nh": 7390,
      "Ġngoc": 7391,
      "Ġrui": 7392,
      "Ġchá»ĭch": 7393,
      "Ġtour": 7394,
      "Ġquyá»ħn": 7395,
      "Ġchuá»ĵi": 7396,
      "ĠÄĳÃłu": 7397,
      "ĠoÃłnh": 7398,
      "ĠgiÃ¡y": 7399,
      "ĠkÃŃm": 7400,
      "Ġuá»³nh": 7401,
      "Ġmil": 7402,
      "ĠphÃŃnh": 7403,
      "ĠdoÃ£n": 7404,
      "ĠsÄ©n": 7405,
      "Ġtruá»ĵi": 7406,
      "Ġliá»ĩp": 7407,
      "Ġtrá»ĭt": 7408,
      "ĠmoÃł": 7409,
      "ĠzÃ´ng": 7410,
      "Ġnude": 7411,
      "Ġchuyen": 7412,
[...]
