{
  "version": "1.0",
  "truncation": null,
  "padding": null,
  "added_tokens": [
    {
      "id": 0,
      "content": "<|pad|>",
      "single_word": false,
      "lstrip": false,
      "rstrip": false,
      "normalized": false,
      "special": true
    },
    {
      "id": 1,
      "content": "<|start|>",
      "single_word": false,
      "lstrip": false,
      "rstrip": false,
      "normalized": false,
      "special": true
    },
    {
      "id": 2,
      "content": "<|reply|>",
      "single_word": false,
      "lstrip": false,
      "rstrip": false,
      "normalized": false,
      "special": true
    },
    {
      "id": 3,
      "content": "<|end|>",
      "single_word": false,
      "lstrip": false,
      "rstrip": false,
      "normalized": false,
      "special": true
    },
    {
      "id": 4,
      "content": "[LUC_BAT]",
      "single_word": false,
      "lstrip": false,
      "rstrip": false,
      "normalized": false,
      "special": true
    },
    {
      "id": 5,
      "content": "[TU_TUYET]",
      "single_word": false,
      "lstrip": false,
      "rstrip": false,
      "normalized": false,
      "special": true
    },
    {
      "id": 6,
      "content": "[THAT_NGON_BAT_CU]",
      "single_word": false,
      "lstrip": false,
      "rstrip": false,
      "normalized": false,
      "special": true
    },
    {
      "id": 7,
      "content": "[THAT_NGON]",
      "single_word": false,
      "lstrip": false,
      "rstrip": false,
      "normalized": false,
      "special": true
    }
  ],
  "normalizer": null,
  "pre_tokenizer": {
    "type": "ByteLevel",
    "add_prefix_space": false,
    "trim_offsets": true,
    "use_regex": true
  },
  "post_processor": null,
  "decoder": {
    "type": "ByteLevel",
    "add_prefix_space": true,
    "trim_offsets": true,
    "use_regex": true
  },
  "model": {
    "type": "BPE",
    "dropout": null,
    "unk_token": "<|pad|>",
    "continuing_subword_prefix": null,
    "end_of_word_suffix": null,
    "fuse_unk": false,
    "byte_fallback": false,
    "ignore_merges": false,
    "vocab": {
      "<|pad|>": 0,
      "<|start|>": 1,
      "<|reply|>": 2,
      "<|end|>": 3,
      "[LUC_BAT]": 4,
      "[TU_TUYET]": 5,
      "[THAT_NGON_BAT_CU]": 6,
      "[THAT_NGON]": 7,
      "!": 8,
      "\"": 9,
      "#": 10,
      "$": 11,
      "%": 12,
      "&": 13,
      "'": 14,
      "(": 15,
      ")": 16,
      "*": 17,
      "+": 18,
      ",": 19,
      "-": 20,
      ".": 21,
      "/": 22,
      "0": 23,
      "1": 24,
      "2": 25,
      "3": 26,
      "4": 27,
      "5": 28,
      "6": 29,
      "7": 30,
      "8": 31,
      "9": 32,
      ":": 33,
      ";": 34,
      "<": 35,
      "=": 36,
      ">": 37,
      "?": 38,
      "@": 39,
      "A": 40,
      "B": 41,
      "C": 42,
      "D": 43,
      "E": 44,
      "F": 45,
      "G": 46,
      "H": 47,
      "I": 48,
      "J": 49,
      "K": 50,
      "L": 51,
      "M": 52,
      "N": 53,
      "O": 54,
      "P": 55,
      "Q": 56,
      "R": 57,
      "S": 58,
      "T": 59,
      "U": 60,
      "V": 61,
      "W": 62,
      "X": 63,
      "Y": 64,
      "Z": 65,
      "[": 66,
      "\\": 67,
      "]": 68,
      "^": 69,
      "_": 70,
      "`": 71,
      "a": 72,
      "b": 73,
      "c": 74,
      "d": 75,
      "e": 76,
      "f": 77,
      "g": 78,
      "h": 79,
      "i": 80,
      "j": 81,
      "k": 82,
      "l": 83,
      "m": 84,
      "n": 85,
      "o": 86,
      "p": 87,
      "q": 88,
      "r": 89,
      "s": 90,
      "t": 91,
      "u": 92,
      "v": 93,
      "w": 94,
      "x": 95,
      "y": 96,
      "z": 97,
      "{": 98,
      "|": 99,
      "}": 100,
      "~": 101,
      "¡": 102,
      "¢": 103,
      "£": 104,
      "¤": 105,
      "¥": 106,
      "¦": 107,
      "§": 108,
      "¨": 109,
      "©": 110,
      "ª": 111,
      "«": 112,
      "¬": 113,
      "®": 114,
      "¯": 115,
      "°": 116,
      "±": 117,
      "²": 118,
      "³": 119,
      "´": 120,
      "µ": 121,
      "¶": 122,
      "·": 123,
      "¸": 124,
      "¹": 125,
      "º": 126,
      "»": 127,
      "¼": 128,
      "½": 129,
      "¾": 130,
      "¿": 131,
      "À": 132,
      "Á": 133,
      "Â": 134,
      "Ã": 135,
      "Ä": 136,
      "Å": 137,
      "Æ": 138,
      "Ç": 139,
      "È": 140,
      "É": 141,
      "Ê": 142,
      "Ë": 143,
      "Ì": 144,
      "Í": 145,
      "Î": 146,
      "Ï": 147,
      "Ð": 148,
      "Ñ": 149,
      "Ò": 150,
      "Ó": 151,
      "Ô": 152,
      "Õ": 153,
      "Ö": 154,
      "×": 155,
      "Ø": 156,
      "Ù": 157,
      "Ú": 158,
      "Û": 159,
      "Ü": 160,
      "Ý": 161,
      "Þ": 162,
      "ß": 163,
      "à": 164,
      "á": 165,
      "â": 166,
      "ã": 167,
      "ä": 168,
      "å": 169,
      "æ": 170,
      "ç": 171,
      "è": 172,
      "é": 173,
      "ê": 174,
      "ë": 175,
      "ì": 176,
      "í": 177,
      "î": 178,
      "ï": 179,
      "ð": 180,
      "ñ": 181,
      "ò": 182,
      "ó": 183,
      "ô": 184,
      "õ": 185,
      "ö": 186,
      "÷": 187,
      "ø": 188,
      "ù": 189,
      "ú": 190,
      "û": 191,
      "ü": 192,
      "ý": 193,
      "þ": 194,
      "ÿ": 195,
      "Ā": 196,
      "ā": 197,
      "Ă": 198,
      "ă": 199,
      "Ą": 200,
      "ą": 201,
      "Ć": 202,
      "ć": 203,
      "Ĉ": 204,
      "ĉ": 205,
      "Ċ": 206,
      "ċ": 207,
      "Č": 208,
      "č": 209,
      "Ď": 210,
      "ď": 211,
      "Đ": 212,
      "đ": 213,
      "Ē": 214,
      "ē": 215,
      "Ĕ": 216,
      "ĕ": 217,
      "Ė": 218,
      "ė": 219,
      "Ę": 220,
      "ę": 221,
      "Ě": 222,
      "ě": 223,
      "Ĝ": 224,
      "ĝ": 225,
      "Ğ": 226,
      "ğ": 227,
      "Ġ": 228,
      "ġ": 229,
      "Ģ": 230,
      "ģ": 231,
      "Ĥ": 232,
      "ĥ": 233,
      "Ħ": 234,
      "ħ": 235,
      "Ĩ": 236,
      "ĩ": 237,
      "Ī": 238,
      "ī": 239,
      "Ĭ": 240,
      "ĭ": 241,
      "Į": 242,
      "į": 243,
      "İ": 244,
      "ı": 245,
      "Ĳ": 246,
      "ĳ": 247,
      "Ĵ": 248,
      "ĵ": 249,
      "Ķ": 250,
      "ķ": 251,
      "ĸ": 252,
      "Ĺ": 253,
      "ĺ": 254,
      "Ļ": 255,
      "ļ": 256,
      "Ľ": 257,
      "ľ": 258,
      "Ŀ": 259,
      "ŀ": 260,
      "Ł": 261,
      "ł": 262,
      "Ń": 263,
      "á»": 264,
      "<|": 265,
      "|>": 266,
      "ng": 267,
      "Ġ[": 268,
      "áº": 269,
      "Ġt": 270,
      "Ġ<|": 271,
      "Ġc": 272,
      "BB": 273,
      "nh": 274,
      "ĠÄ": 275,
      "ĠÄĳ": 276,
      "en": 277,
      "re": 278,
      "ly": 279,
      "Ġm": 280,
      "ar": 281,
      "st": 282,
      "end": 283,
      "art": 284,
      "AT": 285,
      "ON": 286,
      "ply": 287,
      "reply": 288,
      "start": 289,
      "Æ°": 290,
      "Ãł": 291,
      "Ġl": 292,
      "Ġth": 293,
      "Ġb": 294,
      "Ġch": 295,
      "BAT": 296,
      "HY": 297,
      "LU": 298,
      "ME": 299,
      "RHY": 300,
      "TON": 301,
      "LUC": 302,
      "RHYME": 303,
      "TONE": 304,
      "Ġv": 305,
      "Ġh": 306,
      "Æ¡": 307,
      "Ġn": 308,
      "á»Ŀ": 309,
      "Ġng": 310,
      "Ãª": 311,
      "Ã´": 312,
      "TBB": 313,
      "Ġtr": 314,
      "Ġnh": 315,
      "Ã¢": 316,
      "Ġg": 317,
      "Ã¡": 318,
      "Ġs": 319,
      "Ġk": 320,
      "á»Ŀi": 321,
      "Ã³": 322,
      "TB": 323,
      "Ã¬": 324,
      "Ġd": 325,
      "Ġx": 326,
      "áº¿": 327,
      "á»Ľ": 328,
      "áº¡": 329,
      "á»ģ": 330,
      "GON": 331,
      "HAT": 332,
      "IN": 333,
      "LIN": 334,
      "NGON": 335,
      "THAT": 336,
      "LINK": 337,
      "Ġr": 338,
      "Ġkh": 339,
      "á»ĵ": 340,
      "Ġgi": 341,
      "áº¯": 342,
      "áº¥": 343,
      "áº§": 344,
      "Ã²": 345,
      "Ãªn": 346,
      "á»Ļ": 347,
      "Ã´ng": 348,
      "á»ĳ": 349,
      "áº£": 350,
      "BBB": 351,
      "Æ¡ng": 352,
      "Ã¬nh": 353,
      "Ġp": 354,
      "Ġph": 355,
      "TTB": 356,
      "Ġq": 357,
      "Ġqu": 358,
      "anh": 359,
      "Ã¢n": 360,
      "Æ°Æ¡ng": 361,
      "ay": 362,
      "Äĥ": 363,
      "ao": 364,
      "Ã´i": 365,
      "TTBB": 366,
      "ĠÄĳá»": 367,
      "em": 368,
      "iáº¿": 369,
      "Ã£": 370,
      "ai": 371,
      "Æ¡i": 372,
      "Ã¹": 373,
      "ong": 374,
      "iá»ģ": 375,
      "Ġem": 376,
      "Ãº": 377,
      "Æ°á»Ŀi": 378,
      "Æ°á»Ľ": 379,
      "ang": 380,
      "áºŃ": 381,
      "á»ĩ": 382,
      "BBBTBB": 383,
      "Ġmá»Ļ": 384,
      "Ãłng": 385,
      "á»į": 386,
      "á»£": 387,
      "uy": 388,
      "Æ°a": 389,
      "an": 390,
      "Ã¢y": 391,
      "on": 392,
      "á»¯": 393,
      "Ãło": 394,
      "ĠtÃ¬nh": 395,
      "Ãły": 396,
      "Ã²ng": 397,
      "á»Ł": 398,
      "Ã¢u": 399,
      "ĠlÃł": 400,
      "ĠngÆ°á»Ŀi": 401,
      "BBTTBB": 402,
      "Ġtá»": 403,
      "áº¹": 404,
      "Ġláº¡": 405,
      "Ãªu": 406,
      "áº·": 407,
      "á»ĵng": 408,
      "Ãªm": 409,
      "au": 410,
      "Ġmá»Ļt": 411,
      "Æ°á»Ľc": 412,
      "inh": 413,
      "Ġho": 414,
      "áº§u": 415,
      "Æ°á»Ŀ": 416,
      "á»ĵn": 417,
      "Ġvá»ģ": 418,
      "á»ĵi": 419,
      "áº¯ng": 420,
      "Ġngh": 421,
      "áº§n": 422,
      "Ġanh": 423,
      "áº¥y": 424,
      "Ã²n": 425,
      "Äĥm": 426,
      "iá»ģu": 427,
      "Ãłn": 428,
      "áº¥t": 429,
      "Æ°á»Ŀng": 430,
      "Ġy": 431,
      "á»ı": 432,
      "ĠÄĳi": 433,
      "Ġnhá»Ľ": 434,
      "ÃŃ": 435,
      "Ġcon": 436,
      "ĠlÃ²ng": 437,
      "á»©": 438,
      "ĠÄĳá»Ŀi": 439,
      "ĠcÃ³": 440,
      "ĠkhÃ´ng": 441,
      "TBBTBB": 442,
      "Ã´n": 443,
      "Ġcho": 444,
      "ĠngÃły": 445,
      "uá»ĳ": 446,
      "Å©": 447,
      "Ãłi": 448,
      "áº«": 449,
      "á»ķ": 450,
      "BBBB": 451,
      "Ġta": 452,
      "Ã¡ng": 453,
      "BBBTTB": 454,
      "TTTB": 455,
      "Äĥng": 456,
      "áº¿n": 457,
      "ĠnhÆ°": 458,
      "Ã¡i": 459,
      "á»¥": 460,
      "ĠthÆ¡": 461,
      "Æ°á»£": 462,
      "Ã³ng": 463,
      "Ã©": 464,
      "Ã¡c": 465,
      "ĠmÃł": 466,
      "Ġbu": 467,
      "Ġtrá»Ŀi": 468,
      "ung": 469,
      "á»Ľi": 470,
      "á»Ĺ": 471,
      "Ġxa": 472,
      "á»ĭ": 473,
      "ĠcÃ²n": 474,
      "«ng": 475,
      "ĠthÆ°Æ¡ng": 476,
      "Ġai": 477,
      "ĠyÃªu": 478,
      "Ġláº¡i": 479,
      "Ã¹ng": 480,
      "Ã¡nh": 481,
      "ĠÄĳÃ£": 482,
      "Ġtrong": 483,
      "iá»ĩ": 484,
      "áº³": 485,
      "á»§": 486,
      "Ãłnh": 487,
      "á»Ń": 488,
      "ĠÄĳÃªm": 489,
      "ĠgiÃ³": 490,
      "Ġxu": 491,
      "áº³ng": 492,
      "ĠmÃ¬nh": 493,
      "áº¯m": 494,
      "Ġhoa": 495,
      "iáº¿t": 496,
      "ĠcÅ©": 497,
      "áº¯t": 498,
      "áº«n": 499,
      "Ġcáº£": 500,
      "TBTTBB": 501,
      "Ãºc": 502,
      "ĠtÃ´i": 503,
      "ĠÄĳá»ĥ": 504,
      "á»ĥ": 505,
      "Ġbao": 506,
      "Æ¡n": 507,
      "áº¿t": 508,
      "áº£i": 509,
      "Ġti": 510,
      "Ġsao": 511,
      "Ã¢m": 512,
      "Ã¡t": 513,
      "Ġcháº³ng": 514,
      "Ġthu": 515,
      "TBBB": 516,
      "á»¯ng": 517,
      "á»Ĺi": 518,
      "áº±": 519,
      "Ã¨": 520,
      "áº»": 521,
      "Ġrá»ĵi": 522,
      "ĠnÄĥm": 523,
      "iá»ģn": 524,
      "Ġmáº¹": 525,
      "ĠxuÃ¢n": 526,
      "á»ĳi": 527,
      "Ġchi": 528,
      "Ġváº«n": 529,
      "Ġvu": 530,
      "BBTTTB": 531,
      "áº¯c": 532,
      "áº¡n": 533,
      "Ġbuá»ĵn": 534,
      "ĠÄĳÃ¢u": 535,
      "Ġnhau": 536,
      "Ġtiáº¿": 537,
      "ĠcÅ©ng": 538,
      "Ġchiá»ģu": 539,
      "áºŃn": 540,
      "áº§y": 541,
      "á»¡": 542,
      "Ã¹a": 543,
      "Ã£i": 544,
      "ĠÄĳÆ°á»Ŀng": 545,
      "á»ķi": 546,
      "ĠnhÃł": 547,
      "ĠnÆ°á»Ľc": 548,
      "eo": 549,
      "ĠmÆ°a": 550,
      "ĠbÃªn": 551,
      "Ġnáº¯ng": 552,
      "á»ī": 553,
      "uá»Ļ": 554,
      "TBBTTB": 555,
      "áº§m": 556,
      "Ġqua": 557,
      "ĠÄĳáº¿n": 558,
      "ĠtrÄĥng": 559,
      "Ġlá»Ŀi": 560,
      "Ġnhá»¯ng": 561,
      "Ä©": 562,
      "ĠlÃłm": 563,
      "áº½": 564,
      "uyÃªn": 565,
      "ĠmÆ¡": 566,
      "ĠbÃ³ng": 567,
      "áºŃt": 568,
      "ĠhÆ°Æ¡ng": 569,
      "ĠvÃło": 570,
      "á»¯a": 571,
      "áº·ng": 572,
      "ĠxÆ°a": 573,
      "Ġvui": 574,
      "iÃªn": 575,
      "ĠnÃło": 576,
      "Ãµ": 577,
      "ĠquÃª": 578,
      "Ã³i": 579,
      "Ġtay": 580,
      "ĠÆ¡i": 581,
      "Ã³c": 582,
      "Ġgiá»Ŀ": 583,
      "ĠmÃ£i": 584,
      "ĠtÆ°": 585,
      "Ġbiáº¿t": 586,
      "ĠcÃ¹ng": 587,
      "Ġra": 588,
      "Ġtiáº¿ng": 589,
      "á»±": 590,
      "Ġnay": 591,
      "Æ°á»£c": 592,
      "á»Ńa": 593,
      "Ã¡ch": 594,
      "á»ĳng": 595,
      "uÃ´n": 596,
      "ĠvÃłng": 597,
      "Ã¡o": 598,
      "Ġhá»ĵn": 599,
      "ĠmÃ¢y": 600,
      "á»«ng": 601,
      "uyá»ĩ": 602,
      "Ġmong": 603,
      "ĠthÃ¬": 604,
      "Ġchá»Ŀ": 605,
      "ĠmÃ¹a": 606,
      "á»įt": 607,
      "áº©": 608,
      "ch": 609,
      "áº¥m": 610,
      "ĠÄĳÃ³": 611,
      "Ġmáº¯t": 612,
      "Ã¬m": 613,
      "á»ģn": 614,
      "Ġmá»Ļng": 615,
      "ĠÄĳÃ¢y": 616,
      "á»Ļi": 617,
      "Ġháº¡": 618,
      "Ãºt": 619,
      "Ġvá»Ľi": 620,
      "ĠsÃ´ng": 621,
      "Ġdáº¡": 622,
      "BBBBBB": 623,
      "Ã´m": 624,
      "ĠÄĳÃ´i": 625,
      "ĠÄĳÆ°á»£c": 626,
      "Ġxanh": 627,
      "Ġná»Ĺi": 628,
      "Ġhá»ĵng": 629,
      "Ġchá»ī": 630,
      "áº±ng": 631,
      "Ã¬n": 632,
      "ĠthÃ¡ng": 633,
      "ĠlÃªn": 634,
      "ĠtrÃªn": 635,
      "BBTBBB": 636,
      "Ġthá»Ŀi": 637,
      "Ġtháº¥y": 638,
      "ĠÄĳáº§u": 639,
      "iá»ĥ": 640,
      "áºŃp": 641,
      "Ġtháº¿": 642,
      "Ġsáº§u": 643,
      "Äĥn": 644,
      "ĠnÆ¡i": 645,
      "ĠthÃ´i": 646,
      "á»©c": 647,
      "Ġtá»«": 648,
      "ĠlÃ¡": 649,
      "ĠduyÃªn": 650,
      "Ġpháº£i": 651,
      "Ġmáº·": 652,
      "iÃªu": 653,
      "á»«": 654,
      "ĠcÆ°á»Ŀi": 655,
      "Ġtu": 656,
      "ĠnÃły": 657,
      "á»ĳn": 658,
      "ĠchÃ¢n": 659,
      "Ġkhi": 660,
      "Ġgian": 661,
      "Ã¢ng": 662,
      "Ġtim": 663,
      "Ġsay": 664,
      "ĠnghÄ©": 665,
      "á»įc": 666,
      "ĠÄĳÃ´ng": 667,
      "Ãªng": 668,
      "ĠthÃ¢n": 669,
      "Ġá»Ł": 670,
      "Ġcá»©": 671,
      "am": 672,
      "Ġhai": 673,
      "ĠÄĳau": 674,
      "Æ°ng": 675,
      "á»ıi": 676,
      "Ġnghe": 677,
      "ĠtÃ¢m": 678,
      "ĠsÆ°Æ¡ng": 679,
      "TBTB": 680,
      "Ġcuá»Ļ": 681,
      "Ġbay": 682,
      "á»įi": 683,
      "Ġlo": 684,
      "ĠÄĳáº¥t": 685,
      "ĠÄĳá»£": 686,
      "á»ħ": 687,
      "ĠtÃ¬m": 688,
      "TBTTTB": 689,
      "ĠÄĳá»©": 690,
      "ĠÄĳá»£i": 691,
      "Ġtheo": 692,
      "áº¹n": 693,
      "Ġmá»Ľi": 694,
      "ĠcÃ¢u": 695,
      "ĠthÃłnh": 696,
      "ĠnhÃ¬n": 697,
      "áº¹p": 698,
      "iá»ĩt": 699,
      "in": 700,
      "ĠrÆ¡i": 701,
      "Ġgiá»¯a": 702,
      "áº¡c": 703,
      "ĠbÆ°á»Ľc": 704,
      "ĠmÃª": 705,
      "uá»ĳi": 706,
      "á»«a": 707,
      "Ġláº¡nh": 708,
      "ĠgÃ¬": 709,
      "Ġgh": 710,
      "Ġnhiá»ģu": 711,
      "ĠÄĳáº§y": 712,
      "ĠcÃ¡nh": 713,
      "iÃªng": 714,
      "Ġhay": 715,
      "Ġmáº¥y": 716,
      "á»įn": 717,
      "ĠÄĳáº¹p": 718,
      "á»§a": 719,
      "ĠcÃ´": 720,
      "uyá»ģn": 721,
      "Ã³t": 722,
      "Ġáº¥y": 723,
      "ĠvÃ¬": 724,
      "ĠtÃŃ": 725,
      "Ġcuá»Ļc": 726,
      "ĠvÆ°Æ¡ng": 727,
      "Ġmai": 728,
      "ĠÄĳá»ĵng": 729,
      "Ġbá»Ŀ": 730,
      "uyá»ĩn": 731,
      "ĠdÃ²ng": 732,
      "áº¯p": 733,
      "Ġsá»ĳng": 734,
      "ĠchÆ°a": 735,
      "Ġkiáº¿": 736,
      "á»Łi": 737,
      "áº¥n": 738,
      "Ġsang": 739,
      "áº¥u": 740,
      "áº¡i": 741,
      "uá»ĳng": 742,
      "ĠsÃ¡ng": 743,
      "ĠngÃłn": 744,
      "Ġháº¿t": 745,
      "ĠmÃłu": 746,
      "Ġbáº¡n": 747,
      "Ã¡n": 748,
      "Ġtá»«ng": 749,
      "Ġkho": 750,
      "áº¥p": 751,
      "ĠÆ°á»Ľc": 752,
      "Ġcá»§a": 753,
      "Ã½": 754,
      "ĠcÃ¡i": 755,
      "ĠdÃłi": 756,
      "ĠnhÃ¢n": 757,
      "Ġngá»ĵi": 758,
      "Ġchung": 759,
      "áº©n": 760,
      "Ġtráº¯ng": 761,
      "ĠcÃ¢y": 762,
      "Ġba": 763,
      "Ġchiáº¿": 764,
      "ĠÃ¡o": 765,
      "Ġngo": 766,
      "iá»ĥn": 767,
      "áº£o": 768,
      "Ġcao": 769,
      "Ġtho": 770,
      "ĠsÃ³ng": 771,
      "Ġmang": 772,
      "Ġláº·ng": 773,
      "áº¥c": 774,
      "ĠbÃ¬nh": 775,
      "uá»ĳn": 776,
      "ĠthÃªm": 777,
      "Ġtuá»ķi": 778,
      "áº¡t": 779,
      "Ġbáº¿n": 780,
      "ĠnÃªn": 781,
      "Ġlá»ĩ": 782,
      "Ġcha": 783,
      "Ġtá»±": 784,
      "Ã¨o": 785,
      "ĠmÃ´i": 786,
      "ĠnÃ³i": 787,
      "áº·p": 788,
      "Ã²a": 789,
      "iá»ģm": 790,
      "ĠÄĳÆ°a": 791,
      "Ġsáº¯c": 792,
      "ĠhÃ´m": 793,
      "ĠÄĳá»«ng": 794,
      "á»įng": 795,
      "Ġcáº§u": 796,
      "Ã¡u": 797,
      "á»±c": 798,
      "Ġbiá»ĥn": 799,
      "ĠtÃ³c": 800,
      "ĠtháºŃt": 801,
      "ĠtrÃ´i": 802,
      "Ġtháº¯m": 803,
      "Ġchá»ĵng": 804,
      "ĠvÃ´": 805,
      "ĠquÃªn": 806,
      "ĠnghÄ©a": 807,
      "TBBBBB": 808,
      "Ãºng": 809,
      "Ġniá»ģm": 810,
      "Ġná»ĵng": 811,
      "ĠÃ¡nh": 812,
      "ĠÄĳá»ķ": 813,
      "Ãµi": 814,
      "áº£ng": 815,
      "ĠtrÆ°á»Ŀng": 816,
      "Ġáº¥m": 817,
      "BBBBTB": 818,
      "Ã¹i": 819,
      "Ġsau": 820,
      "Ġgáº·p": 821,
      "Ġxin": 822,
      "ĠnÃłng": 823,
      "ĠhÃ¬nh": 824,
      "áº£nh": 825,
      "Ãºi": 826,
      "Ã©t": 827,
      "Ġláº§n": 828,
      "ĠmuÃ´n": 829,
      "Ġláº¯m": 830,
      "Ġthá»ģ": 831,
      "ĠgiÃł": 832,
      "á»Ļng": 833,
      "Ġcáº£nh": 834,
      "Ġná»¥": 835,
      "Ġnon": 836,
      "Ġgiáº¥c": 837,
      "ĠchÆ¡i": 838,
      "áº±m": 839,
      "Æ°á»Ľi": 840,
      "Ġru": 841,
      "Ġbá»ı": 842,
      "Æ¡m": 843,
      "Ã©o": 844,
      "á»¥c": 845,
      "Ġngá»įt": 846,
      "á»Ľm": 847,
      "Ġsinh": 848,
      "ĠÃ´ng": 849,
      "Ġváº¯ng": 850,
      "Ġgá»įi": 851,
      "Ġvá»£": 852,
      "ua": 853,
      "ĠcÃ´ng": 854,
      "ĠhÃłng": 855,
      "im": 856,
      "á»Ńi": 857,
      "ĠsÃ¢u": 858,
      "Ã¡m": 859,
      "á»ĳc": 860,
      "ĠdÃ¢n": 861,
      "ĠtÆ°Æ¡i": 862,
      "Ġgiá»įt": 863,
      "Ã£o": 864,
      "ĠcÃµi": 865,
      "Ġkiáº¿p": 866,
      "TBTBBB": 867,
      "ĠtÆ¡": 868,
      "Ġtháº§m": 869,
      "Ġmuá»ĳn": 870,
      "ĠchÃŃ": 871,
      "ĠtÃłn": 872,
      "Ġdá»ĭ": 873,
      "Ġtan": 874,
      "ĠtrÃ´ng": 875,
      "Ġchá»ĭ": 876,
      "Ġvá»«a": 877,
      "ĠlÃºc": 878,
      "Ġquy": 879,
      "áº¡nh": 880,
      "áº£y": 881,
      "Ġgá»Ńi": 882,
      "áºŃy": 883,
      "Ġkáº»": 884,
      "ĠquÃ¡": 885,
      "Ġthuyá»ģn": 886,
      "Ġnhá»ı": 887,
      "ĠlÃłng": 888,
      "Ġtá»ı": 889,
      "Ãºa": 890,
      "Ġsáº½": 891,
      "Ġká»": 892,
      "ĠchÃºt": 893,
      "á»Łng": 894,
      "ĠbÃł": 895,
      "Ãªnh": 896,
      "Ġná»Ńa": 897,
      "Ġtrao": 898,
      "ĠphÃºc": 899,
      "áºŃm": 900,
      "Ġsá»Ľm": 901,
      "ĠtrÃ¡i": 902,
      "Æ°u": 903,
      "Ġtháº£": 904,
      "Ġtrá»Ł": 905,
      "Ġto": 906,
      "Ġlá»ĳi": 907,
      "Ġchim": 908,
      "ĠvÆ¡i": 909,
      "Ġná»Ł": 910,
      "áº¡o": 911,
      "ĠnÃºi": 912,
      "Ġháº¹n": 913,
      "ĠÄĥ": 914,
      "ĠcÃ¡ch": 915,
      "uá»ĳt": 916,
      "Ġxuá»ĳng": 917,
      "Ġchia": 918,
      "ĠnhÆ°ng": 919,
      "Ġmáº·t": 920,
      "áº¯n": 921,
      "ĠhÃ´n": 922,
      "Ġtráº§n": 923,
      "Ġchuyá»ĩn": 924,
      "Ġkhá»ķ": 925,
      "ĠÄĥn": 926,
      "ĠÄĳang": 927,
      "Ġtiá»ģn": 928,
      "Ġthanh": 929,
      "Ġnháº¹": 930,
      "uyá»ĩt": 931,
      "Ġhá»Ŀ": 932,
      "Ġláº¡c": 933,
      "Ġca": 934,
      "ia": 935,
      "Ġchá»£": 936,
      "áº·t": 937,
      "Ġbáº¡c": 938,
      "á»£i": 939,
      "ĠÄĳÃłn": 940,
      "Æ°á»Ľng": 941,
      "BBTBTB": 942,
      "ĠtrÆ°á»Ľc": 943,
      "Ã©n": 944,
      "ĠkhÃ³": 945,
      "Ġchá»¯": 946,
      "Ġláº½": 947,
      "ĠÄĳÃ¡": 948,
      "ĠluÃ´n": 949,
      "Ġháº¡nh": 950,
      "Ã£y": 951,
      "ĠÄĳá»©ng": 952,
      "Ġgiá»¯": 953,
      "ĠyÃªn": 954,
      "Ġcuá»ĳi": 955,
      "ĠhoÃłi": 956,
      "Ġmá»Ĺi": 957,
      "Ġmá»Ŀ": 958,
      "á»¥ng": 959,
      "Ġgáº§n": 960,
      "Ġthá»©c": 961,
      "Ġkhu": 962,
      "ĠdÆ°á»Ľi": 963,
      "Ġphá»ĳ": 964,
      "Ġxinh": 965,
      "Æ°á»Ŀn": 966,
      "Ġhá»ıi": 967,
      "Ġcá»ı": 968,
      "ĠÄĳo": 969,
      "ĠcÆ¡n": 970,
      "iá»ĩm": 971,
      "ĠlÃ¢u": 972,
      "ĠhoÃłng": 973,
      "á»ĳt": 974,
      "ĠdÃ¡ng": 975,
      "ĠbÃ¢y": 976,
      "Ġráº±ng": 977,
      "Æ°á»Ľt": 978,
      "ĠphÆ°Æ¡ng": 979,
      "ĠmÃ¡": 980,
      "ĠthiÃªn": 981,
      "Ġngang": 982,
      "Ġthuá»Ł": 983,
      "Ġtá»Ľi": 984,
      "Æ°á»£ng": 985,
      "ĠhÃ²a": 986,
      "BTB": 987,
      "Ġvá»įng": 988,
      "ĠÄĳá»ı": 989,
      "ĠÄĳÃ³n": 990,
      "ĠÃªm": 991,
      "ĠÃ¢m": 992,
      "ĠthÆ¡m": 993,
      "ĠvÆ°á»Ŀn": 994,
      "Ġmiá»ģn": 995,
      "Ġkhuy": 996,
      "ĠpháºŃn": 997,
      "ĠnghiÃªng": 998,
      "oi": 999,
      "ĠtrÄĥm": 1000,
      "Ġcanh": 1001,
      "ĠÄĳÃłnh": 1002,
      "ĠkhÃºc": 1003,
      "ĠngÆ¡": 1004,
      "Ġhá»į": 1005,
      "ĠtÃŃm": 1006,
      "Ġkia": 1007,
      "ĠtrÃłn": 1008,
      "Ġthay": 1009,
      "Ġchá»ĳn": 1010,
      "Ġan": 1011,
      "ĠngoÃłi": 1012,
      "Ġnam": 1013,
      "Ġlá»Ľ": 1014,
      "ĠdÃ¹": 1015,
      "ĠnhiÃªu": 1016,
      "Ġcáº£m": 1017,
      "Ġcay": 1018,
      "ĠrÆ°á»£": 1019,
      "á»Ļc": 1020,
      "á»ĭp": 1021,
      "Ġngá»§": 1022,
      "ĠgÃ¡i": 1023,
      "Ġhá»ĵi": 1024,
      "Ã³a": 1025,
      "ĠÄĳÆ¡n": 1026,
      "Ġtha": 1027,
      "Ġnáº±m": 1028,
      "Ġváº¥n": 1029,
      "ĠhÃ£y": 1030,
      "uyáº¿n": 1031,
      "ĠÃ´m": 1032,
      "Ġmáº¥t": 1033,
      "Ġlinh": 1034,
      "Ġtrang": 1035,
      "Ġhá»įc": 1036,
      "ĠbuÃ´ng": 1037,
      "Ġváº§n": 1038,
      "ĠmÃ¡i": 1039,
      "ĠÃ¢n": 1040,
      "ĠÄĳiá»ģu": 1041,
      "ĠÄĳÃ²": 1042,
      "ĠngÃło": 1043,
      "ĠhÃ¡t": 1044,
      "Ġngáº¯m": 1045,
      "ĠthÆ°á»Ŀng": 1046,
      "ĠrÆ°á»£u": 1047,
      "Ġchu": 1048,
      "Ġkháº¯p": 1049,
      "iá»ħ": 1050,
      "ĠtÃł": 1051,
      "á»ģm": 1052,
      "ĠkhÃ³c": 1053,
      "ĠhÆ¡n": 1054,
      "iáº¿u": 1055,
      "Ġná»¯a": 1056,
      "Ġphai": 1057,
      "TTTBB": 1058,
      "á»Ļn": 1059,
      "Ġráº¥t": 1060,
      "ĠmÆ°á»Ŀi": 1061,
      "ĠxÃ³t": 1062,
      "ĠtÆ°Æ¡ng": 1063,
      "Ġtráº»": 1064,
      "Ġnháº¡t": 1065,
      "Ã¨n": 1066,
      "áº«u": 1067,
      "á»©a": 1068,
      "ĠcÃłnh": 1069,
      "Ġcáº§n": 1070,
      "áºŃu": 1071,
      "Ġcá»Ńa": 1072,
      "Ġnáº·ng": 1073,
      "ĠtrÃ²n": 1074,
      "ĠchÃºc": 1075,
      "ĠÄĳÃło": 1076,
      "á»¡i": 1077,
      "TBBBTB": 1078,
      "Ġbuá»ķi": 1079,
      "Ġngu": 1080,
      "Ġvai": 1081,
      "ĠÄĳáº¯ng": 1082,
      "ĠtiÃªn": 1083,
      "Ġbá»Łi": 1084,
      "Ġbá»ĳn": 1085,
      "Ġtrá»įn": 1086,
      "iu": 1087,
      "ĠtÆ°á»Łng": 1088,
      "Ġphá»§": 1089,
      "ĠthÄĥm": 1090,
      "Ã©p": 1091,
      "ĠÄĳá»į": 1092,
      "ĠchÃ¡u": 1093,
      "Ġniá»ĩm": 1094,
      "Ġquanh": 1095,
      "ĠchÃºng": 1096,
      "Ġlu": 1097,
      "Ġláº¥y": 1098,
      "áº¡ng": 1099,
      "ÃŃch": 1100,
      "Ġká»·": 1101,
      "Ġtráº£i": 1102,
      "Ġthá»§": 1103,
      "ĠgiÃ¡": 1104,
      "Ġxao": 1105,
      "ĠmÃªnh": 1106,
      "iá»ĩn": 1107,
      "ĠngáºŃp": 1108,
      "ĠvÃł": 1109,
      "Ġrá»«ng": 1110,
      "Ġkhuya": 1111,
      "Ġkháº¯c": 1112,
      "Ġhoang": 1113,
      "Ġmá»«ng": 1114,
      "á»Ĺng": 1115,
      "Ġlá»¡": 1116,
      "ĠlÃłnh": 1117,
      "Ġphong": 1118,
      "ĠÄĳá»ķi": 1119,
      "īnh": 1120,
      "Ġkáº¿t": 1121,
      "ĠkhÃ³i": 1122,
      "ĠvÃ²ng": 1123,
      "áº£n": 1124,
      "Ġvá»Ŀi": 1125,
      "á»Ľt": 1126,
      "Ġná»£": 1127,
      "Ġmá»įi": 1128,
      "Ġhá»ĵ": 1129,
      "Ġtin": 1130,
      "ĠchÃłng": 1131,
      "ĠnÃ³": 1132,
      "ĠÄĳiá»ĩ": 1133,
      "Ġmáº·c": 1134,
      "ĠÃ½": 1135,
      "Ġbiá»ĩt": 1136,
      "Ġminh": 1137,
      "Ġhiá»ģn": 1138,
      "Ġngá»įn": 1139,
      "Ġtáº·ng": 1140,
      "Ġváº¡n": 1141,
      "Ġly": 1142,
      "Ġnhá»ĭp": 1143,
      "áº»o": 1144,
      "Ġo": 1145,
      "Ġchiáº¿c": 1146,
      "Ġbáº±ng": 1147,
      "Ġchiáº¿n": 1148,
      "ĠÄĳÃł": 1149,
      "Ã£ng": 1150,
      "Ġnáº¿": 1151,
      "Ġtá»ĳi": 1152,
      "ĠriÃªng": 1153,
      "ĠÃ¡i": 1154,
      "ĠcÃ¡c": 1155,
      "Ġngáº©n": 1156,
      "Ġbá»ģ": 1157,
      "ĠkhÆ¡i": 1158,
      "Ġhá»Ļi": 1159,
      "Ġthá»ĥ": 1160,
      "áº¡m": 1161,
      "Ġrá»¥ng": 1162,
      "Ġbá»Ĺng": 1163,
      "Ġvá»Ļi": 1164,
      "Ġdáº¥u": 1165,
      "ĠmÃ´ng": 1166,
      "iá»ĩc": 1167,
      "ĠcÃłng": 1168,
      "ĠbÃ£o": 1169,
      "ÃŃt": 1170,
      "á»ĭt": 1171,
      "Ġná»ķi": 1172,
      "ĠngÃ³ng": 1173,
      "ĠÄĳá»§": 1174,
      "Ġviáº¿t": 1175,
      "Ġlá»Ńa": 1176,
      "ĠngÃ¢y": 1177,
      "iá»ĥu": 1178,
      "Ġngá»Ŀi": 1179,
      "Ġtá»ıa": 1180,
      "ĠbÃłn": 1181,
      "Ġu": 1182,
      "Ġngá»įc": 1183,
      "ĠlÆ°ng": 1184,
      "ĠÄĳÃ¬nh": 1185,
      "Ġvang": 1186,
      "ĠÄĳong": 1187,
      "Ġthiáº¿t": 1188,
      "Ġson": 1189,
      "ĠsÃ¢n": 1190,
      "Æ°á»£t": 1191,
      "ĠhÃ¨": 1192,
      "ĠdÃ¢ng": 1193,
      "ĠhÃ³a": 1194,
      "Ġmay": 1195,
      "Ġlá»Ľn": 1196,
      "Ġbiáº¿": 1197,
      "Ġháº¡t": 1198,
      "Ġrá»Ŀi": 1199,
      "ĠmÃ²n": 1200,
      "ĠmÃłng": 1201,
      "Ġgia": 1202,
      "áº«m": 1203,
      "Ġhá»Ŀn": 1204,
      "á»ĩt": 1205,
      "Ġviá»ĩt": 1206,
      "Ġthi": 1207,
      "ĠnghÃ¨o": 1208,
      "ĠÄĳáº¯m": 1209,
      "Æ°Æ¡i": 1210,
      "Ġdá»ĭu": 1211,
      "Ġdáº«u": 1212,
      "Ġtre": 1213,
      "ĠdÆ°Æ¡ng": 1214,
      "ĠÄĳem": 1215,
      "ĠhÆ°": 1216,
      "á»¥i": 1217,
      "ĠcÆ¡m": 1218,
      "Ġsá»±": 1219,
      "Ġruá»Ļ": 1220,
      "Ġhá»¡i": 1221,
      "ĠbÃ¡t": 1222,
      "Ã¨m": 1223,
      "ĠquÃ¢n": 1224,
      "ĠbÃ¡c": 1225,
      "áº©y": 1226,
      "áº§ng": 1227,
      "Ġmá»Ł": 1228,
      "ĠváºŃy": 1229,
      "BTBTBB": 1230,
      "ĠbÃłi": 1231,
      "ĠvÆ¡": 1232,
      "Ġxem": 1233,
      "Ġviá»ĩc": 1234,
      "Ġsa": 1235,
      "Ġngá»¡": 1236,
      "ĠtrÆ°a": 1237,
      "Ġchá»Ľ": 1238,
      "áº¡ch": 1239,
      "ĠkÃŃ": 1240,
      "ĠtáºŃn": 1241,
      "Ġná»¯": 1242,
      "Ġtranh": 1243,
      "Ġxe": 1244,
      "Ġhiu": 1245,
      "ĠÄĳá»ĭ": 1246,
      "Æ°á»Ľm": 1247,
      "ĠhÆ¡i": 1248,
      "Ġcá»ĳ": 1249,
      "Ġlong": 1250,
      "Ġtáº¿t": 1251,
      "Ġlung": 1252,
      "Ġbá»ĵng": 1253,
      "ĠkhÃ¡ch": 1254,
      "Ġchá»£t": 1255,
      "ĠlÅ©": 1256,
      "ĠÆ¡n": 1257,
      "Ġmáº£nh": 1258,
      "ĠlÆ°u": 1259,
      "Ġmáº·n": 1260,
      "ĠngÃµ": 1261,
      "Ġla": 1262,
      "Ġtá»±a": 1263,
      "ĠchÃło": 1264,
      "ĠgiÄĥng": 1265,
      "Ġda": 1266,
      "Ġthá»Ŀ": 1267,
      "ĠchÃŃn": 1268,
      "Ġtuyá»ĩt": 1269,
      "Ġdáº§n": 1270,
      "Ġbá»ĵi": 1271,
      "ĠnÃ©t": 1272,
      "Ġgáº§y": 1273,
      "Ġdu": 1274,
      "Ã¡y": 1275,
      "Ġquan": 1276,
      "Ġcháº£y": 1277,
      "Ã¡p": 1278,
      "Ġngay": 1279,
      "ĠhÃłnh": 1280,
      "ĠtÃªn": 1281,
      "Ġmá»Ŀi": 1282,
      "ĠbÃ´ng": 1283,
      "Ġnguyá»ĩn": 1284,
      "Ġbáº¥t": 1285,
      "Ġmá»ıi": 1286,
      "Ġpháº§n": 1287,
      "Ġmua": 1288,
      "Ġtá»Ń": 1289,
      "ĠbÆ°á»Ľm": 1290,
      "Ã³m": 1291,
      "Ġmá»ģm": 1292,
      "Ġxá»©": 1293,
      "Ġsá»©c": 1294,
      "Ġdáº¡i": 1295,
      "Ġhiá»ĥu": 1296,
      "Ġtráº£": 1297,
      "ĠÄĳá»Ļng": 1298,
      "á»ıa": 1299,
      "Ġsuá»ĳt": 1300,
      "Ġngá»Ŀ": 1301,
      "TBTBTB": 1302,
      "Ġcung": 1303,
      "Ġnao": 1304,
      "Ġquen": 1305,
      "Ãºp": 1306,
      "Ġban": 1307,
      "Ġcá»ķ": 1308,
      "Ġxo": 1309,
      "Ġnáº»o": 1310,
      "Ġtháº§n": 1311,
      "ĠmÃ¹": 1312,
      "Ġsoi": 1313,
      "ĠÆ°á»Ľt": 1314,
      "Ġthá»ģm": 1315,
      "Ġthan": 1316,
      "Ġsá»£": 1317,
      "Ġgieo": 1318,
      "iá»ĩu": 1319,
      "Ġvá»¡": 1320,
      "om": 1321,
      "Æ°á»£n": 1322,
      "Ġcháº¿t": 1323,
      "ĠtÃłi": 1324,
      "ĠngÃ¢n": 1325,
      "Ġcáº¡n": 1326,
      "ĠbÃ¡n": 1327,
      "ĠsÆ¡n": 1328,
      "ĠmÆ°Æ¡i": 1329,
      "ĠthoÃ¡ng": 1330,
      "ĠhÃ©o": 1331,
      "Ġsá»£i": 1332,
      "Ġbáº£o": 1333,
      "Ġtráº§m": 1334,
      "ĠlÃºa": 1335,
      "Ġnáº¿u": 1336,
      "Ġquáº£": 1337,
      "Ġlai": 1338,
      "Ġtinh": 1339,
      "Ġphiá»ģn": 1340,
      "Ġgiao": 1341,
      "Ġtrai": 1342,
      "Ġnháº¡c": 1343,
      "Ġsuá»ĳi": 1344,
      "ĠÄĳá»©a": 1345,
      "Ġlá»¥": 1346,
      "Ġnhung": 1347,
      "áº·c": 1348,
      "áº±n": 1349,
      "Ġbá»¥i": 1350,
      "Ġtrung": 1351,
      "uÃ´i": 1352,
      "ĠgÃ¡nh": 1353,
      "ĠxÃ¢y": 1354,
      "Ġlá»¥c": 1355,
      "Ġdanh": 1356,
      "Ġtuy": 1357,
      "ĠphÃŃ": 1358,
      "ĠÄĳÃ¡nh": 1359,
      "ĠtrÃ¡ch": 1360,
      "ÃŃu": 1361,
      "Ġtháº§y": 1362,
      "Ġthiáº¿u": 1363,
      "Ġnguyá»ĩt": 1364,
      "áº·n": 1365,
      "Ġghi": 1366,
      "ĠhÃł": 1367,
      "Ġráº¡ng": 1368,
      "Ġlan": 1369,
      "Ġthá»§y": 1370,
      "ĠchÃ¬m": 1371,
      "Ġmau": 1372,
      "ĠcÃ¡": 1373,
      "ĠphÆ°á»£ng": 1374,
      "Ġláº»": 1375,
      "ĠnhiÃªn": 1376,
      "Ġtá»īnh": 1377,
      "Ã¬a": 1378,
      "á»ĩnh": 1379,
      "Ġxong": 1380,
      "Ġtáº¥m": 1381,
      "Ġmá»ĳi": 1382,
      "ĠphÃºt": 1383,
      "Ġbáº¯c": 1384,
      "ĠthÆ°a": 1385,
      "ĠkhÃ´n": 1386,
      "ĠlÃłn": 1387,
      "áº¿m": 1388,
      "ĠmÃ¡t": 1389,
      "Ġrá»Ļn": 1390,
      "ĠnhÃ©": 1391,
      "Ġrá»Ļng": 1392,
      "ĠÄĳá»ĵi": 1393,
      "Ġlao": 1394,
      "ĠdÃ¢u": 1395,
      "Ġthang": 1396,
      "ĠvÃłi": 1397,
      "ĠÄĳÃ¨n": 1398,
      "ĠxuÃ´i": 1399,
      "Ġthá»Ł": 1400,
      "á»ĩn": 1401,
      "Ġtiáº¿c": 1402,
      "Ġcháº¯c": 1403,
      "Ġbáº§u": 1404,
      "Ġvi": 1405,
      "ĠxÃ³m": 1406,
      "ĠbÃ¢ng": 1407,
      "Ġcáº§m": 1408,
      "á»ħn": 1409,
      "Ġtá»ķ": 1410,
      "Ġquay": 1411,
      "Ġthoáº£ng": 1412,
      "Ġngáº¥t": 1413,
      "ĠkhÃ¡t": 1414,
      "Ġdá»ĭch": 1415,
      "uá»ĳc": 1416,
      "Ġtáº¡i": 1417,
      "ĠnguyÃªn": 1418,
      "ĠÄĳá»ģ": 1419,
      "ĠngÃ¡t": 1420,
      "ĠthÃŃch": 1421,
      "TTBTBB": 1422,
      "Ġtá»§": 1423,
      "ĠnháºŃn": 1424,
      "Ġcau": 1425,
      "ĠtrÃ¹ng": 1426,
      "ĠÄĳáºŃm": 1427,
      "Ġchá»ĭu": 1428,
      "Ġnguá»ĵn": 1429,
      "ĠthÆ°": 1430,
      "á»Ŀn": 1431,
      "ĠÄĳá»Ļ": 1432,
      "Ġmi": 1433,
      "ĠkhÃ´": 1434,
      "BTTTBB": 1435,
      "ĠgiáºŃn": 1436,
      "Ġuá»ĳng": 1437,
      "Ġgá»ĳi": 1438,
      "ĠÃ´i": 1439,
      "ĠÄĳa": 1440,
      "iáº¿n": 1441,
      "ĠÄĳen": 1442,
      "ĠtuÃ´n": 1443,
      "Ġthá»ķi": 1444,
      "ĠtoÃłn": 1445,
      "ĠnhÃ²a": 1446,
      "Ġvá»ĭ": 1447,
      "ĠkhuÃ¢ng": 1448,
      "ĠhÃ²": 1449,
      "ĠchÃ©n": 1450,
      "áº·m": 1451,
      "Ġche": 1452,
      "ĠxÃ´i": 1453,
      "ĠxÃ¡c": 1454,
      "Ġdáº¡t": 1455,
      "ĠvÃ¹ng": 1456,
      "Ġkiáº¿m": 1457,
      "Ġbáº¯t": 1458,
      "Ġtráº§u": 1459,
      "Ġsá»ĳ": 1460,
      "Ġcá»Ŀ": 1461,
      "ĠvÄĥn": 1462,
      "á»ĥn": 1463,
      "Ġrá»±c": 1464,
      "ĠnÃ¡t": 1465,
      "Ġkinh": 1466,
      "ĠphÃ¹": 1467,
      "ĠnuÃ´i": 1468,
      "Ġlang": 1469,
      "Ġnhanh": 1470,
      "Ġváº¹n": 1471,
      "ĠngÃ³": 1472,
      "Ġá»§": 1473,
      "Ġlay": 1474,
      "Ġao": 1475,
      "á»Ńng": 1476,
      "Ġmuá»Ļ": 1477,
      "Ġchan": 1478,
      "Ã¬u": 1479,
      "ĠcÆ¡": 1480,
      "Ġbiáº¿c": 1481,
      "ĠngáºŃm": 1482,
      "ĠcÃ²": 1483,
      "Ġliá»ģn": 1484,
      "ĠtÃŃnh": 1485,
      "ĠphÃ²ng": 1486,
      "ĠchÄĥng": 1487,
      "Ġtá»§i": 1488,
      "ĠrÃ£": 1489,
      "ĠthÃ´ng": 1490,
      "ĠpháºŃt": 1491,
      "Ġthá»ĭ": 1492,
      "TTTTB": 1493,
      "Ġáº£o": 1494,
      "Ġváº§ng": 1495,
      "Ġnháº·t": 1496,
      "á»ıng": 1497,
      "ĠcÃ´i": 1498,
      "ĠmÃły": 1499,
      "ĠbÃ©": 1500,
      "ĠlÃ£ng": 1501,
      "Ġná»ĳi": 1502,
      "ĠtÃ¢y": 1503,
      "áº«y": 1504,
      "ĠkhÄĥn": 1505,
      "á»±a": 1506,
      "Ġquáº¡nh": 1507,
      "Ġbá»ĥ": 1508,
      "Ġngáº§n": 1509,
      "á»ķn": 1510,
      "ĠmÃ¡u": 1511,
      "Ġtá»©": 1512,
      "Ġman": 1513,
      "iá»ĩp": 1514,
      "ĠtrÃło": 1515,
      "Ġthá»ıa": 1516,
      "ĠngÃ¹i": 1517,
      "ĠÄĳá»įng": 1518,
      "Ġkhá»ı": 1519,
      "ĠngÃ£": 1520,
      "Ġtá»¥": 1521,
      "Ġngáº£": 1522,
      "ĠÄĳÃª": 1523,
      "Ġquá»ĳc": 1524,
      "Ġkhá»ıe": 1525,
      "á»¹": 1526,
      "Ġbá»ĭ": 1527,
      "Ġtáº¥t": 1528,
      "ĠmiÃªn": 1529,
      "ĠchÄĥm": 1530,
      "Ġruá»Ļng": 1531,
      "ĠliÃªu": 1532,
      "á»£p": 1533,
      "Ġim": 1534,
      "ĠÄĳá»©c": 1535,
      "Ġháº±ng": 1536,
      "ĠtrÃ²": 1537,
      "BTBB": 1538,
      "ĠvÆ°á»£t": 1539,
      "ĠtÃª": 1540,
      "ĠdáºŃy": 1541,
      "Ġin": 1542,
      "Ġváº»": 1543,
      "ĠÄĳáº¡i": 1544,
      "iá»ħu": 1545,
      "Ġcháº¡": 1546,
      "Ġphá»¥": 1547,
      "ĠÄĳÃ¹a": 1548,
      "ĠbÆ¡": 1549,
      "Ġtai": 1550,
      "Ġchao": 1551,
      "ĠkÃªu": 1552,
      "Ġmen": 1553,
      "Ãµng": 1554,
      "iá»ĩng": 1555,
      "ĠtiÃªu": 1556,
      "Ġthá»«a": 1557,
      "á»¯u": 1558,
      "Ġbá»ĩnh": 1559,
      "ĠÄĳáº¡o": 1560,
      "Ġkhoe": 1561,
      "Ġnháº¥t": 1562,
      "ĠgiÃºp": 1563,
      "ĠbÃły": 1564,
      "ĠÄĳiá»ĥ": 1565,
      "Ġmuá»Ļn": 1566,
      "Ġgá»Łi": 1567,
      "ĠcÃ¡t": 1568,
      "Ġtrá»ĳng": 1569,
      "Ġdáº·m": 1570,
      "ĠchÃ¢u": 1571,
      "Ġgiang": 1572,
      "ĠphiÃªu": 1573,
      "BTBTTB": 1574,
      "Ġmanh": 1575,
      "ĠchÃ¹a": 1576,
      "ĠmÃ¹i": 1577,
      "á»©ng": 1578,
      "Ġmá»ĵ": 1579,
      "ĠÄĳiá»ĥm": 1580,
      "Ġhá»¯u": 1581,
      "Ġáº£nh": 1582,
      "Ġáº¥p": 1583,
      "Ġláº¯ng": 1584,
      "ĠngÆ°á»£c": 1585,
      "ĠhÃ¹ng": 1586,
      "á»©t": 1587,
      "Ġse": 1588,
      "Ġngháº¹n": 1589,
      "ĠquÃ½": 1590,
      "ĠgÃł": 1591,
      "Ġnhá»Ŀ": 1592,
      "ĠkÃ©o": 1593,
      "ĠnÃ¢ng": 1594,
      "ĠnÃ£o": 1595,
      "Ġkhá»ıi": 1596,
      "Ġgiá»ĳng": 1597,
      "Ġsáº»": 1598,
      "Ġvá»¯ng": 1599,
      "ĠngÃł": 1600,
      "Ġdá»ĩt": 1601,
      "Ġrá»ĳi": 1602,
      "Ġtung": 1603,
      "ĠcÃł": 1604,
      "Ġváº¥t": 1605,
      "ĠtÃ¡i": 1606,
      "ĠgÃ³c": 1607,
      "ĠghÃ©": 1608,
      "ĠphÆ¡i": 1609,
      "Ġngon": 1610,
      "áº³m": 1611,
      "Ġdáº¡o": 1612,
      "ĠÃł": 1613,
      "Ġvá»Ĺ": 1614,
      "ĠÃ¢u": 1615,
      "ĠdÃło": 1616,
      "Ä©nh": 1617,
      "Ġve": 1618,
      "ĠÄĳiá»ĩu": 1619,
      "Ġngáº¡i": 1620,
      "Ġdá»ħ": 1621,
      "Ġhá»įa": 1622,
      "ĠthÃ¨m": 1623,
      "ĠhiÃªn": 1624,
      "ĠgiÃłu": 1625,
      "Ġdá»±": 1626,
      "Ġdá»Ł": 1627,
      "Ġthá»©": 1628,
      "Ġcháº¥t": 1629,
      "ĠlÆ¡": 1630,
      "Æ°á»£m": 1631,
      "Ġxáº¿": 1632,
      "Æ°á»Łi": 1633,
      "Ġcháº¡y": 1634,
      "ĠgÃ³t": 1635,
      "áºµ": 1636,
      "Ġluyáº¿n": 1637,
      "ĠdÃłnh": 1638,
      "Ġtháº³m": 1639,
      "ĠbÃłng": 1640,
      "Ġpha": 1641,
      "ĠphÃ¢n": 1642,
      "ĠváºŃt": 1643,
      "ĠÄĳáº£o": 1644,
      "ĠkhÃ¡c": 1645,
      "ĠÄĳá»ĭnh": 1646,
      "ĠdÆ°": 1647,
      "ĠdÆ°ng": 1648,
      "ĠÄĳoáº¡n": 1649,
      "Ġhu": 1650,
      "Ġhá»¯ng": 1651,
      "ĠphÃŃa": 1652,
      "á»ĭch": 1653,
      "Ġmiá»ĩng": 1654,
      "ĠvÃ¢n": 1655,
      "Ġquyá»ĩn": 1656,
      "áº©m": 1657,
      "Ġlá»ħ": 1658,
      "Ġhiá»ĩn": 1659,
      "ĠtÃ¡m": 1660,
      "ĠnghÃ¬n": 1661,
      "Ġgom": 1662,
      "Ġtháº¥p": 1663,
      "iá»ħn": 1664,
      "Ġtuyáº¿t": 1665,
      "ĠÄĳan": 1666,
      "ĠthÃ´n": 1667,
      "uyá»ĥn": 1668,
      "ĠÄĳÃłi": 1669,
      "ĠchÃ¡y": 1670,
      "ĠrÆ°ng": 1671,
      "Ġheo": 1672,
      "Ġchá»«ng": 1673,
      "Ġsen": 1674,
      "Ġchá»Ĺ": 1675,
      "Ġtri": 1676,
      "ĠgiÃ´ng": 1677,
      "Ġtiá»ħn": 1678,
      "Ġkhá»Ŀ": 1679,
      "Ġváº£": 1680,
      "Ġká»³": 1681,
      "Ġkhuáº¥t": 1682,
      "ĠchÃº": 1683,
      "ĠhÆ°á»Ľng": 1684,
      "Ġmáº§u": 1685,
      "Ġbáº£y": 1686,
      "ĠnÆ°Æ¡ng": 1687,
      "ĠnhÃłng": 1688,
      "Ġquyáº¿t": 1689,
      "ĠhÃło": 1690,
      "Ġdiá»ģu": 1691,
      "ĠrÅ©": 1692,
      "Ã¹m": 1693,
      "Ġdo": 1694,
      "ĠrÃłng": 1695,
      "Ġsi": 1696,
      "ĠÄĳÆ°á»£m": 1697,
      "Ġcu": 1698,
      "Ġká»ĥ": 1699,
      "ĠÃºa": 1700,
      "Ġliá»ħu": 1701,
      "ĠgÆ°Æ¡ng": 1702,
      "ĠsÃ¡o": 1703,
      "ĠbÃºt": 1704,
      "Ġbá»¯a": 1705,
      "ĠsÄ©": 1706,
      "ĠÄĳáº¿m": 1707,
      "Ã³p": 1708,
      "ĠbÃ¨": 1709,
      "Ġrung": 1710,
      "Ġthao": 1711,
      "ĠrÃµ": 1712,
      "Ġco": 1713,
      "Ġsai": 1714,
      "ĠÄĳá»Ļi": 1715,
      "ĠtrÃ¢u": 1716,
      "ĠtrÃŃ": 1717,
      "Ġmá»ıng": 1718,
      "ĠthÃ¢u": 1719,
      "Ġtáº¡o": 1720,
      "Ġtháº¥m": 1721,
      "Ġmá»ĭt": 1722,
      "iáº¿ng": 1723,
      "Ġtham": 1724,
      "ĠtÆ¡i": 1725,
      "Æ°Æ¡m": 1726,
      "Ġthá»±c": 1727,
      "ĠchÄĥn": 1728,
      "ĠháºŃn": 1729,
      "Ġnghiá»ĩp": 1730,
      "Ġláº¥p": 1731,
      "Ġpháº¥n": 1732,
      "Ġrá»¡": 1733,
      "Ġsuy": 1734,
      "ĠdÃ¢y": 1735,
      "Ġhao": 1736,
      "Ġká»ģ": 1737,
      "ĠÄĳá»ģu": 1738,
      "Ġtháº«n": 1739,
      "á»ķng": 1740,
      "Ġsong": 1741,
      "Ġtá»ĳt": 1742,
      "ÃŃnh": 1743,
      "Ġháº¯t": 1744,
      "ĠdáºŃp": 1745,
      "ĠtÃ´": 1746,
      "ĠsÃ¡u": 1747,
      "Ġchuyá»ĥn": 1748,
      "Ġlá»Ŀ": 1749,
      "Ġsá»Ń": 1750,
      "Ã£n": 1751,
      "Ġnáº¯m": 1752,
      "Ġváº½": 1753,
      "Ġtá»Ļi": 1754,
      "ĠdÃ¡m": 1755,
      "Ġlá»Ļc": 1756,
      "ĠlÆ°á»£n": 1757,
      "ĠlÃ½": 1758,
      "ĠÄĳÃłng": 1759,
      "ĠÄĳÃ¡y": 1760,
      "ĠchiÃªm": 1761,
      "Ġvá»¥": 1762,
      "Ġná»Ļi": 1763,
      "ĠchÃŃnh": 1764,
      "Ġong": 1765,
      "ĠthÃª": 1766,
      "Ġdung": 1767,
      "Ġtháº©n": 1768,
      "ĠÄĳá»ģm": 1769,
      "Ġbáº¥y": 1770,
      "Ġhuyá»ģn": 1771,
      "Ġno": 1772,
      "ĠrÃ©t": 1773,
      "Ġkiá»ģu": 1774,
      "Ġdá»±ng": 1775,
      "Ġbi": 1776,
      "ĠlÃ¹ng": 1777,
      "Ġgiáº£": 1778,
      "Ġxuyáº¿n": 1779,
      "ĠxiÃªu": 1780,
      "Ġnga": 1781,
      "Ġcuá»ĳn": 1782,
      "ĠchuÃ´ng": 1783,
      "Ġlá»Ľp": 1784,
      "ĠcÃły": 1785,
      "ĠÄĳÃºng": 1786,
      "Ġchá»©a": 1787,
      "Ġtreo": 1788,
      "ĠdÃłng": 1789,
      "Ġquáº§n": 1790,
      "ĠrÃło": 1791,
      "ĠÄĳu": 1792,
      "ĠkÃŃn": 1793,
      "Ġkhiáº¿n": 1794,
      "Ġbá»ĳ": 1795,
      "Ġcháº·t": 1796,
      "Ġkhoáº£i": 1797,
      "Ġbá»«ng": 1798,
      "TTTTBB": 1799,
      "Ġkháº½": 1800,
      "ĠtÆ°á»Ŀng": 1801,
      "ĠnÃŃu": 1802,
      "ĠÆ°u": 1803,
      "Ġquá»": 1804,
      "ĠvÅ©": 1805,
      "Ġtao": 1806,
      "ĠchÃª": 1807,
      "Ġhuy": 1808,
      "ĠtrÃł": 1809,
      "Æ°Æ¡n": 1810,
      "TTBTTB": 1811,
      "ĠÄĳÃ³i": 1812,
      "Ġbá»Ŀi": 1813,
      "Ġsáº¯p": 1814,
      "ĠthÃ¡i": 1815,
      "Ġbá»ģnh": 1816,
      "Ġchá»Ł": 1817,
      "Ġtriá»ģn": 1818,
      "ĠviÃªn": 1819,
      "Ġná»¡": 1820,
      "Ġdáº§u": 1821,
      "ĠthoÃ¡t": 1822,
      "Ġlá»Ĺi": 1823,
      "ĠtÃłu": 1824,
      "Ġmáº¡nh": 1825,
      "ĠvÃ¹i": 1826,
      "ĠlÃª": 1827,
      "Ġmáº¿n": 1828,
      "ĠtráºŃn": 1829,
      "Ġpháº¥t": 1830,
      "á»£n": 1831,
      "Ġsáº¯t": 1832,
      "Ġtháº¥u": 1833,
      "ĠkÃŃnh": 1834,
      "Ġgáº¡o": 1835,
      "Ġgiáº·c": 1836,
      "ĠÃŃt": 1837,
      "Ġlá»Ļng": 1838,
      "Ġbuá»ĳt": 1839,
      "Ġcong": 1840,
      "ĠÃ´": 1841,
      "Ġkhoáº£ng": 1842,
      "Ġmá»¹": 1843,
      "Ġrau": 1844,
      "ĠquÃł": 1845,
      "uá»Ļm": 1846,
      "Ġgiá»Ľi": 1847,
      "Ġngoan": 1848,
      "Ġbá»Ľt": 1849,
      "Ġdang": 1850,
      "ĠÄĳÃ³a": 1851,
      "Ġnhuá»Ļm": 1852,
      "ĠmÃłn": 1853,
      "Ġhá»£p": 1854,
      "Ġrá»§": 1855,
      "ĠlÆ¡i": 1856,
      "Ġgá»£i": 1857,
      "á»Ľn": 1858,
      "ĠÄĳáº¥y": 1859,
      "ĠÄĳoÃłn": 1860,
      "Ġvá»Ŀn": 1861,
      "ĠthÃ¹": 1862,
      "Ġngá»«ng": 1863,
      "Ġnan": 1864,
      "Ġbá»ģn": 1865,
      "Ġchua": 1866,
      "ĠsÃ¡nh": 1867,
      "Ġcáº¡nh": 1868,
      "Ġvinh": 1869,
      "á»¡ng": 1870,
      "Ġtrá»ĵng": 1871,
      "Ġthá»ĭt": 1872,
      "Ġlanh": 1873,
      "Ġthá»ķn": 1874,
      "ĠgiÃ¢y": 1875,
      "Ġre": 1876,
      "ĠÄĳáº©y": 1877,
      "ĠÄĳiÃªn": 1878,
      "Ġtiáº¿p": 1879,
      "ĠÄĳáº«m": 1880,
      "Ġma": 1881,
      "Ġdá»«ng": 1882,
      "ĠbÃ£i": 1883,
      "Ġtang": 1884,
      "ĠnÃłn": 1885,
      "ĠbÃ¡nh": 1886,
      "ĠchÃªnh": 1887,
      "ĠnÃ´ng": 1888,
      "ĠÄĳá»īnh": 1889,
      "Ġlá»¥a": 1890,
      "ĠlÆ°Æ¡ng": 1891,
      "Ġgiáº£i": 1892,
      "Ġdáº¡y": 1893,
      "Ġbáº£n": 1894,
      "Ġsu": 1895,
      "ĠlÃ¢ng": 1896,
      "ĠtrÃºc": 1897,
      "á»Ļt": 1898,
      "Ġkhao": 1899,
      "BTTTTB": 1900,
      "Ġhá»©a": 1901,
      "ĠÄĳá»Ļc": 1902,
      "Ġchá»§": 1903,
      "Ġcháº£": 1904,
      "ĠhÃłn": 1905,
      "Ġgiá»įng": 1906,
      "Ġthua": 1907,
      "Ġnguy": 1908,
      "ĠgiáºŃt": 1909,
      "Ġtháº¯ng": 1910,
      "Ġrá»Ľt": 1911,
      "ĠÄĳá»ĵ": 1912,
      "ĠloÃłi": 1913,
      "Ġtháº±ng": 1914,
      "ĠcÃłi": 1915,
      "ĠbÄĥng": 1916,
      "ĠgÃ³p": 1917,
      "ĠkÃ½": 1918,
      "Ġtáº§n": 1919,
      "Ġreo": 1920,
      "Ġcáº¥t": 1921,
      "Ġchiáº¿u": 1922,
      "Ġá»©c": 1923,
      "Ġtruyá»ģn": 1924,
      "ĠphÃ´i": 1925,
      "ĠchÃ¨o": 1926,
      "ĠdÃ¬u": 1927,
      "ĠtÃŃch": 1928,
      "Ġnghá»ī": 1929,
      "ĠkhÃ©p": 1930,
      "Ġcá»¥": 1931,
      "Ġlá»ĵng": 1932,
      "ĠÄĳáºŃu": 1933,
      "ĠhÃłi": 1934,
      "ĠquÃ¡n": 1935,
      "ĠngÄĥn": 1936,
      "Ġháº£i": 1937,
      "Ġruá»Ļt": 1938,
      "ĠngÃ´i": 1939,
      "ĠthÃ¡nh": 1940,
      "ĠxÄĥm": 1941,
      "ĠchÃ´n": 1942,
      "Ġáº£": 1943,
      "ĠmÆ°á»£n": 1944,
      "Ġquang": 1945,
      "Ġkhung": 1946,
      "ĠÄĳá»ģn": 1947,
      "Ġnha": 1948,
      "ĠÆ¡": 1949,
      "ĠláºŃp": 1950,
      "Ġváº¿t": 1951,
      "Ġthinh": 1952,
      "ĠÄĳÆ°Æ¡ng": 1953,
      "ĠbÃ¡o": 1954,
      "ĠÄĳá»¥": 1955,
      "Ã¹n": 1956,
      "Ġláº«n": 1957,
      "Ġrong": 1958,
      "ĠsÆ°á»Ľng": 1959,
      "Ġtiáº¿t": 1960,
      "Ġláº£": 1961,
      "Ġe": 1962,
      "ĠxÃ³a": 1963,
      "ĠgÃ³i": 1964,
      "ĠbiÃªn": 1965,
      "Ġláº§m": 1966,
      "iáº¿p": 1967,
      "ĠhÃ¡i": 1968,
      "ĠcháºŃp": 1969,
      "Ġvua": 1970,
      "Ġhoan": 1971,
      "Ġbá»Ļ": 1972,
      "Ġcháº¡m": 1973,
      "ĠlÆ°á»Ľt": 1974,
      "ĠphÃ¡t": 1975,
      "ĠÃ¡ng": 1976,
      "Ġtrinh": 1977,
      "ĠÄĳá»¡": 1978,
      "Ġlá»¯ng": 1979,
      "Ġngá»Ļ": 1980,
      "ĠbáºŃn": 1981,
      "Ġtáº¡m": 1982,
      "Ġgiáº¥u": 1983,
      "Ã©m": 1984,
      "Ġnhá»įc": 1985,
      "Ġtá»ĭ": 1986,
      "Ġráº±m": 1987,
      "ĠcÃºc": 1988,
      "ĠchÃºa": 1989,
      "Ġlam": 1990,
      "ĠngÃłng": 1991,
      "Ġchen": 1992,
      "BTBBBB": 1993,
      "Ġthuá»ĳc": 1994,
      "ĠlÃ¹a": 1995,
      "ĠnháºŃt": 1996,
      "ĠngÃ¢u": 1997,
      "ĠÄĳá»įc": 1998,
      "Ġtáº£": 1999,
      "Ġngáº«m": 2000,
      "Ġgá»ĳc": 2001,
      "Ġtáº§m": 2002,
      "Ġnháº¯c": 2003,
      "Æ°á»Ľp": 2004,
      "Ġkhen": 2005,
      "Ġhiáº¿u": 2006,
      "ĠÄĳáº¯p": 2007,
      "Ġváº§y": 2008,
      "Ġtháº³ng": 2009,
      "ĠvÃ²": 2010,
      "ĠÄĳua": 2011,
      "Ġchuyáº¿n": 2012,
      "ĠthÃł": 2013,
      "Ä©u": 2014,
      "ĠbÆ°á»Łi": 2015,
      "Ġbáº§y": 2016,
      "ĠÄĳáº£ng": 2017,
      "ĠnÃ³ng": 2018,
      "Ġcháº¡nh": 2019,
      "Ġváº¡t": 2020,
      "ĠÆ°Æ¡m": 2021,
      "Ġmá»ĩt": 2022,
      "Ġáº©n": 2023,
      "ĠvÆ°á»Ľng": 2024,
      "Ġnháº¯n": 2025,
      "Ġtáº¯m": 2026,
      "ĠÃ¡p": 2027,
      "ĠbÃ¨o": 2028,
      "ĠbÃ¹i": 2029,
      "Ġngoáº¡i": 2030,
      "ĠÄĳá»ĭa": 2031,
      "Ġná»ģ": 2032,
      "áºµn": 2033,
      "Ġmáº£i": 2034,
      "ĠdÃły": 2035,
      "Ġcam": 2036,
      "Ġkim": 2037,
      "Ġtháº¯p": 2038,
      "Ġxoay": 2039,
      "Ġnáº§y": 2040,
      "ĠdÃ£i": 2041,
      "Ġbáº¿": 2042,
      "Ġphu": 2043,
      "ĠÄĳiá»ĩn": 2044,
      "Ġbáº½": 2045,
      "Ġtrá»įng": 2046,
      "Ġmáº¯c": 2047,
      "Ġhá»ģ": 2048,
      "ĠsÃ¡ch": 2049,
      "Ġchá»ĳng": 2050,
      "ĠkÃ¬a": 2051,
      "ĠdÃ¹ng": 2052,
      "ĠxÆ°Æ¡ng": 2053,
      "Ġnghi": 2054,
      "Ġtháº¥t": 2055,
      "Ġtiáº¿n": 2056,
      "ĠÄĳá»ĳt": 2057,
      "ĠvÆ°Æ¡n": 2058,
      "ĠrÃªu": 2059,
      "ĠthiÃªng": 2060,
      "Ġcáº£i": 2061,
      "ĠnÃ³n": 2062,
      "ĠtáºŃp": 2063,
      "ĠkhÃ©o": 2064,
      "ĠtrÄ©u": 2065,
      "Ġtuáº§n": 2066,
      "Ġhanh": 2067,
      "ĠxÃºc": 2068,
      "ĠlÄĥn": 2069,
      "ĠnhÆ°á»Ŀng": 2070,
      "Å©ng": 2071,
      "á»ģnh": 2072,
      "ĠthÄĥng": 2073,
      "ĠtÃ¡c": 2074,
      "Ġbiáº¿n": 2075,
      "ĠxÃ´": 2076,
      "Ġvá»£i": 2077,
      "ĠcháºŃm": 2078,
      "ĠlÃ£o": 2079,
      "TTBBB": 2080,
      "ĠgiÃ¡o": 2081,
      "ĠthÃ¢m": 2082,
      "ĠÄĳÃ¡ng": 2083,
      "ĠchÃ¡n": 2084,
      "Ġcá»©u": 2085,
      "ĠnÃ©n": 2086,
      "ĠmáºŃt": 2087,
      "Ġdao": 2088,
      "Ġlá»£i": 2089,
      "Ġchá»įn": 2090,
      "ĠxÃ´n": 2091,
      "ĠtÃ¢n": 2092,
      "Ġcá»±c": 2093,
      "Ġmá»įc": 2094,
      "ĠlÃ¡nh": 2095,
      "Ġcuá»ĵng": 2096,
      "Ġtháº¹n": 2097,
      "ĠháºŃu": 2098,
      "Ġbá»©c": 2099,
      "BTTBBB": 2100,
      "ĠthÆ¡i": 2101,
      "ĠgiÃ£": 2102,
      "Ġngáº¯n": 2103,
      "ĠkhÃŃ": 2104,
      "Ġmáº§m": 2105,
      "Ġláº½o": 2106,
      "ĠluÃ¢n": 2107,
      "Ġlá»Ļi": 2108,
      "Ġhy": 2109,
      "Ġká»ĭp": 2110,
      "ĠlÃ¬a": 2111,
      "ĠphÃº": 2112,
      "Ġgáº¯ng": 2113,
      "ĠÄĳá»¥c": 2114,
      "ĠtÄĥng": 2115,
      "ĠdÃµi": 2116,
      "Ġtáº¯t": 2117,
      "Ġláº·n": 2118,
      "Ġcoi": 2119,
      "Ġrun": 2120,
      "ĠphÆ°á»Ŀng": 2121,
      "Ġsáº¡ch": 2122,
      "Ġtáº§ng": 2123,
      "Ġngá»±a": 2124,
      "Ġrá»ĵng": 2125,
      "Ã³n": 2126,
      "Ġquá»³": 2127,
      "ĠÄĳÃ¨o": 2128,
      "Ġdiá»ĩu": 2129,
      "ĠsÆ¡": 2130,
      "ĠthÃº": 2131,
      "ĠÄĳá»Ľn": 2132,
      "Ġgá»¡": 2133,
      "ĠhÆ°á»Ŀng": 2134,
      "Ġquyá»ģn": 2135,
      "Ġviá»ħn": 2136,
      "ĠghÃª": 2137,
      "Ġdiáº¿t": 2138,
      "Ġcuá»Ļn": 2139,
      "ĠÄĳuá»ķi": 2140,
      "Ġsáºµn": 2141,
      "ĠthuáºŃn": 2142,
      "Ġso": 2143,
      "ĠghÃ©t": 2144,
      "Ġtháº£nh": 2145,
      "Ġtháº£o": 2146,
      "Ġhá»©ng": 2147,
      "á»¥y": 2148,
      "Ġcháº¥p": 2149,
      "ĠgÃ¡c": 2150,
      "Ġdá»ĳc": 2151,
      "Ġthá»Ń": 2152,
      "Ã²i": 2153,
      "ĠtrÆ¡": 2154,
      "Ġchuá»Ĺi": 2155,
      "ĠhÃ´i": 2156,
      "ĠrÄĥng": 2157,
      "Ġváº«y": 2158,
      "Ġkhá»Łi": 2159,
      "ĠnhÃłu": 2160,
      "ĠÄĳiá»ĩp": 2161,
      "Ġleo": 2162,
      "Ġdá»Ĺi": 2163,
      "Ġdi": 2164,
      "ĠÄĳÃ¡m": 2165,
      "Ġlá»©a": 2166,
      "ĠcÆ°á»Ľi": 2167,
      "ĠÄĳáº·t": 2168,
      "ĠthÃ¡c": 2169,
      "ĠphÃ¡p": 2170,
      "Ġná»©c": 2171,
      "Ġbá»ķng": 2172,
      "Ġloang": 2173,
      "Ġdá»ĵn": 2174,
      "Ġvá»ĳn": 2175,
      "ĠvÃłn": 2176,
      "Ġtrá»ķ": 2177,
      "ĠtrÃ¡nh": 2178,
      "ĠtrÄĥn": 2179,
      "ĠÄĳÃły": 2180,
      "ĠdÄ©": 2181,
      "áº¿u": 2182,
      "Ġváº³ng": 2183,
      "Ġoan": 2184,
      "Ġxáº¿p": 2185,
      "Ġyáº¿m": 2186,
      "Ġlau": 2187,
      "áº©u": 2188,
      "á»ĭn": 2189,
      "ĠlÆ°": 2190,
      "á»¥t": 2191,
      "ĠÄĳam": 2192,
      "Ġbuá»Ļc": 2193,
      "Ġneo": 2194,
      "ĠÆ°Æ¡ng": 2195,
      "ĠtÃ¹": 2196,
      "Ġkhuyáº¿t": 2197,
      "ĠgÃ¬n": 2198,
      "ĠmÆ°u": 2199,
      "Ġbá»ĵ": 2200,
      "Ġtháº£m": 2201,
      "ĠmÃłi": 2202,
      "ĠoÃ¡n": 2203,
      "ĠlÃªnh": 2204,
      "ĠniÃªn": 2205,
      "Ġláº§u": 2206,
      "Ġthiá»ĩn": 2207,
      "Ġcá»Ľ": 2208,
      "Ġtháº¯t": 2209,
      "Ġngá»ı": 2210,
      "Ġtru": 2211,
      "Ġvá»Ŀ": 2212,
      "ĠngÃ´": 2213,
      "ĠvÃłnh": 2214,
      "Ġcá»ĵn": 2215,
      "ĠchuyÃªn": 2216,
      "Ġven": 2217,
      "Ġbinh": 2218,
      "ĠÃło": 2219,
      "ĠhÃ³t": 2220,
      "Ġgá»£n": 2221,
      "Ġdáº§m": 2222,
      "Ġthiáº¿p": 2223,
      "Ġdá»©t": 2224,
      "ĠlÃŃnh": 2225,
      "Ġkhai": 2226,
      "Ġlá»Ńng": 2227,
      "ĠÃ©n": 2228,
      "Ġchá»Ńa": 2229,
      "Ġthiá»ģn": 2230,
      "Ġchá»Ŀn": 2231,
      "Ġnáº¥u": 2232,
      "Ġdá»ĳi": 2233,
      "ĠvÃ¢y": 2234,
      "Ġlá»ĭch": 2235,
      "ĠÄĳá»©t": 2236,
      "Ġtrá»ĳn": 2237,
      "Ġvay": 2238,
      "Ġlá»¥y": 2239,
      "Ġnhan": 2240,
      "Ġmáº¡ng": 2241,
      "Ġchá»ĵi": 2242,
      "Ġghen": 2243,
      "Ġnghá»ģ": 2244,
      "ĠÄĳeo": 2245,
      "ĠvÃµng": 2246,
      "TTTTTB": 2247,
      "Ã²e": 2248,
      "Ġcá»§": 2249,
      "Ġráº½": 2250,
      "Ġtoan": 2251,
      "ĠvÃ£ng": 2252,
      "ĠmÆ°á»£t": 2253,
      "ĠphÃ¡o": 2254,
      "Ġquáº¥n": 2255,
      "ĠtrÃ¬nh": 2256,
      "ĠphÃª": 2257,
      "ĠdÆ°á»Ŀng": 2258,
      "Ġgiáº¥y": 2259,
      "BTBBTB": 2260,
      "Ġchá»Ľm": 2261,
      "ĠngÃ¢m": 2262,
      "Ġlá»¯": 2263,
      "Ġsan": 2264,
      "Ġphi": 2265,
      "TTBBBB": 2266,
      "ĠÄĳá»ĳi": 2267,
      "ĠrÃ¡ch": 2268,
      "áº¹o": 2269,
      "Ġkhoai": 2270,
      "ĠphÃ¡": 2271,
      "ĠÄĳÃ²i": 2272,
      "Ġmuá»ĳi": 2273,
      "Ġyáº¿u": 2274,
      "ĠÄĳáº§m": 2275,
      "ĠlÄĥng": 2276,
      "Ġcá»Ļi": 2277,
      "Ġkhe": 2278,
      "ĠrÃ³t": 2279,
      "ĠváºŃn": 2280,
      "ĠbÃ²": 2281,
      "Ġgiá»ıi": 2282,
      "Ġdáº£i": 2283,
      "Ġthiá»ĩt": 2284,
      "Ġgáº¯n": 2285,
      "ĠÄĳÃªnh": 2286,
      "Ġcáº¯t": 2287,
      "ĠvÃµ": 2288,
      "Ġvun": 2289,
      "Ġmiáº¿ng": 2290,
      "ĠtÄ©nh": 2291,
      "Ġá»Ńng": 2292,
      "Ġhon": 2293,
      "ĠmÃ¡y": 2294,
      "ĠtÆ°á»£ng": 2295,
      "Ġnho": 2296,
      "Ġdá»įc": 2297,
      "ĠtÃ´n": 2298,
      "ĠngÆ°": 2299,
      "Ġtá»ĳ": 2300,
      "áº³n": 2301,
      "ĠnÃ¢u": 2302,
      "iá»ĥm": 2303,
      "ĠkhÃª": 2304,
      "Ġnháº±n": 2305,
      "á»ĳm": 2306,
      "uá»Ļt": 2307,
      "ĠÄĳÃ´": 2308,
      "Ġbáº¿p": 2309,
      "ĠvÃŃ": 2310,
      "Ġnhiá»ĩm": 2311,
      "Ġmá»±c": 2312,
      "Ġcan": 2313,
      "ĠmÃ¹ng": 2314,
      "ĠsÃºng": 2315,
      "Ġthá»§a": 2316,
      "ĠthÃªnh": 2317,
      "á»ĵm": 2318,
      "Ġtáº¡": 2319,
      "ĠsÃ¡t": 2320,
      "Ġchá»©c": 2321,
      "iá»ħm": 2322,
      "Ġlá»Ł": 2323,
      "ĠliÃªn": 2324,
      "Ġgan": 2325,
      "ĠrÃ¨m": 2326,
      "ĠrÆ¡m": 2327,
      "ĠdÆ°á»¡ng": 2328,
      "ĠcÃºi": 2329,
      "ĠgiÆ°á»Ŀng": 2330,
      "ĠÄĳÄĥng": 2331,
      "Ġdáº«n": 2332,
      "ĠtrÃ³t": 2333,
      "Ġli": 2334,
      "Ġcáº·p": 2335,
      "Ġnháº¥p": 2336,
      "Ġláº¯c": 2337,
      "ĠthÆ°á»Ľt": 2338,
      "ĠkiÃªu": 2339,
      "ĠtÆ°ng": 2340,
      "ĠphÃ¹ng": 2341,
      "ĠhoÃłn": 2342,
      "ĠxÃ£": 2343,
      "ĠÄĳá»įa": 2344,
      "ĠmÅ©": 2345,
      "ĠhÆ°á»Łng": 2346,
      "ĠmÆ¡n": 2347,
      "Ġbá»¥ng": 2348,
      "Ġcá»ķng": 2349,
      "Ġhuáº¿": 2350,
      "ĠÄĳÃ¬u": 2351,
      "Ġnháº¡n": 2352,
      "Ġnhá»¥y": 2353,
      "Ġmiá»ĩt": 2354,
      "ĠhÃºt": 2355,
      "Ġham": 2356,
      "Ġráº§u": 2357,
      "Ġdá»«a": 2358,
      "ĠtÄĥm": 2359,
      "Ġtáº¿": 2360,
      "ĠÄĳÃ³ng": 2361,
      "ĠnhÃłnh": 2362,
      "Ġhá»įp": 2363,
      "ĠÄĳáº¡n": 2364,
      "ĠnguÃ´i": 2365,
      "Ġvid": 2366,
      "ĠvÄ©nh": 2367,
      "Ġká»ĩ": 2368,
      "ĠhÃ¢y": 2369,
      "Ġtriá»ģu": 2370,
      "Ġtá»©c": 2371,
      "ĠrÃ¬": 2372,
      "ĠÄĳá»Ĺ": 2373,
      "Ġná»į": 2374,
      "ĠmÃłnh": 2375,
      "Ġhong": 2376,
      "ĠÄĳiÃªu": 2377,
      "Ġchá»«": 2378,
      "Ġváº¯t": 2379,
      "ĠnhÃ¡nh": 2380,
      "ĠtÆ°á»Ľng": 2381,
      "Ġhá»Ļ": 2382,
      "Ġsá»¯a": 2383,
      "ĠcÄĥng": 2384,
      "ĠbuÃ´n": 2385,
      "ĠbÃ¹n": 2386,
      "ĠgÃ¢y": 2387,
      "Ġvuá»ĳt": 2388,
      "ĠdÄĥm": 2389,
      "ĠÄĳáºŃp": 2390,
      "Ġtá»¥c": 2391,
      "Ġchuá»ĵn": 2392,
      "ĠbÃ³": 2393,
      "ĠxÃ©": 2394,
      "ĠÄĳoan": 2395,
      "ĠÄĳáº±ng": 2396,
      "Ġchá»¥c": 2397,
      "Ġbáº§n": 2398,
      "Ġquáº£n": 2399,
      "ĠÃª": 2400,
      "ĠÃ¡c": 2401,
      "ĠsÃłi": 2402,
      "ĠtrÃºt": 2403,
      "ĠlÃ¢m": 2404,
      "Ġbom": 2405,
      "Ġkhá»ĳi": 2406,
      "Ġnháº£y": 2407,
      "Ġsum": 2408,
      "Ġtrá»ĭ": 2409,
      "Ġháº¡i": 2410,
      "Ġthai": 2411,
      "Ġmá»ī": 2412,
      "Ġká»ī": 2413,
      "áº¡p": 2414,
      "Ġgiáº¿": 2415,
      "ĠngÃłi": 2416,
      "ĠbÃ¹ng": 2417,
      "Ġxua": 2418,
      "ĠvÃºt": 2419,
      "ĠkhuyÃªn": 2420,
      "Ġghá»ģnh": 2421,
      "ĠngÃºt": 2422,
      "Ġngá»±c": 2423,
      "Ġgiáº¿ng": 2424,
      "Ġdong": 2425,
      "Ġliá»ģu": 2426,
      "Ġkiáº¿n": 2427,
      "Ġthá»ĳng": 2428,
      "Ġloáº¡i": 2429,
      "Ġchá»ĵn": 2430,
      "ĠbÆ¡i": 2431,
      "Ġdáº¯t": 2432,
      "ĠtÃ¡ch": 2433,
      "ĠnÄĥng": 2434,
      "Ġtia": 2435,
      "Ġdá»Ŀi": 2436,
      "Ġtriá»ĩu": 2437,
      "Ġloi": 2438,
      "ĠxuyÃªn": 2439,
      "Ġháº³n": 2440,
      "ĠkiÃªn": 2441,
      "ĠxÃło": 2442,
      "Ġxang": 2443,
      "Ãºm": 2444,
      "Ġluá»ĳng": 2445,
      "ĠkhÃ³e": 2446,
      "Æ°á»Łng": 2447,
      "Ġna": 2448,
      "Ġnguyá»ģn": 2449,
      "ĠvuÃ´ng": 2450,
      "Ġluá»ĵn": 2451,
      "BTTB": 2452,
      "Ġlá»Ļ": 2453,
      "Ġháº£": 2454,
      "ĠxÆ¡": 2455,
      "ĠrÃ¡ng": 2456,
      "ĠcÃ²ng": 2457,
      "ĠhÃ©": 2458,
      "áº¿ch": 2459,
      "Ġmá»ĵi": 2460,
      "ĠphÃ¢y": 2461,
      "Ġxáº¥u": 2462,
      "Ġcua": 2463,
      "ĠhÃ¨n": 2464,
      "Ġlui": 2465,
      "ĠÄĳÆ¡m": 2466,
      "ĠmÃ³n": 2467,
      "ĠcÆ°Æ¡ng": 2468,
      "ĠlÃ£": 2469,
      "Ġliá»ĩu": 2470,
      "ĠhÃ¢n": 2471,
      "Ġbia": 2472,
      "Ġgai": 2473,
      "ĠcÃło": 2474,
      "ĠluáºŃt": 2475,
      "BTTBTB": 2476,
      "ĠchÃ´ng": 2477,
      "ĠgiÃ¡c": 2478,
      "ĠÄĳáº¥u": 2479,
      "á»Ļm": 2480,
      "Ġlá»ģ": 2481,
      "Ġcháº¯t": 2482,
      "Ġkáº»o": 2483,
      "Ġnhá»§": 2484,
      "Ġdiá»ĩt": 2485,
      "Ġchá»ĳc": 2486,
      "Ġkhang": 2487,
      "ĠcÄĥn": 2488,
      "ĠlÃ¡i": 2489,
      "ĠthÆ°á»£ng": 2490,
      "Ġtam": 2491,
      "ĠxÃ¡m": 2492,
      "ĠvÃ£": 2493,
      "ĠngÃ´n": 2494,
      "ĠthÃªu": 2495,
      "ĠnháºŃp": 2496,
      "ĠcÆ°á»Ŀng": 2497,
      "Ġquáº©n": 2498,
      "ĠphÃ©p": 2499,
      "ĠmÃºa": 2500,
      "ĠsÆ°": 2501,
      "Ġnhi": 2502,
      "Ġtháº£n": 2503,
      "Ġtáº±m": 2504,
      "Ġlá»«a": 2505,
      "Ġbáº¡ch": 2506,
      "Ġnáº¿p": 2507,
      "Ġtáº£o": 2508,
      "ĠnhÃłn": 2509,
      "ĠdÃ£": 2510,
      "Ġxuáº¥t": 2511,
      "ĠsÆ°á»Łi": 2512,
      "ĠvÃŃt": 2513,
      "ĠrÃŃt": 2514,
      "Ġxá»ĳn": 2515,
      "Ġninh": 2516,
      "ĠmÃ´": 2517,
      "Ġgiai": 2518,
      "Ġkhua": 2519,
      "ĠtÃºi": 2520,
      "ĠngÃ³n": 2521,
      "ĠquyÃªn": 2522,
      "Ġlá»«ng": 2523,
      "ĠcáºŃn": 2524,
      "Ġsanh": 2525,
      "ĠvÃ´i": 2526,
      "ĠtrÃªu": 2527,
      "ĠphÆ¡": 2528,
      "Ġthong": 2529,
      "Ġlen": 2530,
      "Ġphen": 2531,
      "ĠchÃ¡t": 2532,
      "á»ĥu": 2533,
      "Ġbá»ĵn": 2534,
      "ĠÄĳÃ£ng": 2535,
      "áº£m": 2536,
      "Ġa": 2537,
      "ĠgiÃłnh": 2538,
      "ĠdÆ°a": 2539,
      "ĠsÃłng": 2540,
      "ĠmÃ£": 2541,
      "Ġdá»Ĺ": 2542,
      "Ġmáº«u": 2543,
      "ĠgiÃªng": 2544,
      "Ġá»ĳm": 2545,
      "ĠbÃ¡m": 2546,
      "Ġmá»īm": 2547,
      "ĠÄĳáº¡m": 2548,
      "Ġhiá»ĥm": 2549,
      "Ġlá»±c": 2550,
      "Ġquá»³nh": 2551,
      "Ġquáº½": 2552,
      "Ġhá»Ł": 2553,
      "Ġmá»ĩnh": 2554,
      "ĠnhÃ¨": 2555,
      "TTTBBB": 2556,
      "ĠcÃµng": 2557,
      "Ġngáº¯t": 2558,
      "iáº¿c": 2559,
      "Ġnhang": 2560,
      "Ġkáº¿": 2561,
      "ĠtruÃ¢n": 2562,
      "Ġuá»ĳn": 2563,
      "ĠnhÃ³i": 2564,
      "Ġcá»Ļng": 2565,
      "Ġtá»ĭch": 2566,
      "ĠlÃ¢y": 2567,
      "Ġtui": 2568,
      "Ġbáº¡t": 2569,
      "Ġná»ĳt": 2570,
      "ĠngÆ¡i": 2571,
      "Ġtáº¥c": 2572,
      "Ġlá»ĭ": 2573,
      "Ġthá»ī": 2574,
      "ĠlÆ°á»¡i": 2575,
      "Ġtrá»Ļm": 2576,
      "á»¡n": 2577,
      "Ġcuá»Ļi": 2578,
      "ĠtrÃ¨o": 2579,
      "Ġloáº¡n": 2580,
      "ĠgÃ²n": 2581,
      "Ġcáº¥y": 2582,
      "ĠlÃ¹i": 2583,
      "Ġrinh": 2584,
      "áºŃc": 2585,
      "Ġnuá»ĳt": 2586,
      "Ġlá»Ļn": 2587,
      "ĠkÃ©m": 2588,
      "ĠdiÃªu": 2589,
      "Ġtrá»ģ": 2590,
      "áº½o": 2591,
      "ĠrÃ¬nh": 2592,
      "Ġchá»Ľp": 2593,
      "Ġdáº§y": 2594,
      "ĠÄĳÃ¡p": 2595,
      "ĠdÃ²": 2596,
      "ĠrÃŃu": 2597,
      "ĠcÄĥm": 2598,
      "Ġchuá»ĳi": 2599,
      "Ġbá»Ļn": 2600,
      "ĠbáºŃc": 2601,
      "ĠchÃ³": 2602,
      "ĠghÃ©p": 2603,
      "Ġkhoan": 2604,
      "ĠcÆ°": 2605,
      "ĠthÃ¹ng": 2606,
      "Ġdáº·n": 2607,
      "ĠtÃº": 2608,
      "Ġá»«": 2609,
      "ĠrÃºt": 2610,
      "Ġphá»¥c": 2611,
      "ĠlÃ¡ng": 2612,
      "ĠchÃ¨": 2613,
      "ĠÄĳao": 2614,
      "Ġbiá»ģn": 2615,
      "ĠphÃŃm": 2616,
      "Ġcuá»ĳc": 2617,
      "Ġmáº¡c": 2618,
      "ĠlÃ´ng": 2619,
      "ĠchÆ°Æ¡ng": 2620,
      "Ãµa": 2621,
      "Ġcháº¯p": 2622,
      "Ġná»ĵi": 2623,
      "ĠcÃ¢n": 2624,
      "Ġchinh": 2625,
      "á»¥p": 2626,
      "ĠcÆ°á»Ľp": 2627,
      "Ġháº¡n": 2628,
      "Ġlá»ĭm": 2629,
      "ĠgÃµ": 2630,
      "ĠmÃ£n": 2631,
      "TTBBTB": 2632,
      "Ġmáº¡n": 2633,
      "Ġbá»įn": 2634,
      "ĠghÃ¬": 2635,
      "ĠthÆ°á»Łng": 2636,
      "Ġkhá»ıa": 2637,
      "Ġbon": 2638,
      "Ġbáº¥c": 2639,
      "ĠtÃ¡n": 2640,
      "ĠsÃ´i": 2641,
      "Ġga": 2642,
      "Ġgiáº§u": 2643,
      "Ġf": 2644,
      "ĠÃ²a": 2645,
      "Ġdá»¥c": 2646,
      "ĠmÃ²": 2647,
      "Ġcáº¥p": 2648,
      "ĠrÃ©o": 2649,
      "Ġthá»ı": 2650,
      "ĠkhÃ´i": 2651,
      "Ġvá»¥ng": 2652,
      "ĠnÃ´n": 2653,
      "Ġkhinh": 2654,
      "Ġnguyá»ħn": 2655,
      "ĠvÃ¡ch": 2656,
      "Ġchá»©": 2657,
      "ĠngÅ©": 2658,
      "Ġnghá»ĩ": 2659,
      "Ġnáº¡n": 2660,
      "ĠphÃłng": 2661,
      "Ġmá»ĵng": 2662,
      "ĠxÃ¡": 2663,
      "Ġquáº·n": 2664,
      "ĠtrÃłng": 2665,
      "Ġchang": 2666,
      "Ġchá»©ng": 2667,
      "Ġnhá»ī": 2668,
      "Ġsá»Ńa": 2669,
      "Ġquyáº¿n": 2670,
      "ĠuyÃªn": 2671,
      "ĠthÃ³i": 2672,
      "Ġnghá»ĭch": 2673,
      "áº¹t": 2674,
      "Ġná»ģn": 2675,
      "Ġluyá»ĩn": 2676,
      "ĠchÃ¹m": 2677,
      "ĠmÃ¡c": 2678,
      "ĠbÃło": 2679,
      "ĠchÃ¹ng": 2680,
      "ĠrÃ¢m": 2681,
      "ĠbáºŃu": 2682,
      "Ġtá»Ŀ": 2683,
      "Ġmá»ĭ": 2684,
      "ĠgÃło": 2685,
      "ĠrÆ°á»Ľc": 2686,
      "áºµng": 2687,
      "ĠnÃ´": 2688,
      "ĠtÃ´m": 2689,
      "TT": 2690,
      "Ġsáº£n": 2691,
      "Ġquáº£ng": 2692,
      "Ġtá»Ļc": 2693,
      "Ġtrá»¥": 2694,
      "Ġláº¡y": 2695,
      "Ġnhá»¥c": 2696,
      "Ġtá»ĭnh": 2697,
      "Ġbá»įt": 2698,
      "Ġráº¯c": 2699,
      "ĠphÆ°á»Ľc": 2700,
      "Ġcá»Ń": 2701,
      "Ġloan": 2702,
      "Ġkhoáº£nh": 2703,
      "ĠxÆ°á»Ľng": 2704,
      "ĠbÃŃ": 2705,
      "Ġngá»£i": 2706,
      "ĠÄĳÃ¢m": 2707,
      "Ġhá»ĳi": 2708,
      "Ġngá»±": 2709,
      "Ġráº£i": 2710,
      "ĠÄĳáº¡p": 2711,
      "ĠmÅ©i": 2712,
      "Ġhá»Ŀi": 2713,
      "Ġnhu": 2714,
      "Ġliá»ĩt": 2715,
      "ĠÄĳáº¿": 2716,
      "Ġmiá»ģu": 2717,
      "Ġháº±n": 2718,
      "Ġxáº¡c": 2719,
      "Ġgá»ĵng": 2720,
      "ĠnÃ´i": 2721,
      "Ġbuá»ĵm": 2722,
      "Ġgiá»Ŀi": 2723,
      "ĠvÃ³c": 2724,
      "Ġhiáº¿n": 2725,
      "ĠgiÃłn": 2726,
      "Ġmá»ĳt": 2727,
      "ĠchÃ¡o": 2728,
      "Ġtrá»Ĺi": 2729,
      "Ġsung": 2730,
      "Ãºn": 2731,
      "Ġbáº£ng": 2732,
      "ĠlÃ²": 2733,
      "ĠlÆ°á»Ŀng": 2734,
      "Ġgháº¿": 2735,
      "Ġkháº©u": 2736,
      "Ġbuá»ĵng": 2737,
      "ĠchiÃªu": 2738,
      "ĠtÃªnh": 2739,
      "ĠcÃ¢m": 2740,
      "Ġhang": 2741,
      "Ġháº§u": 2742,
      "ĠlÃ³": 2743,
      "ĠsiÃªu": 2744,
      "Ġvá»Ł": 2745,
      "Ġká»¹": 2746,
      "ĠlÄĥm": 2747,
      "ĠphÅ©": 2748,
      "ĠÄĳuá»ĳi": 2749,
      "Ġláº¥m": 2750,
      "ĠÃ³ng": 2751,
      "ĠkhuÃ´n": 2752,
      "Ġgiáº¿t": 2753,
      "ĠtÃŃt": 2754,
      "Ġthá»į": 2755,
      "ĠxÃµa": 2756,
      "Ġtráº¯c": 2757,
      "Ġngoáº£nh": 2758,
      "Ġdiá»ħm": 2759,
      "Ġngáº¡t": 2760,
      "ĠbÃ©n": 2761,
      "Ġláº¯t": 2762,
      "Ġváº©n": 2763,
      "Ġrá»Ńa": 2764,
      "Ġxoa": 2765,
      "ĠlÃ´": 2766,
      "ĠsÃ³c": 2767,
      "ĠsÆ°a": 2768,
      "Ġsá»¹": 2769,
      "Ġme": 2770,
      "Ġtáº¡c": 2771,
      "ĠcáºŃy": 2772,
      "ĠgÃ£y": 2773,
      "Ġnháº«n": 2774,
      "ĠxÃ´ng": 2775,
      "Ġmá»Ľ": 2776,
      "Ġchai": 2777,
      "ĠnÃµ": 2778,
      "Ġniu": 2779,
      "Ġthuá»Ļc": 2780,
      "Ġhoen": 2781,
      "ĠquÃ£ng": 2782,
      "Ġxui": 2783,
      "ĠÄĳáº±m": 2784,
      "ĠnhÃ´": 2785,
      "ĠluáºŃn": 2786,
      "Ġnai": 2787,
      "Ġnuá»ĳi": 2788,
      "ĠgiÃ¡ng": 2789,
      "ĠcÃ¡m": 2790,
      "Ġsá»Ł": 2791,
      "Ġtá»Ľ": 2792,
      "ĠphiÃªn": 2793,
      "ĠbáºŃt": 2794,
      "Ġcá»Ļt": 2795,
      "ĠngÃ¡c": 2796,
      "Ġmá»Ļc": 2797,
      "Ġxoan": 2798,
      "Ġgiá»¥c": 2799,
      "ĠÄĳáº·ng": 2800,
      "ĠchÆ¡": 2801,
      "Ġhoáº·c": 2802,
      "Ġrá»£p": 2803,
      "Ġchanh": 2804,
      "Ġxá»©ng": 2805,
      "Ġquá»·": 2806,
      "Ġcáº¯n": 2807,
      "Ġmáº¡ch": 2808,
      "ĠvÄ©": 2809,
      "ĠtÃ´ng": 2810,
      "Ġláº¥t": 2811,
      "Ġháº¡c": 2812,
      "Ġrá»Ļ": 2813,
      "Ġkháº¥n": 2814,
      "ĠnÃµn": 2815,
      "ĠhÃ²n": 2816,
      "Ġcháº§m": 2817,
      "Ġran": 2818,
      "ĠtÃ¹ng": 2819,
      "ĠmÃ¢m": 2820,
      "ĠÆ°a": 2821,
      "ĠhÄĥng": 2822,
      "Ġtanh": 2823,
      "Ġvong": 2824,
      "ĠvÃ¡": 2825,
      "ĠtrÆ¡n": 2826,
      "ĠgÃ¡y": 2827,
      "ĠtrÆ°á»Łng": 2828,
      "Ġsáº¥m": 2829,
      "Ġxiáº¿t": 2830,
      "ĠvÃ©n": 2831,
      "Ġxum": 2832,
      "Ġliáº¿c": 2833,
      "uá»ĳm": 2834,
      "ĠláºŃn": 2835,
      "Ġlim": 2836,
      "Ġrá»ī": 2837,
      "ĠtÃ½": 2838,
      "Ãłm": 2839,
      "Ġná»ķ": 2840,
      "Ġráº£": 2841,
      "Ġkhá»©": 2842,
      "ĠlÆ°a": 2843,
      "Ġgáº¥m": 2844,
      "ĠvÃªnh": 2845,
      "Ġtá»ĵn": 2846,
      "Ġbá»Ļi": 2847,
      "Ġchiu": 2848,
      "Ġhá»ķ": 2849,
      "Ġnhuá»ĳm": 2850,
      "ĠtÃ¡o": 2851,
      "ĠlÆ°á»Ľi": 2852,
      "Ġláº«y": 2853,
      "ĠxÃ²e": 2854,
      "Ġni": 2855,
      "ĠngÃ¹ng": 2856,
      "Ġnháº¯m": 2857,
      "Ġbá»ıng": 2858,
      "Ġthon": 2859,
      "ĠkhÃ³m": 2860,
      "Ġsá»ķ": 2861,
      "Ġtro": 2862,
      "Ġnhá»ĭn": 2863,
      "Ġviáº¿ng": 2864,
      "ĠráºŃp": 2865,
      "ĠlÃ´i": 2866,
      "Ġláº¡t": 2867,
      "Ġoanh": 2868,
      "Ġbáº©y": 2869,
      "ĠÄĳuÃ´i": 2870,
      "Ġnháº£": 2871,
      "Ġsá»Ŀ": 2872,
      "ĠrÃ¢u": 2873,
      "ĠrÃ²ng": 2874,
      "Ġtá»Ńu": 2875,
      "ĠchÃ³ng": 2876,
      "Ġkhá»ĳn": 2877,
      "Ġthá»ĭnh": 2878,
      "Ġoai": 2879,
      "Ġáº¥u": 2880,
      "ĠngÃłnh": 2881,
      "ĠÄĳá»ĩ": 2882,
      "Ġáº§m": 2883,
      "ĠbÃ´n": 2884,
      "á»£t": 2885,
      "ĠmÃ´n": 2886,
      "Ġbáº»": 2887,
      "ĠbÃ¹a": 2888,
      "ĠchÃ³i": 2889,
      "Ġphá»Ľi": 2890,
      "Ġcáº¥m": 2891,
      "Ġthoang": 2892,
      "ĠbÃ¬": 2893,
      "ĠdÅ©ng": 2894,
      "Ġdiá»ħn": 2895,
      "Ġvá»±c": 2896,
      "Ġáº£i": 2897,
      "Ġáº©m": 2898,
      "Ġná»ī": 2899,
      "Ġmá»¥c": 2900,
      "Ġcháº¿": 2901,
      "ĠchÆ°ng": 2902,
      "Ġnáº¿t": 2903,
      "Ġpháº£ng": 2904,
      "ĠÆ°á»Ľp": 2905,
      "Ġmá»įng": 2906,
      "ĠbÃ²ng": 2907,
      "ĠnhÄĥn": 2908,
      "Ġbung": 2909,
      "ĠngÆ°á»¡ng": 2910,
      "ĠmÆ°á»Ľt": 2911,
      "ĠtrÃ¬": 2912,
      "ĠthÃ¡p": 2913,
      "Ġnghiá»ĩt": 2914,
      "ĠnÃł": 2915,
      "ĠÄĳáº¡t": 2916,
      "ĠmÃ¨o": 2917,
      "Ġbá»«a": 2918,
      "Ġláº³ng": 2919,
      "ĠÄĳáºŃn": 2920,
      "Ġyáº¿n": 2921,
      "Ġáº§u": 2922,
      "Ġmu": 2923,
      "Ġáº£m": 2924,
      "ĠnghiÃªm": 2925,
      "ĠvÄĥng": 2926,
      "ĠgÃ£": 2927,
      "Ġxung": 2928,
      "ĠÃŃch": 2929,
      "ĠÄĳinh": 2930,
      "Ġngáº¥n": 2931,
      "Ġchuá»Ļt": 2932,
      "Ġle": 2933,
      "Ġcháº£i": 2934,
      "Ġngá»ķn": 2935,
      "Ġráº¡": 2936,
      "Ġdáº¿": 2937,
      "Ġlá»¥t": 2938,
      "ĠngÆ°Æ¡i": 2939,
      "Ġsim": 2940,
      "ĠhÃłm": 2941,
      "ĠlÆ°á»£ng": 2942,
      "Ġcháº¥m": 2943,
      "iáº¿m": 2944,
      "ĠÄĳá»ĳ": 2945,
      "Ġdá»¯": 2946,
      "ĠcÃºng": 2947,
      "Ġxáº»": 2948,
      "Ġvá»ĩ": 2949,
      "Ġngá»Ńa": 2950,
      "Ġrá»įi": 2951,
      "Ġvá»¥n": 2952,
      "Ġtá»ī": 2953,
      "ĠlÃ¬m": 2954,
      "Ġnhá»ĩn": 2955,
      "Ġmá»ĵm": 2956,
      "ĠlÆ°á»£t": 2957,
      "ĠquÃ©t": 2958,
      "ĠchoÃłng": 2959,
      "Ġngá»¯": 2960,
      "ĠbÃºp": 2961,
      "ĠngÆ°á»Ľc": 2962,
      "ĠdÃ£y": 2963,
      "ĠlÃ¢n": 2964,
      "ĠgÆ°Æ¡m": 2965,
      "Ġgáº¥p": 2966,
      "Ġdiá»ĩn": 2967,
      "ĠquÃ½t": 2968,
      "Ġveo": 2969,
      "ĠsÃ³t": 2970,
      "Ġgiáº£n": 2971,
      "Ġráº¡o": 2972,
      "Ġcá»Łi": 2973,
      "ĠÃ´n": 2974,
      "Ġnháº§m": 2975,
      "ĠgiÃ²n": 2976,
      "ĠtÆ°á»Ľi": 2977,
      "ĠlÃºng": 2978,
      "Ġphá»Ŀ": 2979,
      "ĠlÅ©y": 2980,
      "ĠÄĳÄĥm": 2981,
      "ĠbÃª": 2982,
      "ĠthiÃªu": 2983,
      "Ġtiá»ĥu": 2984,
      "ĠmÃµ": 2985,
      "Ġsáº¯n": 2986,
      "Ġthá»ĳt": 2987,
      "Ġváº£i": 2988,
      "Ġhiá»ĥn": 2989,
      "Ġsáº¯m": 2990,
      "Ġnhiá»ĩt": 2991,
      "Ġgiá»¡n": 2992,
      "ĠtáºŃt": 2993,
      "ĠmÄĥng": 2994,
      "Ġsá»ıi": 2995,
      "ĠcÃłn": 2996,
      "Ġhuyáº¿t": 2997,
      "á»·": 2998,
      "ĠÄĳáº£m": 2999,
      "Ġsá»Ŀn": 3000,
      "Ġthoáº¯t": 3001,
      "ĠlÆ°á»£c": 3002,
      "uá»Ļc": 3003,
      "ĠtrÆ°Æ¡ng": 3004,
      "Ġthoáº¡i": 3005,
      "Ġtiá»ĩc": 3006,
      "Ġkiá»ĩt": 3007,
      "Ã²m": 3008,
      "ĠhÃ´": 3009,
      "Ġung": 3010,
      "ĠlÃµng": 3011,
      "Ġbong": 3012,
      "ĠgáºŃp": 3013,
      "Ġvá»¥t": 3014,
      "ĠÃ©p": 3015,
      "ĠbÃ¹": 3016,
      "ĠvÃ£n": 3017,
      "ĠhÆ°ng": 3018,
      "Ġdá»ĭp": 3019,
      "Ġvá»Ľt": 3020,
      "Ġngá»¥c": 3021,
      "ĠtrÃ¹m": 3022,
      "Ġcá»ĳt": 3023,
      "Ġxáº£": 3024,
      "Ġcáº±n": 3025,
      "Ġhá»«ng": 3026,
      "Ġthá»īnh": 3027,
      "ĠÆ°": 3028,
      "ĠphÃ³ng": 3029,
      "TTTBTB": 3030,
      "Ġnhá»Ł": 3031,
      "ĠdÃª": 3032,
      "ĠÄĳá»ĳng": 3033,
      "ĠtháºŃp": 3034,
      "ĠrÃ¨n": 3035,
      "ĠkhoÃ¡c": 3036,
      "Ġchá»«a": 3037,
      "Ġeo": 3038,
      "ĠÄĳá»ĵn": 3039,
      "Ġchuá»ĳc": 3040,
      "Ġgáº·t": 3041,
      "Ġxen": 3042,
      "Ġtáº§u": 3043,
      "ĠhÃ¡n": 3044,
      "Ġlá»ĩnh": 3045,
      "ĠthÆ°á»Ľc": 3046,
      "ĠtÃ²a": 3047,
      "ĠquÃ¢y": 3048,
      "Ġtáº¥p": 3049,
      "Ġá»ĳc": 3050,
      "ĠnhÆ¡": 3051,
      "Ġkiá»ĥu": 3052,
      "ĠxÃ¢m": 3053,
      "Ġlá»ĩch": 3054,
      "ĠÄĳáº·c": 3055,
      "ĠbÃ´i": 3056,
      "ĠngÃ¡n": 3057,
      "Ġchuáº©n": 3058,
      "ĠthÃ³t": 3059,
      "Ġmáº¡": 3060,
      "ĠchÃłnh": 3061,
      "ĠtÃ¡t": 3062,
      "ĠhoÃłnh": 3063,
      "ĠdÃ´ng": 3064,
      "Ġtháº¡ch": 3065,
      "Ġchá»ģ": 3066,
      "Ġnhá»±a": 3067,
      "Ġgá»Ļi": 3068,
      "Ġuy": 3069,
      "ĠÃ¡m": 3070,
      "Ġcáº¯m": 3071,
      "Ġviá»ĩn": 3072,
      "Ġnáº¿m": 3073,
      "Ġlem": 3074,
      "Ġtrá»«": 3075,
      "ĠchÃ²ng": 3076,
      "Ġngáº¥m": 3077,
      "Ġdai": 3078,
      "Ġruá»ķi": 3079,
      "Ġáº¯t": 3080,
      "ĠhÃ¡": 3081,
      "Ġcá»©ng": 3082,
      "Ġngan": 3083,
      "ĠtrÃ²ng": 3084,
      "ĠvÃ¡y": 3085,
      "ĠláºŃt": 3086,
      "ĠnÃ©p": 3087,
      "Ġphá»ĵng": 3088,
      "Ġngao": 3089,
      "ĠlÃ£nh": 3090,
      "ĠvÃ¡c": 3091,
      "ĠphÃ¡ch": 3092,
      "á»¥m": 3093,
      "ĠnhÃ³m": 3094,
      "Ġdá»Ļi": 3095,
      "ĠmÃ¬": 3096,
      "ĠthÃ³c": 3097,
      "ĠbÃ£": 3098,
      "Ġquáº¡t": 3099,
      "ĠthuÃª": 3100,
      "Ġlá»±a": 3101,
      "ĠnhÃło": 3102,
      "Ġrao": 3103,
      "ĠcÃºt": 3104,
      "Ġcháº¯n": 3105,
      "ĠnháºŃu": 3106,
      "Ġvo": 3107,
      "Ġhiá»ĩu": 3108,
      "ĠtrÃ¢n": 3109,
      "Ġcá»ĳc": 3110,
      "ĠlÃ³ng": 3111,
      "Ġlá»£n": 3112,
      "ĠgiÃ¡p": 3113,
      "ĠÃ¡n": 3114,
      "ĠÄĳáº»": 3115,
      "Ġliáº¿ng": 3116,
      "ĠbáºŃp": 3117,
      "Ġday": 3118,
      "Ġdáº±ng": 3119,
      "ĠsuÃ´ng": 3120,
      "ĠbÆ°ng": 3121,
      "Ġhuynh": 3122,
      "Ġmiá»ħn": 3123,
      "ĠvÃ²m": 3124,
      "Ġlá»įt": 3125,
      "Ġbá»ĳi": 3126,
      "ĠnhÃ£": 3127,
      "Ġváº¡c": 3128,
      "Ġgá»įn": 3129,
      "ĠcáºŃu": 3130,
      "Ġtráº¡ng": 3131,
      "Ġduy": 3132,
      "ĠtÃłnh": 3133,
      "ĠhÆ°u": 3134,
      "Ġhoe": 3135,
      "ĠÄĳÃ²n": 3136,
      "Ġnhiá»ħu": 3137,
      "ÃŃa": 3138,
      "ĠlÃ¡c": 3139,
      "Ġthoi": 3140,
      "Ġtuyáº¿n": 3141,
      "Ġmiáº¿t": 3142,
      "Ġláº£ng": 3143,
      "Ġvan": 3144,
      "Ġrá»ģn": 3145,
      "Ġchá»Ńi": 3146,
      "Ġvung": 3147,
      "Ġlá»§": 3148,
      "ĠthÃºc": 3149,
      "ĠthÃ©t": 3150,
      "iá»ģng": 3151,
      "ĠgiÃ²ng": 3152,
      "Ġthui": 3153,
      "ĠtÄĥn": 3154,
      "Ġdá»įn": 3155,
      "Ġháº©m": 3156,
      "ĠdáºŃu": 3157,
      "Ġdáº¡ng": 3158,
      "Ġtáº¥n": 3159,
      "ĠlÃło": 3160,
      "Ġtra": 3161,
      "Ġuáº¥t": 3162,
      "Ġthiu": 3163,
      "Ġhá»¥t": 3164,
      "ĠkhuÃ¢y": 3165,
      "ĠrÆ°á»£i": 3166,
      "ĠthÃły": 3167,
      "Ġnáº¿n": 3168,
      "Ġná»ĭ": 3169,
      "Ġgá»«ng": 3170,
      "Ġchiáº¿m": 3171,
      "Ġhá»ĩ": 3172,
      "ĠtÃłng": 3173,
      "ĠtÃło": 3174,
      "ĠlÃ©n": 3175,
      "Ġdáº»o": 3176,
      "ĠtÃ¡nh": 3177,
      "Ġdá»¥ng": 3178,
      "Ġbá»±c": 3179,
      "ĠcáºŃp": 3180,
      "Ġmá»¥": 3181,
      "ĠvÃ³": 3182,
      "ĠkhoÃ¡i": 3183,
      "ĠkhÃ³a": 3184,
      "Ġlá»įc": 3185,
      "ĠthÃ¬nh": 3186,
      "Ġsá»©": 3187,
      "Ġráº·ng": 3188,
      "ĠtÃ¡p": 3189,
      "Ġnáº£y": 3190,
      "ĠgiÃ¹m": 3191,
      "ĠbÃ¡": 3192,
      "Ġvá»«ng": 3193,
      "Ġgiáº£ng": 3194,
      "ĠngÆ°ng": 3195,
      "Ġro": 3196,
      "Ġgiá»Ĺ": 3197,
      "Ġháº¯n": 3198,
      "Ġngáº§m": 3199,
      "ĠpháºŃp": 3200,
      "Ġlá»ģu": 3201,
      "Ġkáº½": 3202,
      "Ġxá»Ń": 3203,
      "Ġkháº¿": 3204,
      "ĠquÃłng": 3205,
      "Ġláº§y": 3206,
      "Ġphá»ĵn": 3207,
      "Ġráº¯t": 3208,
      "Ġthá»§i": 3209,
      "ĠkÃª": 3210,
      "ĠÃ¹a": 3211,
      "ĠcÃ¹": 3212,
      "Ġgáº¡t": 3213,
      "Ġxi": 3214,
      "ĠrÃłnh": 3215,
      "ĠkhoÄĥn": 3216,
      "Ġsá»Ńu": 3217,
      "Ġcá»Ńu": 3218,
      "Ġnhá»©c": 3219,
      "Ġnhiá»ħm": 3220,
      "ĠbÄĥn": 3221,
      "Ġhiá»ĩp": 3222,
      "ĠxÆ¡i": 3223,
      "Ġrá»ħ": 3224,
      "Ġgháº¹o": 3225,
      "Ġchong": 3226,
      "Ġngá»ĵng": 3227,
      "ĠÄĳÃ£i": 3228,
      "ĠphÃ¹n": 3229,
      "ĠtÃ¹y": 3230,
      "Ġnhá»Ļn": 3231,
      "ĠkÃ¨m": 3232,
      "ĠkhiÃªm": 3233,
      "ĠchÃºm": 3234,
      "ĠnhÃ£n": 3235,
      "Ġtáº¥u": 3236,
      "Ġbáº¡i": 3237,
      "Ġthá»ım": 3238,
      "Ġtiá»ĩn": 3239,
      "Ġbo": 3240,
      "Ġbá»įc": 3241,
      "ĠkhuÃª": 3242,
      "ĠlÆ°á»Ŀi": 3243,
      "ĠdÃ¨": 3244,
      "Ġfa": 3245,
      "ĠÃ³c": 3246,
      "Ġdáº¹p": 3247,
      "Ġdá»±a": 3248,
      "Ġchui": 3249,
      "ĠchÃ©p": 3250,
      "ĠtÃŃn": 3251,
      "Ġgiá»Ł": 3252,
      "ĠÄĳá»ĭch": 3253,
      "Ġgiá»ģ": 3254,
      "Ġbá»ķ": 3255,
      "Ġnung": 3256,
      "Ġnhen": 3257,
      "Ġpháº¡m": 3258,
      "ĠquÃŃ": 3259,
      "Ġtáº¡nh": 3260,
      "Ġcá»ĳi": 3261,
      "ĠÄĳÃ¨": 3262,
      "ĠtrÆ°ng": 3263,
      "ĠkhÃ¢u": 3264,
      "Ġphá»¥ng": 3265,
      "ĠloÃł": 3266,
      "Ġoáº±n": 3267,
      "ĠsÆ°á»Ŀn": 3268,
      "Ġtá»¥ng": 3269,
      "ĠcÆ°ng": 3270,
      "Ġvá»ı": 3271,
      "ĠcÃ´n": 3272,
      "ĠmÃ³c": 3273,
      "un": 3274,
      "Ġrá»§i": 3275,
      "ĠloÃ¡ng": 3276,
      "Ġnhai": 3277,
      "Ġnhá»ĳt": 3278,
      "ĠÄĳÃ¡o": 3279,
      "Ġtrá»Ļn": 3280,
      "ĠÄĳiá»ģn": 3281,
      "Ġgá»Ĺ": 3282,
      "Ġvá»ĭt": 3283,
      "Ġdáº·t": 3284,
      "ĠchÃ³t": 3285,
      "ĠhÃº": 3286,
      "Ġloa": 3287,
      "ĠdÃ¹m": 3288,
      "Ġcá»Ĺ": 3289,
      "Ġgáº§m": 3290,
      "ĠrÃªn": 3291,
      "Ġáº¯p": 3292,
      "ĠnÃ¹ng": 3293,
      "Ġnhá»¡": 3294,
      "Ġsá»¯ng": 3295,
      "ĠlÃ¡ch": 3296,
      "Ġthen": 3297,
      "ĠvÃ¨o": 3298,
      "Ġvoi": 3299,
      "Ġhung": 3300,
      "ĠhuyÃªn": 3301,
      "Ġbáº§m": 3302,
      "Ġbá»§a": 3303,
      "Ġgiá»ģng": 3304,
      "Ġtá»£": 3305,
      "ĠcháºŃt": 3306,
      "ĠgiÅ©": 3307,
      "Ġloanh": 3308,
      "Ġá»Ľt": 3309,
      "Ġtáº¯c": 3310,
      "ĠthÃ¢y": 3311,
      "Ġchuyá»ģn": 3312,
      "Ġmá»ĭn": 3313,
      "Ġrá»©t": 3314,
      "ĠxÃŃch": 3315,
      "ĠkÃ©n": 3316,
      "ĠdÃŃnh": 3317,
      "ĠchÃŃm": 3318,
      "ĠthÃło": 3319,
      "Ġbá»ĳc": 3320,
      "Ġcháº·ng": 3321,
      "Ġmá»ı": 3322,
      "Ġtrá»įc": 3323,
      "ĠÄĳÃ¡c": 3324,
      "Ġmá»¡": 3325,
      "ĠgÆ°á»£ng": 3326,
      "á»įa": 3327,
      "Ġhuá»ĩ": 3328,
      "Ġtá»ĳn": 3329,
      "Ġthá»ķ": 3330,
      "Ġtrá»į": 3331,
      "ĠÆ°ng": 3332,
      "ĠlÃ³t": 3333,
      "ĠquÆ¡": 3334,
      "ĠÄĳÃ¹ng": 3335,
      "ĠvÅ©ng": 3336,
      "Ġhá»Ľn": 3337,
      "Ġteo": 3338,
      "Ġhun": 3339,
      "Ġlá»Ĺ": 3340,
      "ĠliÃªng": 3341,
      "ce": 3342,
      "Ġoi": 3343,
      "ĠnÃ¨": 3344,
      "ĠsÃło": 3345,
      "Ġá»©a": 3346,
      "Ġráº£nh": 3347,
      "Ġmuá»Ļi": 3348,
      "Ġváº¥p": 3349,
      "ĠrÃ¡c": 3350,
      "Ġvon": 3351,
      "ĠthÆ°á»Ł": 3352,
      "ĠmÆ°Æ¡ng": 3353,
      "Ġthá»£": 3354,
      "ĠnÃ²i": 3355,
      "ĠtrÃº": 3356,
      "Ġkhoa": 3357,
      "Ġchá»¥p": 3358,
      "Ġrang": 3359,
      "Ġphá»Ł": 3360,
      "Ġgiáº£m": 3361,
      "Ġnáº¥m": 3362,
      "Ġthá»¥c": 3363,
      "Ġbáº¯n": 3364,
      "ĠngÃ´ng": 3365,
      "Ġmáº¯n": 3366,
      "ĠhÃª": 3367,
      "ĠtrÃ¡ng": 3368,
      "ĠkhÃłng": 3369,
      "ÃŃn": 3370,
      "ĠthÃ¹y": 3371,
      "ĠbÃ¡ch": 3372,
      "ĠkhÃ¹ng": 3373,
      "Ġgá»¥c": 3374,
      "Ġpháº©m": 3375,
      "ĠchÃ©m": 3376,
      "á»Ľp": 3377,
      "Ġtá»·": 3378,
      "áº©ng": 3379,
      "Ġá»ĵn": 3380,
      "Ġtuyá»ģn": 3381,
      "Ġcháº§u": 3382,
      "Ġháº§m": 3383,
      "ĠrÃły": 3384,
      "Ġvá»ĵng": 3385,
      "Ġrá»ĥ": 3386,
      "áº¥ng": 3387,
      "Ġmáº§n": 3388,
      "Ġláº©n": 3389,
      "Ġtráº¡m": 3390,
      "ĠgáºŃt": 3391,
      "Ġpháº£n": 3392,
      "ĠÄĳá»±": 3393,
      "ĠnÃ©m": 3394,
      "ĠgÃ¹": 3395,
      "ĠkhÃ¡": 3396,
      "ĠÄĳung": 3397,
      "Ġphiáº¿n": 3398,
      "ĠÄĳÃºc": 3399,
      "ĠgÃ²": 3400,
      "Ġray": 3401,
      "ĠlÄ©nh": 3402,
      "ĠnáºŃp": 3403,
      "ĠnghiÃªn": 3404,
      "Ġface": 3405,
      "Ġnáº©y": 3406,
      "ĠtrÃ¡n": 3407,
      "ĠsÃ¡": 3408,
      "ĠcÆ°á»¡i": 3409,
      "Ġláº¥n": 3410,
      "Ġhi": 3411,
      "Ġtriá»ĥn": 3412,
      "Ġmáº£ng": 3413,
      "Ġnáº«u": 3414,
      "ĠnhÃłi": 3415,
      "ĠgiÃ£i": 3416,
      "ĠÄĳÃ³m": 3417,
      "Ġcá»§i": 3418,
      "Ġá»©ng": 3419,
      "ĠÄĳÃ²ng": 3420,
      "Ġháº¹p": 3421,
      "ĠlÃŃu": 3422,
      "Ġthá»¥": 3423,
      "Ġvá»©t": 3424,
      "Ġpháº£": 3425,
      "ĠxÃ©t": 3426,
      "Ġbáº¡o": 3427,
      "Ġcháº·n": 3428,
      "ĠnÆ°á»Ľng": 3429,
      "ĠgiÃły": 3430,
      "Ġhá»Ńng": 3431,
      "ĠsÃ¹i": 3432,
      "Ġdá»ĵi": 3433,
      "Ġráº§m": 3434,
      "Ġlá»±": 3435,
      "Ġngáº©ng": 3436,
      "ĠnhÅ©ng": 3437,
      "Ġrá»Ŀn": 3438,
      "Ġluá»ĵng": 3439,
      "ĠmáºŃn": 3440,
      "Ġliá»ĩng": 3441,
      "Ġnghá»ĭ": 3442,
      "Ġhuyá»ħn": 3443,
      "Ġnuá»Ļt": 3444,
      "Ġnghiá»ĩm": 3445,
      "Ġthoa": 3446,
      "Ġcá»į": 3447,
      "Ġcá»£t": 3448,
      "Ġthá»¯ng": 3449,
      "Ġnáº¯n": 3450,
      "Ġmáº¯m": 3451,
      "ĠnhÃº": 3452,
      "á»³": 3453,
      "ĠnÃŃn": 3454,
      "ĠtrÃ³i": 3455,
      "Ġkáº¹t": 3456,
      "ĠtoÃ¡n": 3457,
      "ĠÄĳáº¯n": 3458,
      "Ġcheo": 3459,
      "ĠngÃ³i": 3460,
      "Ġquáº¿": 3461,
      "Ġrá»Ĺi": 3462,
      "Ġsiáº¿t": 3463,
      "ĠrÃ´": 3464,
      "Ġráº»": 3465,
      "ĠÄĳiáº¿u": 3466,
      "ĠvÃ¡n": 3467,
      "ĠmÃ©": 3468,
      "ĠmÄ©": 3469,
      "ĠdáºŃt": 3470,
      "Ġkhan": 3471,
      "ĠgiáºŃu": 3472,
      "Ġmá»Łn": 3473,
      "Ġhuyá»ĩn": 3474,
      "ĠrÄĥn": 3475,
      "ĠphÃłm": 3476,
      "ĠbÃµ": 3477,
      "ĠcháºŃu": 3478,
      "Ġhá»Łi": 3479,
      "Ġquáº¥t": 3480,
      "Ġbá»ĩn": 3481,
      "Ġhá»ķng": 3482,
      "Ġmáº»": 3483,
      "Ġdim": 3484,
      "Ġráº¯n": 3485,
      "Ġtuá»ĩ": 3486,
      "Ġnáº¥c": 3487,
      "Ġnáº§n": 3488,
      "ĠnhoÃłi": 3489,
      "Ġnáº£n": 3490,
      "Ġráº©y": 3491,
      "ĠÄĳoÃłi": 3492,
      "ĠchÃły": 3493,
      "ĠvÃ¢ng": 3494,
      "Ġthung": 3495,
      "Ġá»§i": 3496,
      "ĠthÃºy": 3497,
      "ĠmÃŃt": 3498,
      "Ġnhá»ĭ": 3499,
      "ĠÄĳÄ©": 3500,
      "ĠvÆ°á»£ng": 3501,
      "ĠtrÃºng": 3502,
      "ĠkÃ¬": 3503,
      "Ġkeo": 3504,
      "Ã½t": 3505,
      "ĠÄĳá»Ĺi": 3506,
      "ĠÄĳáº³ng": 3507,
      "ĠÄĳáº§n": 3508,
      "ĠphÃł": 3509,
      "Ġcuá»ĵn": 3510,
      "Ġchuá»ĳt": 3511,
      "Ġcháº¿ch": 3512,
      "ĠvÃ¡i": 3513,
      "Ġgáº·m": 3514,
      "ĠsÃ©t": 3515,
      "ĠquÃ¡i": 3516,
      "Ġáº¥n": 3517,
      "Ġchá»¯a": 3518,
      "Ġmá»ĳc": 3519,
      "ĠsÄĥn": 3520,
      "ĠrÃŃch": 3521,
      "Ġkháº£m": 3522,
      "ĠÄĳá»£t": 3523,
      "ĠÄĳÃ¡u": 3524,
      "ĠlÃ¬": 3525,
      "ĠbÃ¡i": 3526,
      "ĠhÃ£i": 3527,
      "Ġná»©t": 3528,
      "Ġcáº©n": 3529,
      "Ġlá»¥i": 3530,
      "Ġva": 3531,
      "ĠgáºŃy": 3532,
      "Ġtiá»ģm": 3533,
      "ĠtrÃ£i": 3534,
      "Ġkhiáº¿t": 3535,
      "ĠphÃ´": 3536,
      "ĠÄĳá»±ng": 3537,
      "ĠtrÃ¢m": 3538,
      "Ġganh": 3539,
      "ĠchoÃ¡ng": 3540,
      "ĠgiÃ¡m": 3541,
      "Ġáº¿": 3542,
      "Ġsá»¥t": 3543,
      "ĠxiÃªm": 3544,
      "Ġcá»¥c": 3545,
      "ĠcÃ²i": 3546,
      "Ġchá»Ľi": 3547,
      "Ġcá»ĳm": 3548,
      "Ġtrá»ħ": 3549,
      "Å©a": 3550,
      "áº«ng": 3551,
      "Ġmo": 3552,
      "ĠlÃ¡t": 3553,
      "ĠtÃŃa": 3554,
      "ĠlÅ©ng": 3555,
      "ĠxoÃ¡y": 3556,
      "Ġáº¿ch": 3557,
      "Ġmá»ĭch": 3558,
      "Ġthoáº£i": 3559,
      "Ġmáº©n": 3560,
      "Ġtháº»": 3561,
      "ĠnÄĥn": 3562,
      "ĠdÃ©p": 3563,
      "ĠxiÃªn": 3564,
      "ĠÃºt": 3565,
      "Ġhá»ıa": 3566,
      "Ġráº«y": 3567,
      "ĠÄĳÃ¬a": 3568,
      "Ġá»Ŀ": 3569,
      "Ġhá»ĳ": 3570,
      "ĠchÃ¢m": 3571,
      "ĠhÃ²ng": 3572,
      "Ġnáº¥y": 3573,
      "ĠrÃ¡t": 3574,
      "Ġhá»§": 3575,
      "Ġquáº¯t": 3576,
      "Ġvá»ĩt": 3577,
      "Ġtráº¥n": 3578,
      "Ġá»ķn": 3579,
      "ĠngÆ°u": 3580,
      "Ġtrá»±c": 3581,
      "Ġá»ķ": 3582,
      "ĠtuyÃªn": 3583,
      "ĠngÆ°á»£ng": 3584,
      "Ġvá»ĭn": 3585,
      "Ġchá»įc": 3586,
      "Ġháº£o": 3587,
      "ĠkÃªnh": 3588,
      "Ġdinh": 3589,
      "ĠchiÃªng": 3590,
      "Ġtá»ķng": 3591,
      "Ġtáº£n": 3592,
      "ĠlÃ¬nh": 3593,
      "ĠdÃ¬": 3594,
      "Ġkháº£i": 3595,
      "Ġgiam": 3596,
      "Ġpháº¡t": 3597,
      "Ġbiá»ĥu": 3598,
      "Ġgang": 3599,
      "Ġgay": 3600,
      "Ġdá»Ńng": 3601,
      "ĠcÃ¡o": 3602,
      "Ġgáº¡ch": 3603,
      "ĠkhÃ¡nh": 3604,
      "ĠkhÃŃch": 3605,
      "ĠnghÃª": 3606,
      "ĠtÃªm": 3607,
      "ĠphÃ³": 3608,
      "Ġláº¡ng": 3609,
      "ĠÄĳá»Ŀn": 3610,
      "ĠvÃ£i": 3611,
      "ĠnÃ¡o": 3612,
      "Ġdá»ģnh": 3613,
      "Ġroi": 3614,
      "Ġngáº§u": 3615,
      "Ġrá»Ĺng": 3616,
      "Ġuá»ķng": 3617,
      "ĠtÃ©p": 3618,
      "Ġcáº©m": 3619,
      "ĠchÆ°á»Ľng": 3620,
      "ĠkÃ¨n": 3621,
      "áº»m": 3622,
      "ĠthÃ¡ch": 3623,
      "ĠbÆ°Æ¡n": 3624,
      "Ġhá»ī": 3625,
      "Ġtrá»¥i": 3626,
      "Ġbáº©n": 3627,
      "Ġdáº«m": 3628,
      "ĠÄĳá»Ŀ": 3629,
      "Ġláº¹": 3630,
      "Ġkáº½o": 3631,
      "Ġcáº¯p": 3632,
      "ĠÄĳáº¯c": 3633,
      "ĠmÆ°á»Ľp": 3634,
      "Ġbáº·t": 3635,
      "ĠchÃłi": 3636,
      "Ġnheo": 3637,
      "ĠdÃł": 3638,
      "Ġcháº¡p": 3639,
      "ĠchÆ°á»Ŀng": 3640,
      "Ġdá»Ļt": 3641,
      "ĠcÃ³c": 3642,
      "Ġtráº±n": 3643,
      "Ġphá»ķ": 3644,
      "ĠmÆ°á»Ŀng": 3645,
      "Ġtruyá»ĩn": 3646,
      "Ġmáº¯ng": 3647,
      "Ġsá»«ng": 3648,
      "ĠxÃ¬": 3649,
      "Ġkháº£y": 3650,
      "Ġthe": 3651,
      "Ġhá»ıng": 3652,
      "ĠgiÃ²": 3653,
      "ĠtÃºng": 3654,
      "Ġcá»ıi": 3655,
      "ĠlÃ²e": 3656,
      "ĠbÃ³n": 3657,
      "ĠsiÃªng": 3658,
      "ĠÃ¡": 3659,
      "Ġcáº§y": 3660,
      "Ġchá»ĳi": 3661,
      "ĠhÃ´ng": 3662,
      "ĠÄĳáº¥ng": 3663,
      "á»µ": 3664,
      "ĠtÃ©": 3665,
      "ĠcÃ¡n": 3666,
      "ĠhÃ³ng": 3667,
      "ĠlÃºm": 3668,
      "ĠbÃ©o": 3669,
      "Ġhá»·": 3670,
      "Ġháº«ng": 3671,
      "Ġtrá»©ng": 3672,
      "Ġkiá»ĥm": 3673,
      "ĠÄĳÄ©a": 3674,
      "ĠnhÃ²e": 3675,
      "Ġdá»ģ": 3676,
      "Ġxá»Ľi": 3677,
      "Ġkháº©n": 3678,
      "Ġtuá»ĵng": 3679,
      "ĠmÃŃa": 3680,
      "Ġhan": 3681,
      "Ġsá»ĳt": 3682,
      "Ġkhá»ī": 3683,
      "ĠcÆ¡i": 3684,
      "Ġthá»ĩ": 3685,
      "Ġnhá»ķ": 3686,
      "Ġchá»±c": 3687,
      "Ġcá»¡": 3688,
      "ĠgiÆ¡": 3689,
      "Ġbiáº¿ng": 3690,
      "ĠcÃº": 3691,
      "Ġlon": 3692,
      "ĠnhÃ¢m": 3693,
      "Ġchá»īnh": 3694,
      "ĠhÃ£": 3695,
      "Ġdá»¥": 3696,
      "ĠxÃł": 3697,
      "ĠÄĳoÃ¡n": 3698,
      "Ġnhá»Łn": 3699,
      "Ġlá»į": 3700,
      "Ġtrá»£": 3701,
      "Ġhoay": 3702,
      "Ġá»ķi": 3703,
      "Ġtá»ģ": 3704,
      "ĠcÃ£i": 3705,
      "ĠlÃ³c": 3706,
      "ĠthÃ²": 3707,
      "Ġnháº½o": 3708,
      "ĠxÃłi": 3709,
      "ĠxÆ°ng": 3710,
      "á»ĥnh": 3711,
      "Ġvá»ĭnh": 3712,
      "Ġmiáº¿u": 3713,
      "Ġbáº¥m": 3714,
      "Ġpháº¿": 3715,
      "Ġpháº³ng": 3716,
      "Ġdá»Ŀ": 3717,
      "ĠnghÃ©": 3718,
      "Ġráº§y": 3719,
      "Å©i": 3720,
      "Ġváº¡ch": 3721,
      "Ġráº¡ch": 3722,
      "Ġquai": 3723,
      "Ġnháº¥m": 3724,
      "Ġloay": 3725,
      "Ġáº¡": 3726,
      "ĠtÃ²ng": 3727,
      "Ġcá»įng": 3728,
      "Æ°á»Ľn": 3729,
      "Ġnhem": 3730,
      "Ġgáº¯m": 3731,
      "Ġdoanh": 3732,
      "Ġcá»ĳng": 3733,
      "Ġbáº¯p": 3734,
      "Ġtuyá»ĥn": 3735,
      "áºµm": 3736,
      "Ġcá»±": 3737,
      "Ġbang": 3738,
      "ĠhÃªn": 3739,
      "Ġquáº¡": 3740,
      "ĠÄĳai": 3741,
      "ĠnÅ©ng": 3742,
      "Ġngá»Ľ": 3743,
      "ĠtrÆ°á»£t": 3744,
      "Ġkhoang": 3745,
      "Ġkhuáº¥y": 3746,
      "Ġlá»ĳc": 3747,
      "ĠbÃ³p": 3748,
      "Ġchay": 3749,
      "Ġná»Ļ": 3750,
      "Ġhoáº¡n": 3751,
      "ĠquÄĥng": 3752,
      "Ġghe": 3753,
      "Ġlá»ıng": 3754,
      "Ġrá»ĭn": 3755,
      "Ġngoa": 3756,
      "Ġbá»Ľi": 3757,
      "Ġá»ĳng": 3758,
      "ĠÄĳÅ©a": 3759,
      "Ġbá»¥t": 3760,
      "ĠchÃ¡nh": 3761,
      "Ġhiáº¿m": 3762,
      "ĠphÃ¡i": 3763,
      "Ġgáº¯t": 3764,
      "Ġri": 3765,
      "Ġguá»ĳc": 3766,
      "Ġláº½n": 3767,
      "Ġkiá»ĩu": 3768,
      "ĠhÃ¢m": 3769,
      "ok": 3770,
      "Ġphim": 3771,
      "Ġxuá»ĵng": 3772,
      "ĠcÃ²m": 3773,
      "Ġhuá»ģ": 3774,
      "ĠÄĳá»¥ng": 3775,
      "Ġbáº½n": 3776,
      "ĠtÃºc": 3777,
      "ĠbÃ¬m": 3778,
      "Ġrá»©a": 3779,
      "Ġhoáº¡ch": 3780,
      "Ġnua": 3781,
      "Ġnhá»«": 3782,
      "ĠmÃ¢n": 3783,
      "Ġmáº¡i": 3784,
      "Ġhá»ĳt": 3785,
      "Ġcáº£n": 3786,
      "ĠthuáºŃt": 3787,
      "Ġbáº½o": 3788,
      "Ġcuá»ĳng": 3789,
      "Ġtrá»Ľ": 3790,
      "ĠsÃł": 3791,
      "ĠrÃ³c": 3792,
      "ĠÆ°á»Ľm": 3793,
      "Ġcá»Ĺi": 3794,
      "ĠbÃŃch": 3795,
      "Ġsáº£i": 3796,
      "ĠsáºŃp": 3797,
      "ĠdÃ¢m": 3798,
      "uá»Ļi": 3799,
      "ĠvÃ©t": 3800,
      "Ġtráº¡i": 3801,
      "Ġgiáº·t": 3802,
      "Ġphau": 3803,
      "ĠchÃ¬": 3804,
      "ĠhÃŃt": 3805,
      "Ġná»ı": 3806,
      "ĠbÃ¨n": 3807,
      "ĠkÃŃch": 3808,
      "Ġbá»ĭn": 3809,
      "Ġbook": 3810,
      "Ġháº¥p": 3811,
      "Ġnong": 3812,
      "Ġná»ĵm": 3813,
      "Ġranh": 3814,
      "Ġhoáº£i": 3815,
      "Ġváº±ng": 3816,
      "Ġkhoanh": 3817,
      "Ġá»ī": 3818,
      "Ġcáº³ng": 3819,
      "ĠÄĳuá»ĳc": 3820,
      "ĠvÃª": 3821,
      "Ġná»±c": 3822,
      "ĠnhÃ¬": 3823,
      "ĠdÆ¡": 3824,
      "ĠlÃ³e": 3825,
      "Ġláº»o": 3826,
      "ĠhÃŃ": 3827,
      "Ġnhoi": 3828,
      "ĠphÃ¬": 3829,
      "Ġtoang": 3830,
      "Ġthau": 3831,
      "Ġbiáº¿u": 3832,
      "Ġgiáº¡t": 3833,
      "Ġphá»Ľt": 3834,
      "Ġtháº«m": 3835,
      "Ġnguá»Ļi": 3836,
      "Ġkhom": 3837,
      "ĠngoÃ¡i": 3838,
      "Ġuyá»ĥn": 3839,
      "ĠvÃ©o": 3840,
      "Ġtrá»ķi": 3841,
      "ĠvÃŃa": 3842,
      "ĠmÃ£nh": 3843,
      "Ġthiá»ĩp": 3844,
      "Ġniáº¿t": 3845,
      "ĠÄĳom": 3846,
      "ĠÄĳÃ¹m": 3847,
      "Ġha": 3848,
      "ĠnhÆ°Æ¡ng": 3849,
      "Ġphá»ī": 3850,
      "uyáº¿t": 3851,
      "Ġbá»¡": 3852,
      "ĠnhÆ¡n": 3853,
      "Ġko": 3854,
      "ĠdÃŃu": 3855,
      "ĠphÃ¨o": 3856,
      "Ġlá»§i": 3857,
      "Ġná»ĭu": 3858,
      "Ġngoai": 3859,
      "Ġngoáº¡n": 3860,
      "ĠngÃ¡i": 3861,
      "ĠgiÆ°Æ¡ng": 3862,
      "Ġxá»ī": 3863,
      "Ġtá»ĳc": 3864,
      "ĠthÃŃ": 3865,
      "Ġxoáº£i": 3866,
      "Ġty": 3867,
      "Ġtá»ĳng": 3868,
      "ĠbÃłnh": 3869,
      "ĠgÅ©i": 3870,
      "ĠghÃ¬m": 3871,
      "Ġná»ĭnh": 3872,
      "ĠÄĳáº©u": 3873,
      "Ġnoi": 3874,
      "Ġtrau": 3875,
      "ĠnhÃ¡": 3876,
      "Ġphe": 3877,
      "áº»n": 3878,
      "Ġbe": 3879,
      "Ġtoi": 3880,
      "ĠÃºp": 3881,
      "ĠÄĳÃŃch": 3882,
      "ĠlÆ°á»£m": 3883,
      "ĠnÃªu": 3884,
      "Ãµm": 3885,
      "Ġphanh": 3886,
      "Ġnhá»ĵi": 3887,
      "Ġdá»¡": 3888,
      "Ġrá»©c": 3889,
      "ĠgiÃ£n": 3890,
      "Ġtá»ĵi": 3891,
      "ĠmÃ²i": 3892,
      "ĠchÃł": 3893,
      "Ġviá»ģn": 3894,
      "Ġrai": 3895,
      "Ġkhiáº¿p": 3896,
      "Ġte": 3897,
      "Ġcai": 3898,
      "Ġz": 3899,
      "ĠÄĳáº¯t": 3900,
      "Ġnom": 3901,
      "ĠrÃ¹a": 3902,
      "ĠkhiÃªn": 3903,
      "Ġhá»Ļp": 3904,
      "ĠlÃ£i": 3905,
      "ĠloÃ£ng": 3906,
      "Ġchá»ķ": 3907,
      "ĠhÃ¡o": 3908,
      "Ġghim": 3909,
      "ĠphÃ¡n": 3910,
      "Ġbá»ī": 3911,
      "Ġná»ĩ": 3912,
      "Ġtoáº¡i": 3913,
      "ĠsÃłnh": 3914,
      "Ġkáº¹o": 3915,
      "ĠquáºŃn": 3916,
      "Æ°á»Ŀm": 3917,
      "Ġnghiá»ĩn": 3918,
      "ĠÄĳiá»ĥn": 3919,
      "ĠbÃ¢n": 3920,
      "Ġnháº§u": 3921,
      "ĠsÃłn": 3922,
      "ĠdÄĥng": 3923,
      "Ġluá»Ļc": 3924,
      "ĠbÃ¡u": 3925,
      "ĠvÃ´ng": 3926,
      "ĠÄĳá»ĳm": 3927,
      "Ġmáº«n": 3928,
      "ĠthÃŃnh": 3929,
      "ĠvÃ¹": 3930,
      "Ġháº»m": 3931,
      "Ġngáº¡o": 3932,
      "ĠngÃ²i": 3933,
      "ĠthÃºng": 3934,
      "Ġchá»ĳt": 3935,
      "Ġngai": 3936,
      "ĠnhÃ¡t": 3937,
      "Ġráº£o": 3938,
      "Ġhoáº£ng": 3939,
      "Ġtrá»ĭnh": 3940,
      "Ġmá»µ": 3941,
      "ĠhÃ©t": 3942,
      "ĠdÃłn": 3943,
      "ĠxÃ²a": 3944,
      "Ġchuá»ĵng": 3945,
      "Ġvá»Łn": 3946,
      "ĠthÃ¡o": 3947,
      "Ġtháº£ng": 3948,
      "ĠsÅ©ng": 3949,
      "Ġngá»¥p": 3950,
      "Ġtráº©y": 3951,
      "Ġi": 3952,
      "ĠÄĳáºŃy": 3953,
      "Ġváº·c": 3954,
      "Ġngáº«u": 3955,
      "ĠnÃºp": 3956,
      "ĠnhÅ©": 3957,
      "Ġsáº«m": 3958,
      "ĠkhÃªu": 3959,
      "Ġtuáº¿": 3960,
      "ĠmÃºc": 3961,
      "Ġbá»ĭt": 3962,
      "ĠngÃ£i": 3963,
      "ĠkhÃ¡ng": 3964,
      "ĠkhÃ¡m": 3965,
      "ĠmÃ©p": 3966,
      "Ġbáº«y": 3967,
      "Ġgiá»ı": 3968,
      "Ġtá»±u": 3969,
      "ĠchÃŃch": 3970,
      "Ġlá»Łn": 3971,
      "ĠÄĳÃ¹i": 3972,
      "Ġmuá»ĳng": 3973,
      "Ġthá»Ľt": 3974,
      "Ġthuyáº¿t": 3975,
      "ĠbÃºa": 3976,
      "Ġgáº¡n": 3977,
      "Ġngá»§i": 3978,
      "ĠmÃ³ng": 3979,
      "ĠvÆ°á»Łng": 3980,
      "Ġnáº»": 3981,
      "Ġráº¡n": 3982,
      "ĠthÃ©p": 3983,
      "Ġhuyá»ĩt": 3984,
      "ĠrÃ£i": 3985,
      "á»£m": 3986,
      "Ġyá»ĥu": 3987,
      "Ġnu": 3988,
      "Ġdáº¡n": 3989,
      "ĠrÄĥm": 3990,
      "ĠnghÃªnh": 3991,
      "á»±ng": 3992,
      "Ġmuá»Ĺi": 3993,
      "ĠlÃ³i": 3994,
      "Ġváº·t": 3995,
      "Ġxáº¯n": 3996,
      "Ġhá»Ĺ": 3997,
      "Ġngáº«n": 3998,
      "Ġdan": 3999,
      "Ġquáº±n": 4000,
      "Ġcá»±u": 4001,
      "ĠáºŃp": 4002,
      "ĠbiÃªng": 4003,
      "Ġkha": 4004,
      "Ġphan": 4005,
      "ĠxoÃłi": 4006,
      "ĠcÆ°u": 4007,
      "ĠmÃ©o": 4008,
      "ĠchÃ¬a": 4009,
      "Ġngá»¥y": 4010,
      "Ġlá»¥n": 4011,
      "ĠvÃ²i": 4012,
      "ĠhÆ¡": 4013,
      "Ġnhá»įn": 4014,
      "ĠtuÃ´ng": 4015,
      "ĠniÃªm": 4016,
      "Ġá»ĳ": 4017,
      "Ġláº£nh": 4018,
      "ĠthÃ´": 4019,
      "Ġcháº§y": 4020,
      "Ġsáº£ng": 4021,
      "Ġkem": 4022,
      "ĠxÃ¬nh": 4023,
      "ĠmÃµi": 4024,
      "Ġnháº¥n": 4025,
      "ĠxÃ¢u": 4026,
      "ĠkhÆ°": 4027,
      "Ġpa": 4028,
      "Ġtá»ķn": 4029,
      "ĠÃ¹": 4030,
      "Ġváº»o": 4031,
      "ĠhÄĥm": 4032,
      "Ġnáºµng": 4033,
      "Ġtruy": 4034,
      "Ġtrá»ĵi": 4035,
      "Ġxáº£y": 4036,
      "Ġthá»ĳi": 4037,
      "ĠbÃªnh": 4038,
      "Ġvá»ī": 4039,
      "Ġváº¯n": 4040,
      "ĠhÃ¡m": 4041,
      "Ġnháº±m": 4042,
      "ĠkhÃ¬": 4043,
      "Ġruá»ĵi": 4044,
      "ĠÃ©o": 4045,
      "Ġmá»§": 4046,
      "Ġliá»ģm": 4047,
      "ĠxÄĥng": 4048,
      "Ġthuáº§n": 4049,
      "Ġcá»¥m": 4050,
      "Ġcá»įc": 4051,
      "Ġmá»ģn": 4052,
      "ĠbÃ³c": 4053,
      "Ġtrá»¯": 4054,
      "Ġkiá»ĩn": 4055,
      "Ġkhá»ģ": 4056,
      "ĠquÃŃt": 4057,
      "Ġtuá»Ļt": 4058,
      "ĠtháºŃn": 4059,
      "Ġbá»©t": 4060,
      "ĠbÃºn": 4061,
      "Ġcháº»": 4062,
      "Ġváº¹o": 4063,
      "ĠtrÃłnh": 4064,
      "ĠÄĳá»ĩm": 4065,
      "Ġtá»įa": 4066,
      "ĠmÃ¨m": 4067,
      "ĠnÃªm": 4068,
      "ĠtrÆ°á»Ľng": 4069,
      "á»ĩu": 4070,
      "Ġnghiá»ģn": 4071,
      "Ġduá»Ĺi": 4072,
      "ĠxÃ¡ch": 4073,
      "ĠrÃł": 4074,
      "ĠrÃ¡o": 4075,
      "Ġnhoáº»n": 4076,
      "ĠchÆ°": 4077,
      "Ġbai": 4078,
      "ĠvÃ©": 4079,
      "ĠgÃ¢n": 4080,
      "Ġghiá»ģn": 4081,
      "BBBBB": 4082,
      "ĠmÆ°á»Ľn": 4083,
      "ĠchÃłm": 4084,
      "Ġváº¡": 4085,
      "Ġuáº©n": 4086,
      "BBBBBT": 4087,
      "Ġcá»±a": 4088,
      "ĠmáºŃp": 4089,
      "ĠchÃ¹n": 4090,
      "Ġgáº£y": 4091,
      "Ġsáº¡n": 4092,
      "ĠdÃ¬m": 4093,
      "Ġkháº¥t": 4094,
      "Ġmy": 4095,
      "Ġná»ĥ": 4096,
      "Ġngá»į": 4097,
      "Ġkiá»ĩm": 4098,
      "Ġbá»Ŀm": 4099,
      "Ġom": 4100,
      "ĠdÃ²m": 4101,
      "ĠtÃ¢u": 4102,
      "Ġvá»įt": 4103,
      "ĠphÄĥng": 4104,
      "ĠquáºŃt": 4105,
      "ĠchiÃªn": 4106,
      "Ġá»©": 4107,
      "ĠÄĳÃ¹n": 4108,
      "Ġtháº£y": 4109,
      "ĠnÃ¡u": 4110,
      "ĠÄĳÃłm": 4111,
      "ĠÄĳá»Ļt": 4112,
      "ĠtÃºy": 4113,
      "ĠÄĳáº£": 4114,
      "ĠÄĳá»Ļn": 4115,
      "ĠchÃ£": 4116,
      "Ġtáº»": 4117,
      "Ġngá»£p": 4118,
      "Ġnháº½": 4119,
      "Ġtiáº¿u": 4120,
      "Ġtáº¡t": 4121,
      "ĠbÃº": 4122,
      "ĠchÃ²m": 4123,
      "ĠÄĳoÃ¡i": 4124,
      "ĠngÆ°á»Łng": 4125,
      "Ġdáº±n": 4126,
      "ĠxáºŃp": 4127,
      "Ġtem": 4128,
      "ĠÄĳáºµng": 4129,
      "Ġnhe": 4130,
      "ĠgÃ´ng": 4131,
      "ĠsÃ¹ng": 4132,
      "Ġsáº¥u": 4133,
      "Ġtong": 4134,
      "Ġtáº£ng": 4135,
      "ĠÄĳe": 4136,
      "Ġtháº¯c": 4137,
      "ĠnhÃ¡y": 4138,
      "Ġkhanh": 4139,
      "Ġquá»ĩn": 4140,
      "ĠtÃ¡": 4141,
      "Ġtháº»o": 4142,
      "Ġgáº«y": 4143,
      "Ġsáº§m": 4144,
      "ĠcÃ³ng": 4145,
      "Ġphun": 4146,
      "ĠliÃªm": 4147,
      "ĠthuyÃªn": 4148,
      "ĠráºŃm": 4149,
      "ĠquáºŃy": 4150,
      "ĠtÃ²": 4151,
      "Ġton": 4152,
      "ĠÄĳáº«y": 4153,
      "Ġngá»¥": 4154,
      "Ġrá»ı": 4155,
      "Ġquáº§ng": 4156,
      "Ġphá»§i": 4157,
      "ĠlÅ©i": 4158,
      "Ġvá»īa": 4159,
      "ĠtÃły": 4160,
      "ĠthÃ¹a": 4161,
      "Ġngá»ĳc": 4162,
      "Ġxiá»ģng": 4163,
      "Ġrá»ĩu": 4164,
      "ĠtÆ°á»Ľc": 4165,
      "Ġguá»Ļc": 4166,
      "ĠsuÃ´n": 4167,
      "Ġtá»³": 4168,
      "ĠtrÃ¡": 4169,
      "ĠnhÃºn": 4170,
      "Ġdá»Ŀn": 4171,
      "Ġxoe": 4172,
      "Ġtá»ĩ": 4173,
      "Ġmeo": 4174,
      "Ġmáº½": 4175,
      "ĠbÃ´": 4176,
      "Ġbá»ĳng": 4177,
      "Ġchá»ķi": 4178,
      "Ġvá»¹": 4179,
      "ĠcÆ°a": 4180,
      "ĠmÃ¡ch": 4181,
      "Ġlá»ıi": 4182,
      "ĠkÃ¨": 4183,
      "áº½n": 4184,
      "Ġcháº¿nh": 4185,
      "Ġná»ĩm": 4186,
      "ĠÄĳiá»ģm": 4187,
      "Ġsá»Ľt": 4188,
      "Ġmá»įt": 4189,
      "Ġlá»įn": 4190,
      "Ġlá»Ļt": 4191,
      "Ġmon": 4192,
      "ĠmÃŃ": 4193,
      "ĠlÃŃ": 4194,
      "ĠnhÃ¨m": 4195,
      "ĠnhÃ²m": 4196,
      "Ġdá»įa": 4197,
      "Ġsoáº¡n": 4198,
      "Ġáºµm": 4199,
      "ĠthÃ²i": 4200,
      "Ġchá»¥m": 4201,
      "Ġrá»£n": 4202,
      "ĠkhÄĥng": 4203,
      "Ġquáº¥y": 4204,
      "ĠvÃŃu": 4205,
      "ĠsÃ²ng": 4206,
      "Ġsá»§a": 4207,
      "ĠdáºŃm": 4208,
      "Ġráº¡c": 4209,
      "Ġtua": 4210,
      "ĠÄĳá»įt": 4211,
      "ĠÄĳá»ĳn": 4212,
      "ĠhÃ£o": 4213,
      "Ġnháº±ng": 4214,
      "Ġsáº§n": 4215,
      "Ġxá»ĳi": 4216,
      "ĠlÃ¨o": 4217,
      "Ġvin": 4218,
      "ĠnÃ³t": 4219,
      "ĠnhÃ¡c": 4220,
      "Ġdáº¥n": 4221,
      "Ġkháº¥p": 4222,
      "Ġgiáº§y": 4223,
      "á»¡m": 4224,
      "ĠdÃłu": 4225,
      "Ġcháºµng": 4226,
      "Ġhá»£i": 4227,
      "Ġngá»Ľt": 4228,
      "Ġkháº³ng": 4229,
      "ĠkhÃ¨n": 4230,
      "Ġphao": 4231,
      "Ġcá»ın": 4232,
      "um": 4233,
      "ĠtÃ¬": 4234,
      "Ġlá»ķ": 4235,
      "Ġxá»ıa": 4236,
      "ĠÄĳay": 4237,
      "ĠkÃ¬m": 4238,
      "Ġxay": 4239,
      "ĠxÃ©o": 4240,
      "Ġquáº³ng": 4241,
      "ĠnghÃªu": 4242,
      "Ġnghiáº¿n": 4243,
      "ĠchÃŃt": 4244,
      "ĠcÃºn": 4245,
      "Ġbá»Ļt": 4246,
      "ĠnÃ³c": 4247,
      "ĠnhÃŃ": 4248,
      "ĠsÃ¢m": 4249,
      "ĠÄĳoáº¡t": 4250,
      "Ġá»ĳi": 4251,
      "Ġtáº·c": 4252,
      "Ġcáº¥u": 4253,
      "ĠtráºŃp": 4254,
      "Ġdá»ĥ": 4255,
      "Ġgiáº±ng": 4256,
      "Ġtuáº¥n": 4257,
      "Ġtáº¯p": 4258,
      "ĠdÆ°á»£c": 4259,
      "Ġrá»ĳn": 4260,
      "Ġláº«m": 4261,
      "Ġthá»Ńa": 4262,
      "ĠnhÄĥng": 4263,
      "ĠdÃ¡t": 4264,
      "ĠxÃ¡o": 4265,
      "Ġá»ĵ": 4266,
      "ĠlÃ©t": 4267,
      "Ġsá»¥c": 4268,
      "Ġkhá»ĳc": 4269,
      "á»§ng": 4270,
      "ĠtuÃ¢n": 4271,
      "ĠdiÃªm": 4272,
      "ĠÃº": 4273,
      "Ġá»¡m": 4274,
      "Ġcháº¥n": 4275,
      "Ġná»Ľ": 4276,
      "ĠÄĳÆ¡": 4277,
      "ĠniÃªu": 4278,
      "Ġgá»Ļt": 4279,
      "Ġnghinh": 4280,
      "Ġtiá»ģu": 4281,
      "ĠsÃ³i": 4282,
      "Ġquáº«y": 4283,
      "ĠÄĳáº£nh": 4284,
      "ĠÄĳáº½o": 4285,
      "ĠlÃº": 4286,
      "Ġtháº©m": 4287,
      "Ġtrá»įi": 4288,
      "ĠnhÄĥm": 4289,
      "ĠrÃª": 4290,
      "Ġkháº»": 4291,
      "Ġhoáº¡t": 4292,
      "Ġthá»§ng": 4293,
      "Ġum": 4294,
      "Ġnhuáº§n": 4295,
      "Ġlá»§ng": 4296,
      "ĠlÆ°Æ¡n": 4297,
      "ĠchÆ°á»Ľc": 4298,
      "ĠvÃ¨": 4299,
      "Ġnem": 4300,
      "ĠnÃºm": 4301,
      "ĠÄĳá»ħ": 4302,
      "ĠghÃ©m": 4303,
      "Ġcá»§ng": 4304,
      "ĠhÃ£nh": 4305,
      "ĠbÃ¢u": 4306,
      "ĠbÃ³i": 4307,
      "Ġbáº©m": 4308,
      "Æ¡c": 4309,
      "Ġqueo": 4310,
      "ĠxuÃª": 4311,
      "ĠmÃło": 4312,
      "ĠmÃ©t": 4313,
      "ĠgÃ³a": 4314,
      "Ġdáº·c": 4315,
      "ĠxÃ³": 4316,
      "ĠrÃ´ng": 4317,
      "ĠchÆ¡n": 4318,
      "ĠchÃ³c": 4319,
      "Ġváº·n": 4320,
      "ĠkhÃŃt": 4321,
      "Ġpháº©y": 4322,
      "Ġláº±n": 4323,
      "Ġbáº£": 4324,
      "Ġkhá»ģu": 4325,
      "ĠlÃ¡o": 4326,
      "Ġlá»įng": 4327,
      "Ġgá»Ľm": 4328,
      "ĠxÃ¡t": 4329,
      "Ġxá»ĭt": 4330,
      "Ġgiáº«m": 4331,
      "Ġháº¡ng": 4332,
      "ĠmÃ²ng": 4333,
      "Ġcháº±ng": 4334,
      "ĠphÃ¨n": 4335,
      "Ġnguá»Ŀi": 4336,
      "Ġcá»¥t": 4337,
      "ĠlÆ°á»¡ng": 4338,
      "Ġthá»ĳn": 4339,
      "Ġhá»©c": 4340,
      "Ġngá»¥m": 4341,
      "ĠgÃłnh": 4342,
      "ĠsÃ¡m": 4343,
      "ĠxÃŃ": 4344,
      "Ġtá»¥y": 4345,
      "ĠtruÃ´ng": 4346,
      "Ġhá»Ĺn": 4347,
      "Ġbá»ĭp": 4348,
      "Ġsáº¿": 4349,
      "Ġdá»ĳt": 4350,
      "Ġnáº¥p": 4351,
      "ĠtrÃ¹": 4352,
      "Ġgáº¥u": 4353,
      "ĠrÃºc": 4354,
      "Ġquáº©y": 4355,
      "Ġláº¡ch": 4356,
      "á»±t": 4357,
      "ĠnuÃ´ng": 4358,
      "Ġam": 4359,
      "ĠcÆ°á»Ľc": 4360,
      "Ġlá»ĵ": 4361,
      "ĠvÃº": 4362,
      "Ġváº¹t": 4363,
      "ĠnhÃ³t": 4364,
      "ĠsÃ¬nh": 4365,
      "ĠxÃŃu": 4366,
      "ĠrÃ¹ng": 4367,
      "Ġphang": 4368,
      "ĠlÃłi": 4369,
      "Ġtráº»o": 4370,
      "Ġcá»«": 4371,
      "ĠthÃ¡n": 4372,
      "ĠbÃºc": 4373,
      "ĠkhÃł": 4374,
      "ĠphÃªn": 4375,
      "Ġcáº£ng": 4376,
      "Ġnhá»ĳ": 4377,
      "Ġrá»¥t": 4378,
      "Ġtá»¥i": 4379,
      "Ġliáº¿p": 4380,
      "Ġnáº·n": 4381,
      "Ġgáº£": 4382,
      "Ġgá»įt": 4383,
      "ĠkÃ¨o": 4384,
      "Ġdá»¥m": 4385,
      "Ġhoi": 4386,
      "Ġlá»«": 4387,
      "Ġsá»ĵng": 4388,
      "ĠrÃº": 4389,
      "Ġpháº¥p": 4390,
      "ĠtÃ£": 4391,
      "ĠÄĳá»ĳc": 4392,
      "ĠlÃ²i": 4393,
      "Ġbanh": 4394,
      "Ġcháº§n": 4395,
      "Ġngáº·t": 4396,
      "ĠxÃªnh": 4397,
      "Ġren": 4398,
      "ĠquÃ¡ch": 4399,
      "uá»Ļng": 4400,
      "Ġkhuyáº¿n": 4401,
      "Ġcá»¥ng": 4402,
      "ĠcÃºp": 4403,
      "ĠnÃłi": 4404,
      "Ġká»ĭch": 4405,
      "Ġcáº¯c": 4406,
      "Ġmáº§y": 4407,
      "Ġchuá»Ļng": 4408,
      "Ġvá»Ľ": 4409,
      "Ãªt": 4410,
      "ĠnhÃ³c": 4411,
      "Ġsá»¥p": 4412,
      "Ġmá»ķ": 4413,
      "Ġmá»įn": 4414,
      "Ġmuá»ĳt": 4415,
      "Ġchá»¯ng": 4416,
      "Ġchá»įi": 4417,
      "Ġchuá»Ļc": 4418,
      "ĠgÃły": 4419,
      "Ġxá»ı": 4420,
      "Ġquáº»": 4421,
      "Ġsáº¿p": 4422,
      "ĠÃ¬": 4423,
      "Ġtáº£i": 4424,
      "ĠtrÆ°á»£ng": 4425,
      "Ġgam": 4426,
      "ĠkhoÃ©t": 4427,
      "ĠcÃ¹n": 4428,
      "ĠbÃ²n": 4429,
      "ĠnghÃ¬": 4430,
      "ĠnhÆ°á»£": 4431,
      "ĠÄĳá»ıng": 4432,
      "ĠÄĳá»Ľp": 4433,
      "Ġgáº§u": 4434,
      "Ġtuáº¥t": 4435,
      "Ġcá»©a": 4436,
      "ĠtÃ¹m": 4437,
      "Ġxáº£o": 4438,
      "ĠrÃ¨": 4439,
      "Ġlia": 4440,
      "ĠtráºŃt": 4441,
      "Ġnhá»ĳi": 4442,
      "Ġráº§n": 4443,
      "ĠxuÃ½t": 4444,
      "Ġ1": 4445,
      "ĠtÃºp": 4446,
      "ĠÄĳáº¥m": 4447,
      "Ġhá»±c": 4448,
      "Ġquá»Ŀ": 4449,
      "Ġcá»įp": 4450,
      "ĠÃªn": 4451,
      "Ġcáº·m": 4452,
      "ĠmÃ¨": 4453,
      "Ġbiá»ĩn": 4454,
      "Ġhá»ħ": 4455,
      "Ġhá»įng": 4456,
      "Ġchá»ķng": 4457,
      "Ġnáº½o": 4458,
      "ĠkiÃªng": 4459,
      "ĠtÆ°á»Łi": 4460,
      "ĠcÆ°á»¡ng": 4461,
      "ĠÃºng": 4462,
      "ĠcÃ¡p": 4463,
      "ĠÄĳÃŃt": 4464,
      "Ġbá»į": 4465,
      "Ġbá»ķn": 4466,
      "Ġchau": 4467,
      "ĠtrÅ©ng": 4468,
      "Ġkháº¡o": 4469,
      "ĠlÃłu": 4470,
      "ĠnghÃŃa": 4471,
      "Ġtáº©y": 4472,
      "ĠmÃºi": 4473,
      "ĠbÃŃnh": 4474,
      "ĠhÅ©": 4475,
      "Ġsáº¥p": 4476,
      "Ġquyá»ĥn": 4477,
      "Ġcá»¥i": 4478,
      "ĠÄĳÃ¬": 4479,
      "ĠhÃ¹m": 4480,
      "Ġmá»īa": 4481,
      "ĠÃŃ": 4482,
      "Ġá»Ľi": 4483,
      "ĠmÃ¡ng": 4484,
      "Ġmáº¡t": 4485,
      "Ġvá»ĵ": 4486,
      "Ġhá»Ľp": 4487,
      "Ġngá»«a": 4488,
      "Ġgo": 4489,
      "Ġkhá»ĥnh": 4490,
      "Ġngoi": 4491,
      "Ġá»§ng": 4492,
      "Ġhá»§y": 4493,
      "88": 4494,
      "Ġbá»Ńa": 4495,
      "ĠvÃ³i": 4496,
      "Ġhá»ķi": 4497,
      "Ġhá»Ļt": 4498,
      "Ġsá»±c": 4499,
      "Ġkháº¥u": 4500,
      "ĠkhÆ°á»Ľt": 4501,
      "á»¥a": 4502,
      "Ġká»µ": 4503,
      "ĠÄĳá»§ng": 4504,
      "ĠÄĳun": 4505,
      "ĠfÃ¢y": 4506,
      "ĠÄĳÃŃnh": 4507,
      "Ġmoi": 4508,
      "ĠlÃ©o": 4509,
      "Ġliá»ĩm": 4510,
      "ĠnhÃ¡o": 4511,
      "TBT": 4512,
      "Ġphay": 4513,
      "ĠÄĳá»«": 4514,
      "Ġkhuá»·": 4515,
      "ĠÄĳoáº£n": 4516,
      "Ġtá»īa": 4517,
      "Ġáº¡t": 4518,
      "Ġmá»©t": 4519,
      "Ġtráº§y": 4520,
      "Ġrá»¯a": 4521,
      "Ġráº¡t": 4522,
      "ĠphÃło": 4523,
      "ĠphÃłn": 4524,
      "Ġkhuá»·u": 4525,
      "Ġtáº©m": 4526,
      "ĠÄĳiáº¿c": 4527,
      "Ġkháº£o": 4528,
      "ĠquÃ¡t": 4529,
      "Ġxá»īn": 4530,
      "ĠlÆ¡n": 4531,
      "ĠchÃ²i": 4532,
      "ĠngÃ³t": 4533,
      "Ġsáº¡m": 4534,
      "ĠsÃŃnh": 4535,
      "ĠdÆ¡i": 4536,
      "ĠxÃª": 4537,
      "Ġráº¯m": 4538,
      "ĠrÄ©": 4539,
      "Ġui": 4540,
      "ĠÆ°Æ¡n": 4541,
      "ĠtrÃ¬u": 4542,
      "Ġki": 4543,
      "Ġgiá»±t": 4544,
      "Ġque": 4545,
      "Ġlá»±u": 4546,
      "ĠhÃ£m": 4547,
      "Ġcang": 4548,
      "Ġlá»ĳ": 4549,
      "Ġná»ĳc": 4550,
      "ĠnhÃºm": 4551,
      "Ġw": 4552,
      "ĠÃ¡t": 4553,
      "Ġtá»Ļt": 4554,
      "Ġcháºµn": 4555,
      "Ġná»±ng": 4556,
      "Ġnháº©m": 4557,
      "ĠphÃ¡c": 4558,
      "Ġngá»Ĺng": 4559,
      "ĠgÃ¹i": 4560,
      "ĠsÃºt": 4561,
      "Ġphiáº¿u": 4562,
      "Ġquáº¡i": 4563,
      "BBBBTT": 4564,
      "ĠtÆ°Æ¡m": 4565,
      "Ġá»·": 4566,
      "Ġcáº±m": 4567,
      "Ġliu": 4568,
      "ĠbÄĥm": 4569,
      "Ġcháº©y": 4570,
      "Ġhuá»ĳng": 4571,
      "Ġsáº¡t": 4572,
      "Ġxá»Ńa": 4573,
      "Ġkhuáº©n": 4574,
      "Ġcá»ĵng": 4575,
      "ĠÄĳáº½": 4576,
      "ĠbáºŃy": 4577,
      "Ġváº¡i": 4578,
      "ĠvÆ°á»£n": 4579,
      "Ġtrá»«ng": 4580,
      "Ġnhá»ĥu": 4581,
      "ĠnghÃ¨n": 4582,
      "Ġkhoáº£n": 4583,
      "ĠÄĥm": 4584,
      "Ġlá»³": 4585,
      "Ġchá»Ń": 4586,
      "Ġváº©y": 4587,
      "Ã¢t": 4588,
      "ĠxÃºm": 4589,
      "Ġgiun": 4590,
      "Ġkhiu": 4591,
      "Ġmáº¡o": 4592,
      "ĠchÃ¬nh": 4593,
      "Ġvy": 4594,
      "Ġviá»ĥn": 4595,
      "Ġnang": 4596,
      "ĠnhÃ³n": 4597,
      "ĠgÃłn": 4598,
      "ĠsÃºc": 4599,
      "Ġkháº£n": 4600,
      "á»Ļp": 4601,
      "Ġphá»ķi": 4602,
      "á»ım": 4603,
      "ĠchÃµng": 4604,
      "Ġdáº³ng": 4605,
      "Ġthuáº¿": 4606,
      "Ġchum": 4607,
      "ĠmáºŃu": 4608,
      "Ġmáº©y": 4609,
      "Ġlá»£p": 4610,
      "ĠchÃ©o": 4611,
      "ĠnÃºt": 4612,
      "Ġngáº¡n": 4613,
      "ĠgiÃ³ng": 4614,
      "Ġlom": 4615,
      "Ġ,": 4616,
      "ĠtÃºm": 4617,
      "ĠÄĳáº·n": 4618,
      "Ġmáº£": 4619,
      "Ġmáº±n": 4620,
      "Ġlá»ĥ": 4621,
      "ĠlÃ¨": 4622,
      "Ġthá»¥t": 4623,
      "TBBT": 4624,
      "Ġrá»ķ": 4625,
      "TTT": 4626,
      "ĠmuÃ´ng": 4627,
      "Ġau": 4628,
      "Ġáº¯ng": 4629,
      "ĠlÃºn": 4630,
      "Ġsá»ī": 4631,
      "Ġdáº¥y": 4632,
      "ĠdÃ¡n": 4633,
      "ĠlÃªu": 4634,
      "ĠchÃ´m": 4635,
      "ĠchÃ¨n": 4636,
      "Ġnhá»£t": 4637,
      "Ġgáº¡": 4638,
      "ĠgÃłng": 4639,
      "ĠxÆ°á»Ľc": 4640,
      "Ġkháº£": 4641,
      "ĠphÃ²": 4642,
      "Ġquá»¹": 4643,
      "ĠmÃ´t": 4644,
      "Ġcá»Ļ": 4645,
      "Ġláº©y": 4646,
      "Ġthiá»ģu": 4647,
      "Ġhá»ĳc": 4648,
      "Ġnáº¡i": 4649,
      "Ġngáº¥p": 4650,
      "Ġphiáº¿m": 4651,
      "Ġtá»µ": 4652,
      "Ġcá»¡i": 4653,
      "ĠlÃ©p": 4654,
      "Ġthá»±": 4655,
      "Ġbá»ĩ": 4656,
      "Ġchon": 4657,
      "ĠnÃ©": 4658,
      "ĠsáºŃy": 4659,
      "ĠdÃ²n": 4660,
      "ĠdÃ¹i": 4661,
      "ĠÃ¡ch": 4662,
      "Ġbá»Ļc": 4663,
      "Ġchiá»ģn": 4664,
      "ĠngÃ¡y": 4665,
      "Ġngáº©m": 4666,
      "Ġnhá»©t": 4667,
      "ĠgÄĥm": 4668,
      "ĠkháºŃp": 4669,
      "ĠkhiÃªng": 4670,
      "Ġluáº©n": 4671,
      "Ġná»Ļp": 4672,
      "Æ°Æ¡c": 4673,
      "ĠlÃ²n": 4674,
      "ĠchÃ¹i": 4675,
      "ĠhÃ¬": 4676,
      "ĠtrÆ°á»Ŀn": 4677,
      "ĠsÃ´": 4678,
      "ĠbÃŃm": 4679,
      "ĠtháºŃm": 4680,
      "Ġgáº«m": 4681,
      "ĠrÃ¬a": 4682,
      "Ġgianh": 4683,
      "ĠquÃ¬": 4684,
      "ĠmÃ³": 4685,
      "ĠbÆ¡m": 4686,
      "ĠbÆ°Æ¡m": 4687,
      "Ġchá»ıng": 4688,
      "Ġngá»©a": 4689,
      "ĠkÃ¬nh": 4690,
      "Ġphá»©c": 4691,
      "Ġtiá»ĥn": 4692,
      "ĠoÃ¡i": 4693,
      "Ġláº»n": 4694,
      "Ġsui": 4695,
      "Ġbáº¹": 4696,
      "ĠnÃ´m": 4697,
      "ĠnhÃµm": 4698,
      "iá»ĥng": 4699,
      "á»ħnh": 4700,
      "Ġoa": 4701,
      "Ġtáº¯n": 4702,
      "Ġbáº¥p": 4703,
      "ĠvÃ¡ng": 4704,
      "Ġhá»ĩt": 4705,
      "ĠnÃª": 4706,
      "Ġtoa": 4707,
      "Ġthá»ĥu": 4708,
      "Ġlá»¯a": 4709,
      "ĠthÃ²ng": 4710,
      "ĠnhÃ¡i": 4711,
      "Ġdáº»": 4712,
      "ĠtrÃłm": 4713,
      "Ġá»ķng": 4714,
      "ĠthÃ³p": 4715,
      "Ġbá»£": 4716,
      "Ġná»©a": 4717,
      "Ġgá»Ŀn": 4718,
      "Ġsáº¹o": 4719,
      "ĠkhÃ²": 4720,
      "Ġquá»ī": 4721,
      "Ġdáº¡m": 4722,
      "ĠthoÄĥn": 4723,
      "Ġoáº£i": 4724,
      "ĠÄĳáº«n": 4725,
      "Ġtrá»ĳi": 4726,
      "ĠtrÃ¡o": 4727,
      "Ġtriá»ĩt": 4728,
      "Ġnhá»Ŀi": 4729,
      "ĠgÃłi": 4730,
      "Ġkáº¹p": 4731,
      "ĠrÃ¢y": 4732,
      "Ġhoáº¡i": 4733,
      "Ġtáº¡p": 4734,
      "ĠÄĳon": 4735,
      "ĠmÃºt": 4736,
      "Ġhá»Ľ": 4737,
      "Ġngá»Ńi": 4738,
      "Ġnhá»į": 4739,
      "ĠnhÄ©": 4740,
      "Ġnham": 4741,
      "Ġkiá»ģng": 4742,
      "Ġkham": 4743,
      "Ġxoáº¯n": 4744,
      "ĠnhuáºŃn": 4745,
      "ĠÄĳiáº¿m": 4746,
      "Ġmá»©c": 4747,
      "Ġmáº¥p": 4748,
      "Ġhe": 4749,
      "Ġháº¿n": 4750,
      "Ġháº¯c": 4751,
      "Ġnhao": 4752,
      "Ġnháº©y": 4753,
      "Ġgu": 4754,
      "ĠsÆ°ng": 4755,
      "Ġtá»§m": 4756,
      "ĠhÃ²m": 4757,
      "á»³nh": 4758,
      "ĠÃ¹n": 4759,
      "ĠÄĳÃºt": 4760,
      "ĠlÃ¹m": 4761,
      "Ġthá»¥y": 4762,
      "Ġváº¡nh": 4763,
      "Ġnáº£i": 4764,
      "Ġsáº©y": 4765,
      "Ġsáº·c": 4766,
      "ĠcÃ³p": 4767,
      "ĠtoÃ¡t": 4768,
      "ĠsuÃ½t": 4769,
      "Ġtruá»ĵng": 4770,
      "ĠcÃºm": 4771,
      "Ġliáº¿m": 4772,
      "Ġhiá»ģm": 4773,
      "ĠkhÃ¹": 4774,
      "Ġpho": 4775,
      "Ġbá»ĭnh": 4776,
      "ĠmÄ©m": 4777,
      "ĠnhÆ°á»£c": 4778,
      "Ġcáº©u": 4779,
      "Ġmá»Ľm": 4780,
      "Ġmá»³": 4781,
      "ĠvÃ³t": 4782,
      "Ġhiáº¿p": 4783,
      "Ġriáº¿t": 4784,
      "Ġráº¡p": 4785,
      "Ġphá»ıng": 4786,
      "á»ĩch": 4787,
      "Ġj": 4788,
      "ĠÆ°Æ¡i": 4789,
      "ĠmÃ£o": 4790,
      "ĠkhiÃªu": 4791,
      "á»§i": 4792,
      "Ġoang": 4793,
      "ĠÆ°á»¡n": 4794,
      "Ġbá»¡n": 4795,
      "Ġtrá»Ľn": 4796,
      "ĠÄĳá»Ł": 4797,
      "ĠtÃ³": 4798,
      "Ġmao": 4799,
      "ĠkÄ©": 4800,
      "Ġriu": 4801,
      "ĠngoÃ£n": 4802,
      "Ġtá»ıi": 4803,
      "Ġtá»īm": 4804,
      "Ġtuá»ĳt": 4805,
      "Ġláº£y": 4806,
      "Ġbá»Ł": 4807,
      "Ġdá»įi": 4808,
      "ĠrÃ©n": 4809,
      "ĠrÃ³n": 4810,
      "ĠtÃŃu": 4811,
      "ĠtÃ³m": 4812,
      "ĠbÃ¬a": 4813,
      "ĠnÃ²ng": 4814,
      "Ġrá»ĳt": 4815,
      "Ġcá»«u": 4816,
      "ĠcÃ¹m": 4817,
      "ĠÄĳanh": 4818,
      "ĠmÃ³t": 4819,
      "Ġláº¿t": 4820,
      "ĠhÃ¹": 4821,
      "ĠhÃ¡ch": 4822,
      "ĠnÃŃt": 4823,
      "Ġnháº¥c": 4824,
      "Ġhom": 4825,
      "ĠrÆ°á»£t": 4826,
      "ĠgÃłu": 4827,
      "Ġcáº¡o": 4828,
      "ĠÄĳÆ°á»Ŀi": 4829,
      "Ġhá»Ľt": 4830,
      "Ġsáº£": 4831,
      "ĠrÆ°á»Ľi": 4832,
      "ĠrÃ²i": 4833,
      "Ġhuáº¥n": 4834,
      "Ġ2": 4835,
      "ĠÃºc": 4836,
      "Ġtháº£i": 4837,
      "ĠhÃºc": 4838,
      "ĠtrÃª": 4839,
      "ĠnhÃºt": 4840,
      "Ġrá»Ŀ": 4841,
      "ĠnhÃłm": 4842,
      "ĠvÃłm": 4843,
      "ĠkÃŃp": 4844,
      "Ġcá»Ŀi": 4845,
      "ĠÄĳiáº¿ng": 4846,
      "Ġbá»¥c": 4847,
      "ĠsÃ¬": 4848,
      "Ġrá»ĵ": 4849,
      "ĠrÃ³i": 4850,
      "ĠkhÃ©t": 4851,
      "Ġtháº¿ch": 4852,
      "Ġgháº»": 4853,
      "ĠkhuÃ¢n": 4854,
      "Ġtá»¥t": 4855,
      "ĠtÃ³e": 4856,
      "Ġiu": 4857,
      "Ġtiá»ĩm": 4858,
      "BBT": 4859,
      "Ġláº¯p": 4860,
      "Ġthiá»ĩu": 4861,
      "ĠnÃºng": 4862,
      "TBBBBT": 4863,
      "Ġtrá»¥c": 4864,
      "ĠxÃŃt": 4865,
      "Ġgiá»Ń": 4866,
      "ĠphÆ¡n": 4867,
      "ĠrÃ£nh": 4868,
      "ĠhÃºp": 4869,
      "ĠnÃ£y": 4870,
      "Ġnháº¯p": 4871,
      "ĠnhÃ£o": 4872,
      "Ġke": 4873,
      "ĠrÃ¡n": 4874,
      "Ġkhá»§ng": 4875,
      "BBBTBT": 4876,
      "ĠquÃ¨": 4877,
      "á»ħu": 4878,
      "Ġkhá»ķng": 4879,
      "Ġbá»±": 4880,
      "ĠchÃ¬u": 4881,
      "Ġhá»£t": 4882,
      "Ġnháº£nh": 4883,
      "Ġnghen": 4884,
      "Ġthoáº¡t": 4885,
      "Ġhá»ķm": 4886,
      "ĠcÃ¡y": 4887,
      "ĠlÃ³a": 4888,
      "Ġláºµng": 4889,
      "ĠdÃ¬a": 4890,
      "ĠrÆ°á»Ŀi": 4891,
      "Ġquáº£y": 4892,
      "Ġngháº½n": 4893,
      "ĠbuÃ¢ng": 4894,
      "ĠtiÃªm": 4895,
      "ĠoÄĥm": 4896,
      "Ġbá»ĭu": 4897,
      "ynh": 4898,
      "Ġen": 4899,
      "Ġcá»Ńi": 4900,
      "ĠhÃ£n": 4901,
      "ĠnÃ¡ch": 4902,
      "Ġngá»£m": 4903,
      "ĠtÃ³p": 4904,
      "ĠmÃ¢u": 4905,
      "ĠlÃµm": 4906,
      "Ġthá»«ng": 4907,
      "Ġbá»¡i": 4908,
      "Ġnháº©n": 4909,
      "Ġgáº©y": 4910,
      "Ġsá»ĵi": 4911,
      "ĠkhoÃ¡t": 4912,
      "Ġhuá»³nh": 4913,
      "ĠgiÅ©a": 4914,
      "ĠÄĳÃ´n": 4915,
      "ĠmÃ¨n": 4916,
      "Ġlá»ĵi": 4917,
      "ĠngÃ¡ch": 4918,
      "Ġgáº¯p": 4919,
      "Ġkiáº¿t": 4920,
      "ĠrÆ°": 4921,
      "Ġkhá»Ľp": 4922,
      "ĠhuÃª": 4923,
      "Ġnháº¡nh": 4924,
      "Ġsá»Ľ": 4925,
      "Ġgiáº¯t": 4926,
      "Ġsuáº¥t": 4927,
      "Ġváº¥y": 4928,
      "ĠngÃ¡p": 4929,
      "ĠtrÃ´n": 4930,
      "Ġsam": 4931,
      "ĠsáºŃu": 4932,
      "ĠdÃ´": 4933,
      "ĠrÃ²n": 4934,
      "Ġgiong": 4935,
      "ĠhoÃ£n": 4936,
      "Ġkhoáº¯t": 4937,
      "Ġá»§y": 4938,
      "Ġfay": 4939,
      "Ġmá»£": 4940,
      "Ġláº±ng": 4941,
      "Ġcháº£o": 4942,
      "Ġchá»ĵm": 4943,
      "Ġtráº«m": 4944,
      "ĠxÃ¹": 4945,
      "Ġrá»¥i": 4946,
      "ĠkhÃłn": 4947,
      "Ġphá»ĳi": 4948,
      "Ġnghá»ħ": 4949,
      "ĠbÃłu": 4950,
      "Ġ3": 4951,
      "Ġtá»ĵng": 4952,
      "ĠtÃ¨o": 4953,
      "Ġháº¥t": 4954,
      "ĠhÃªnh": 4955,
      "Æ¡u": 4956,
      "ĠnÃ¡": 4957,
      "ĠnhÃ©t": 4958,
      "ĠnhÃŃch": 4959,
      "Ġxáº¡": 4960,
      "ĠkhÃ¢m": 4961,
      "ĠkhoÃ¡ng": 4962,
      "ĠkhoÃ¡n": 4963,
      "ĠbÃµm": 4964,
      "BTBBB": 4965,
      "ĠlÃ¹": 4966,
      "Ġbáº£nh": 4967,
      "Ġvá»ĳc": 4968,
      "Ġviá»ģng": 4969,
      "Ġhá»ķn": 4970,
      "Ġngá»įng": 4971,
      "Ġtrá»£n": 4972,
      "ĠnhÃºng": 4973,
      "Ġsáº³n": 4974,
      "Ġduyá»ĩt": 4975,
      "Ġxáº¥p": 4976,
      "Ġrá»Ł": 4977,
      "Ġkhay": 4978,
      "Ġngoáº±n": 4979,
      "Ġkhuynh": 4980,
      "Ġtrum": 4981,
      "BTBBBT": 4982,
      "ĠÄĳÆ°Æ¡c": 4983,
      "Ġtrá»ĵ": 4984,
      "ĠnhÃ´ng": 4985,
      "Ġken": 4986,
      "Ġxáº©m": 4987,
      "áº¡y": 4988,
      "ĠkhÆ°Æ¡ng": 4989,
      "ĠphÃ¬nh": 4990,
      "Ġá»Ľ": 4991,
      "Ġváº£ng": 4992,
      "ĠngÃ¡o": 4993,
      "Ġtráº¡ch": 4994,
      "ĠnhÃ¡p": 4995,
      "ĠsÃ²": 4996,
      "ĠkÃ©t": 4997,
      "ĠdÃŃ": 4998,
      "Ġkháº¯t": 4999,
      "Ġgiá»Ńa": 5000,
      "Ġchoáº¡ng": 5001,
      "Ġvuá»Ļt": 5002,
      "ĠhÃ²e": 5003,
      "Ġquá»µ": 5004,
      "Ġmá»§i": 5005,
      "Ġháº©y": 5006,
      "Ġngá»Ł": 5007,
      "Ġtriáº¿t": 5008,
      "ĠgÃ¢u": 5009,
      "Ġpháº¿ch": 5010,
      "Äĥt": 5011,
      "Ġchá»§ng": 5012,
      "Ġá»ıi": 5013,
      "ĠtÃ¨": 5014,
      "Ġtáº¡ng": 5015,
      "Ġláº©m": 5016,
      "ĠhÃ¹a": 5017,
      "Ġnáº±ng": 5018,
      "Ġsá»©t": 5019,
      "TBTT": 5020,
      "Ġdáº¥p": 5021,
      "Ġráº¯p": 5022,
      "Ġchá»£p": 5023,
      "ĠthiÃªm": 5024,
      "Ġcui": 5025,
      "ĠlÃ£m": 5026,
      "ke": 5027,
      "ĠtÃ©t": 5028,
      "BBTBBT": 5029,
      "Ġlá»įi": 5030,
      "Ġthá»ĵ": 5031,
      "Ġvá»ĥnh": 5032,
      "Ġnháº¿ch": 5033,
      "Ġkiá»ĥng": 5034,
      "ĠrÃ¹i": 5035,
      "Ġthuá»ĵng": 5036,
      "ĠlÃ¡y": 5037,
      "Ġnháº¹t": 5038,
      "Ġlum": 5039,
      "Ġcá»¯": 5040,
      "ĠbÃªu": 5041,
      "Ġbáºµng": 5042,
      "ĠtrÃŃch": 5043,
      "Ġsin": 5044,
      "Ġgiá»ĵng": 5045,
      "Ġtá»ĥ": 5046,
      "ĠthoÃ¡i": 5047,
      "Ġcáº·n": 5048,
      "Ġthia": 5049,
      "Ġvá»¯a": 5050,
      "Ġnáº£o": 5051,
      "ĠnhÃ³": 5052,
      "ĠgÃ´n": 5053,
      "Ġdz": 5054,
      "Ġxá»ķ": 5055,
      "Ġkhá»ĳ": 5056,
      "Ġquá»ĩt": 5057,
      "ĠÃłh": 5058,
      "Ġmá»ķi": 5059,
      "Ġláº£o": 5060,
      "Ġbáº¥n": 5061,
      "Ġváº¡ng": 5062,
      "ĠnÆ¡": 5063,
      "Ġdiá»ĩp": 5064,
      "áº¿nh": 5065,
      "ĠrÃ¡p": 5066,
      "Ġquáº«n": 5067,
      "Ġquáº¹o": 5068,
      "Äĥc": 5069,
      "Ġchá»ĭt": 5070,
      "Ġbá»ĭch": 5071,
      "Ġinh": 5072,
      "Ġtáº¹o": 5073,
      "Ġbeo": 5074,
      "Ġcháº¡ng": 5075,
      "ĠchÃ²e": 5076,
      "ĠnÆ°á»Ŀng": 5077,
      "ĠrÃ´m": 5078,
      "TBBBTT": 5079,
      "ĠnhÅ©n": 5080,
      "oc": 5081,
      "ĠcÃ¹i": 5082,
      "ĠriÃªu": 5083,
      "ĠkhÃ¡n": 5084,
      "Ġkhiá»ĥn": 5085,
      "ĠgiÃłng": 5086,
      "Ġghá»ĭt": 5087,
      "Ġnguáº©y": 5088,
      "Ġlá»ĳp": 5089,
      "Ġtrump": 5090,
      "ĠthÃŃt": 5091,
      "Ġngáº¡c": 5092,
      "Ġgáº¡c": 5093,
      "Ġgá»ģnh": 5094,
      "ĠrÆ°á»Ľm": 5095,
      "TTBT": 5096,
      "Ġloe": 5097,
      "Ġtoáº¡c": 5098,
      "Ġcá»Ļc": 5099,
      "ĠlÃŃt": 5100,
      "ĠlÃµa": 5101,
      "Ġbáº¡": 5102,
      "Ġnanh": 5103,
      "ĠdÃ¬nh": 5104,
      "ĠdiÃªn": 5105,
      "Ġkhá»±ng": 5106,
      "Ġvit": 5107,
      "Ġtá»§a": 5108,
      "ĠmÃµm": 5109,
      "ĠmÃ³m": 5110,
      "ĠláºŃy": 5111,
      "ĠthÃŃa": 5112,
      "ĠbÃºi": 5113,
      "Ġchiáº¿t": 5114,
      "ĠtrÆ¡i": 5115,
      "Ġtráº¥u": 5116,
      "Ġnháºµn": 5117,
      "ĠkÃ©p": 5118,
      "Ġdáº«y": 5119,
      "Ġriá»ģng": 5120,
      "ĠgiÃ¡n": 5121,
      "ĠhoÃ¡n": 5122,
      "ĠÄĳÃ³t": 5123,
      "Ġchá»īn": 5124,
      "ĠlÃ¡p": 5125,
      "ĠáºŃm": 5126,
      "Ġáº»m": 5127,
      "Ġcáº¥n": 5128,
      "Ġváº¿": 5129,
      "Ġháº£y": 5130,
      "ĠnÃ¡n": 5131,
      "Ġnhuá»ĳc": 5132,
      "ĠrÃ¹": 5133,
      "Ġpháº¡c": 5134,
      "ĠhuÃ¢n": 5135,
      "ĠmÃŃm": 5136,
      "ĠlÃ¨n": 5137,
      "Ġngá»£": 5138,
      "Ġnhong": 5139,
      "ĠnhÃŃu": 5140,
      "ĠgÃ£i": 5141,
      "ĠxÃ¨o": 5142,
      "ĠxÃŃnh": 5143,
      "ĠquÃ¡ng": 5144,
      "Ġtá»Ńng": 5145,
      "Ġlike": 5146,
      "ĠÃ³": 5147,
      "ĠtáºŃu": 5148,
      "ĠlÃºt": 5149,
      "ĠchÃ¡c": 5150,
      "Ġcháº£nh": 5151,
      "Ġná»Ľi": 5152,
      "ĠnÃªnh": 5153,
      "ĠngÃºng": 5154,
      "ĠgÃ¡o": 5155,
      "ĠhÃ²i": 5156,
      "Ġká»ģnh": 5157,
      "Ġ-": 5158,
      "Ġcáº¡m": 5159,
      "Ġmom": 5160,
      "Ġná»ĩn": 5161,
      "Ġngá»Ļt": 5162,
      "Ġtrá»Ĺ": 5163,
      "ĠsÄĥm": 5164,
      "Ġsáº£nh": 5165,
      "ĠrÃ¡m": 5166,
      "Ġpháº¿t": 5167,
      "ĠphÃ¨": 5168,
      "ĠquÃ¡nh": 5169,
      "Ġtoe": 5170,
      "BTBBTT": 5171,
      "Ġtrá»ĭa": 5172,
      "ĠrÆ°á»¡i": 5173,
      "ĠÄĳáº£n": 5174,
      "Ġláº·t": 5175,
      "Ġlá»ĳt": 5176,
      "ĠngiÃªng": 5177,
      "Ġria": 5178,
      "Ġphá»«ng": 5179,
      "ĠnghÃ¨": 5180,
      "ĠÄĳá»ħnh": 5181,
      "ĠcáºŃt": 5182,
      "Ġlá»¥ng": 5183,
      "ĠbÄ©": 5184,
      "Ġbáº·m": 5185,
      "ĠnÆ¡m": 5186,
      "Ġngá»ĵn": 5187,
      "ĠsÃª": 5188,
      "ĠxÃ©n": 5189,
      "ĠxÆ°á»Łng": 5190,
      "Ġpháº«n": 5191,
      "Ġthoai": 5192,
      "ĠnguÃ½t": 5193,
      "Ġoe": 5194,
      "Ġnghá»ĭu": 5195,
      "Ġhá»§i": 5196,
      "Ġguá»ĵng": 5197,
      "et": 5198,
      "Ġá»Ŀi": 5199,
      "ĠlÃµi": 5200,
      "ĠlÃ¹n": 5201,
      "Ġthá»ĳc": 5202,
      "ĠbÆ°Æ¡i": 5203,
      "ĠcháºŃn": 5204,
      "Ġcháº¥u": 5205,
      "Ġhá»ĥn": 5206,
      "ĠnÃ£": 5207,
      "ĠdáºŃn": 5208,
      "ĠrÆ°Æ¡i": 5209,
      "ĠgiÃ¨m": 5210,
      "á»įe": 5211,
      "ĠlÃ¡n": 5212,
      "ĠÄĳui": 5213,
      "Ġrá»§ng": 5214,
      "ĠsoÃ¡t": 5215,
      "Ġtá»ĳp": 5216,
      "Ġthá»Ľi": 5217,
      "ĠbÆ°á»Ľng": 5218,
      "Ġnia": 5219,
      "ĠngáºŃy": 5220,
      "Ġngá»Ļn": 5221,
      "Ġsáº£y": 5222,
      "ĠsÆ°á»Ľt": 5223,
      "ĠxÃºng": 5224,
      "ĠgiÃ£y": 5225,
      "Ġvoan": 5226,
      "ck": 5227,
      "Ġáº¥t": 5228,
      "ĠÃºi": 5229,
      "Ġáº¹o": 5230,
      "Ġtáº©u": 5231,
      "Ġvá»ķ": 5232,
      "ĠsÃ¨o": 5233,
      "ĠÄĳá»ķng": 5234,
      "Ġquyá»ĩt": 5235,
      "ĠhÃ¨m": 5236,
      "Ġtá»¥m": 5237,
      "ĠnhoÃ¡ng": 5238,
      "Ġcáº¡p": 5239,
      "BBTBTT": 5240,
      "Ġmá»ģ": 5241,
      "ĠlÆ°á»Ŀm": 5242,
      "Ġhá»ĭch": 5243,
      "Ġdá»£n": 5244,
      "Ġrá»§a": 5245,
      "ĠkhÃ¢n": 5246,
      "BBBTTT": 5247,
      "Ġquáº¡ng": 5248,
      "Ġláº¡n": 5249,
      "Ġchoai": 5250,
      "á»Ńu": 5251,
      "Ġcáº£o": 5252,
      "ĠthÃ¬a": 5253,
      "ĠxoÃłng": 5254,
      "ĠÄĳáº¡c": 5255,
      "Ġmáº«m": 5256,
      "Ġtháº¡o": 5257,
      "ĠchÃ¡i": 5258,
      "Ġnáº¡p": 5259,
      "Ġnáº¥ng": 5260,
      "ĠnhÃºc": 5261,
      "ĠgÃ¡": 5262,
      "Ġgá»ıi": 5263,
      "Ġsá»¡": 5264,
      "Ġká»ĭt": 5265,
      "Ġxá»ĭ": 5266,
      "Ġkhá»©a": 5267,
      "Äĥp": 5268,
      "á»ħng": 5269,
      "ĠÄĳá»±c": 5270,
      "ĠÄĳáº©m": 5271,
      "ĠÄĳÃºm": 5272,
      "ĠbÃŃt": 5273,
      "Ġkiá»ģn": 5274,
      "Ġquáº§y": 5275,
      "ĠngoÃ¨o": 5276,
      "Ġnghá»ĩch": 5277,
      "Ġtau": 5278,
      "Ġmáº©u": 5279,
      "Ġbá»ķi": 5280,
      "ĠgÃ¡t": 5281,
      "Ġduá»ĳi": 5282,
      "Ġdá»¥i": 5283,
      "ĠtoÃ©t": 5284,
      "ĠhÆ°Æ¡u": 5285,
      "ĠÄĳiá»ĥu": 5286,
      "Ġmá»ım": 5287,
      "ĠmÃ¬n": 5288,
      "Ġthá»ĳ": 5289,
      "Ġbáº«m": 5290,
      "Ġcháº±m": 5291,
      "Ġnáº¯p": 5292,
      "Ġngáº£i": 5293,
      "ĠngÃ³c": 5294,
      "Ġgá»Ł": 5295,
      "Ġseo": 5296,
      "Ġxá»ĭn": 5297,
      "Ġráº·t": 5298,
      "Ġráº±n": 5299,
      "ĠrÃ¬u": 5300,
      "Ġnhá»Ľp": 5301,
      "Ġbuá»Ļt": 5302,
      "Ġchin": 5303,
      "Ġkhoáº¯c": 5304,
      "ĠÄĳoÃłng": 5305,
      "Ġrá»īnh": 5306,
      "Ġlá»±ng": 5307,
      "Ġá»Ľn": 5308,
      "ĠcÃ¡u": 5309,
      "Ġthá»Ľ": 5310,
      "ĠbÃºng": 5311,
      "ĠbÃ©t": 5312,
      "Ġngá»«": 5313,
      "Ġngá»Ľn": 5314,
      "ĠnhÃ¹ng": 5315,
      "ĠgáºŃm": 5316,
      "ĠsÃ£i": 5317,
      "Ġdua": 5318,
      "ĠxÃ¨": 5319,
      "Ġrá»Ľm": 5320,
      "ĠkhÃ¡i": 5321,
      "Ġgiá»ħu": 5322,
      "Ġquá»£": 5323,
      "Ġloáº¡t": 5324,
      "ĠthÃŃm": 5325,
      "ĠtÃ¡ng": 5326,
      "Ġtiá»ĩt": 5327,
      "ĠluyÃªn": 5328,
      "Ġláº©u": 5329,
      "Ġbá»ħ": 5330,
      "ĠvÃ¹n": 5331,
      "Ġhen": 5332,
      "Ġhá»«": 5333,
      "ĠnÃºc": 5334,
      "ĠnáºŃm": 5335,
      "Ġngong": 5336,
      "Ġdá»©a": 5337,
      "ĠxÃºi": 5338,
      "Ġxáº»o": 5339,
      "ĠrÃ¢n": 5340,
      "Ġrá»£": 5341,
      "Ġláº¡m": 5342,
      "Ġkhui": 5343,
      "Ġnhá»ķm": 5344,
      "ĠÃ¬nh": 5345,
      "ĠÃ£": 5346,
      "ĠtÃ²m": 5347,
      "Ġcom": 5348,
      "Ġhá»¥c": 5349,
      "ĠgÃ¡n": 5350,
      "ĠsÆ°á»£ng": 5351,
      "Ġquáº¹t": 5352,
      "Ġláº¡p": 5353,
      "Ġhoáº±ng": 5354,
      "Ġbua": 5355,
      "Ġtiu": 5356,
      "Ġruá»ĵng": 5357,
      "ĠkhuÃ´ng": 5358,
      "TTBBBT": 5359,
      "or": 5360,
      "Ġ5": 5361,
      "ĠÄĳÃ¡t": 5362,
      "ĠmÆ¡i": 5363,
      "ĠthÃ¡m": 5364,
      "ĠthÃµng": 5365,
      "Ġbáº¥u": 5366,
      "ĠchÆ°á»Łng": 5367,
      "Ġhá»Ļc": 5368,
      "Ġnáº¡": 5369,
      "ĠngáºŃt": 5370,
      "Ã¢p": 5371,
      "ĠdÃ³c": 5372,
      "ĠdÃ¨m": 5373,
      "Ġrá»ĭ": 5374,
      "Ġkhá»«ng": 5375,
      "Ġkháº£nh": 5376,
      "Ġkhá»±a": 5377,
      "ĠnghÃ©n": 5378,
      "ĠxuÃ´ng": 5379,
      "ĠÄĳá»ĥu": 5380,
      "Ġkhiá»ħng": 5381,
      "ĠghÃ¨": 5382,
      "Ġxoong": 5383,
      "ĠviÃªm": 5384,
      "ĠÄĳá»¥n": 5385,
      "Ġcá»¯u": 5386,
      "Ġthiá»ĥu": 5387,
      "Ġbáº¿t": 5388,
      "ĠchÃ£i": 5389,
      "Ġhá»¥p": 5390,
      "Ġnáº¡t": 5391,
      "ĠnhÃ©o": 5392,
      "Ġgá»ĵ": 5393,
      "Ġgio": 5394,
      "ĠthÃ¬n": 5395,
      "Ġngoe": 5396,
      "Ġkhum": 5397,
      "ĠÃ¨o": 5398,
      "ĠÄĳÃ¡n": 5399,
      "Ġbá»§": 5400,
      "Ġvá»ĵn": 5401,
      "Ġnáº¥n": 5402,
      "ĠngÃ²": 5403,
      "Ġngáº§y": 5404,
      "Ġnháº¡i": 5405,
      "ĠsÃºn": 5406,
      "Ġde": 5407,
      "ĠrÆ°Æ¡ng": 5408,
      "uyá»ħn": 5409,
      "Ġngháº¿ch": 5410,
      "ĠluÃ´ng": 5411,
      "Ġrá»¡n": 5412,
      "ĠlÃºy": 5413,
      "Ġtáº±n": 5414,
      "BBTTBT": 5415,
      "ĠmÃ©m": 5416,
      "Ġngá»Ĺ": 5417,
      "Ġngá»įa": 5418,
      "Ġnháº§y": 5419,
      "Ġgá»įng": 5420,
      "Ġdiá»ħu": 5421,
      "Ġdá»¡n": 5422,
      "ĠxÃ³i": 5423,
      "Ġkheo": 5424,
      "ĠÄĳá»ī": 5425,
      "Ġtá»ħ": 5426,
      "Ġchoa": 5427,
      "Ġoáº£n": 5428,
      "Ġlá»Ļp": 5429,
      "Ġleng": 5430,
      "ĠÄĳuá»ĳng": 5431,
      "ĠÄĳáº¿ch": 5432,
      "Ġmung": 5433,
      "ĠchÃªm": 5434,
      "ĠvÃ¡t": 5435,
      "Ġháº»o": 5436,
      "Ġnáº·c": 5437,
      "Ġngá»ĳ": 5438,
      "ĠnhÃ£ng": 5439,
      "Ġka": 5440,
      "ĠxÃłng": 5441,
      "Ġxuy": 5442,
      "Ġriá»ĩu": 5443,
      "Ġkhá»ĳng": 5444,
      "Ġgiáº¿m": 5445,
      "Ġchuáº¿nh": 5446,
      "Ġuáº¿": 5447,
      "eu": 5448,
      "Ġlá»ī": 5449,
      "ĠthÃ£i": 5450,
      "ĠbÆ°Æ¡ng": 5451,
      "ĠbÃ¡ng": 5452,
      "Ġbá»¥a": 5453,
      "Ġchiá»ĩn": 5454,
      "ĠvÃły": 5455,
      "Ġhem": 5456,
      "ĠnÆ°": 5457,
      "ĠtrÃ¡c": 5458,
      "ĠnhÃµng": 5459,
      "Ġgá»«": 5460,
      "Ġsáº£o": 5461,
      "Ġsá»§ng": 5462,
      "ĠxÃłm": 5463,
      "Ġquáº¯p": 5464,
      "á»ın": 5465,
      "ĠcÃ³i": 5466,
      "Ã©c": 5467,
      "Ġthuáº«n": 5468,
      "Ġtá»§y": 5469,
      "ĠcÃłu": 5470,
      "ĠÄĳá»ĵm": 5471,
      "Ġkeng": 5472,
      "Ġá»¥": 5473,
      "ĠtÃ³t": 5474,
      "Ġtháº¯n": 5475,
      "ĠbÃ£ng": 5476,
      "Ġbá»£m": 5477,
      "Ġchá»ım": 5478,
      "Ġváº±n": 5479,
      "Ġngáº¥u": 5480,
      "Ã´c": 5481,
      "Ġtráº½n": 5482,
      "Ġnhiáº¿p": 5483,
      "Ġsá»§i": 5484,
      "Ġdoi": 5485,
      "á»ģu": 5486,
      "Ġrá»¥c": 5487,
      "ĠgiáºŃm": 5488,
      "Ġngháº»o": 5489,
      "Ġyáº¿t": 5490,
      "Ġmáº¹o": 5491,
      "Ġmáº¹t": 5492,
      "ine": 5493,
      "ĠchuÃ¢n": 5494,
      "ĠcÃłm": 5495,
      "Ġrá»īa": 5496,
      "Ġbáº»m": 5497,
      "ĠtÃ¨m": 5498,
      "ĠÄĳÆ¡i": 5499,
      "ĠÄĳÆ°á»Ľc": 5500,
      "Ġmáº£y": 5501,
      "Ġgá»ĵm": 5502,
      "ĠÄĳá»įi": 5503,
      "Ġthá»ĭch": 5504,
      "Ġthá»īu": 5505,
      "Ġngá»¥a": 5506,
      "Ġ88": 5507,
      "Ġmiá»ĩn": 5508,
      "Ġliá»ħn": 5509,
      "Ġbá»ĳt": 5510,
      "ĠvÆ°": 5511,
      "ĠnÃ¹i": 5512,
      "Ġngáº¹n": 5513,
      "Ġnháº¹n": 5514,
      "Ġnháº·n": 5515,
      "Ġnhá»Ŀn": 5516,
      "ĠsÃº": 5517,
      "Ġsáº¿u": 5518,
      "Ġxáº©y": 5519,
      "ĠkhÆ°á»Ľc": 5520,
      "Ġphung": 5521,
      "Æ°á»£p": 5522,
      "ĠhuÃªnh": 5523,
      "ĠsoÃ¡i": 5524,
      "Ġnhoáº¹t": 5525,
      "Ġmui": 5526,
      "Ġfaay": 5527,
      "ĠÃºy": 5528,
      "ĠcÆ°á»£c": 5529,
      "Ġcáº¡ch": 5530,
      "ĠcÆ°á»Ŀm": 5531,
      "Ġtháº§u": 5532,
      "Ġvá»±a": 5533,
      "Ġnáº£": 5534,
      "ĠnÆ°á»£p": 5535,
      "ĠtrÃ³c": 5536,
      "Ġtráº£y": 5537,
      "ĠgÄĥng": 5538,
      "ĠsáºŃm": 5539,
      "ĠsÃ¡p": 5540,
      "ĠdÆ°á»£ng": 5541,
      "ĠrÆ¡n": 5542,
      "ĠrÆ°á»Łi": 5543,
      "ĠpÃ¢y": 5544,
      "á»ħm": 5545,
      "ĠngoÃ¡y": 5546,
      "Ġkáº»ng": 5547,
      "Ġngá»Ļp": 5548,
      "ĠphÃºn": 5549,
      "ĠsoÃłi": 5550,
      "Ġza": 5551,
      "Ġbá»īnh": 5552,
      "Ġjan": 5553,
      "Äĳ": 5554,
      "âĢ": 5555,
      "Ġá»ħnh": 5556,
      "ĠmÃ¡nh": 5557,
      "ĠmÃ£ng": 5558,
      "ĠthÃ¨n": 5559,
      "Ġbá»Ľ": 5560,
      "Ġchá»Ńng": 5561,
      "ĠchÃ³p": 5562,
      "ĠhÃ½": 5563,
      "ĠnÃ¡m": 5564,
      "Ġtrá»£t": 5565,
      "Ġnhom": 5566,
      "Ġnhá»Ļt": 5567,
      "Ġnhuyá»ħn": 5568,
      "Ġsh": 5569,
      "ĠsÆ°u": 5570,
      "Ġxáº¯p": 5571,
      "ĠloÃłn": 5572,
      "Ġbá»ım": 5573,
      "Ġnguoi": 5574,
      "ĠdÄ©a": 5575,
      "TTTT": 5576,
      "Ġnick": 5577,
      "Ġáº©u": 5578,
      "Ġtáº§y": 5579,
      "Ġcá»Ł": 5580,
      "ĠÄĳÃ¡i": 5581,
      "ark": 5582,
      "ĠláºŃu": 5583,
      "ĠlÃ¨m": 5584,
      "ĠthÆ°á»£c": 5585,
      "Ġthá»įc": 5586,
      "Ġtháº¡nh": 5587,
      "Ġbáº£i": 5588,
      "Ġvá»įi": 5589,
      "Ġhá»±": 5590,
      "Ġhá»ĳng": 5591,
      "Ġháºµng": 5592,
      "Ġná»įc": 5593,
      "Ġnáº¡ng": 5594,
      "Ġsáº©m": 5595,
      "Ġká»ģm": 5596,
      "ĠdÃ£n": 5597,
      "ĠxÃ¬u": 5598,
      "ĠrÆ¡": 5599,
      "ĠrÃªm": 5600,
      "ĠrÆ°á»Ľn": 5601,
      "Ġkhau": 5602,
      "Ġkhá»ħnh": 5603,
      "Ġgiá»¥a": 5604,
      "Ġquo": 5605,
      "ĠcÃ³t": 5606,
      "Ġuá»ĥ": 5607,
      "ĠmÅ©m": 5608,
      "ĠzÃ´": 5609,
      "Ġsá»īn": 5610,
      "Ġon": 5611,
      "Ġtá»Ł": 5612,
      "Ãªc": 5613,
      "Ġtrá»ī": 5614,
      "ĠtrÃ©o": 5615,
      "Ġnhá»ħ": 5616,
      "Ġnháº¡o": 5617,
      "Ġgao": 5618,
      "Ġgá»¥": 5619,
      "Ġsy": 5620,
      "TBTBBT": 5621,
      "Ġxáº¡o": 5622,
      "Ġráº»o": 5623,
      "ĠkhÃº": 5624,
      "Ġkhá»Ń": 5625,
      "Ġtuá»ĵn": 5626,
      "Ġchun": 5627,
      "ĠÄĳá»ĭu": 5628,
      "Ġfe": 5629,
      "ĠnhÆ°á»£ng": 5630,
      "Ġtáº¿u": 5631,
      "Ġlá»ĳm": 5632,
      "Ġnin": 5633,
      "ĠnÃŃch": 5634,
      "Ġtrá»Ŀ": 5635,
      "Ġtrá»ı": 5636,
      "Ġnháº£m": 5637,
      "ĠsÆ¡i": 5638,
      "ĠsÃ²n": 5639,
      "Ġká»ĭ": 5640,
      "Ġdd": 5641,
      "Ġdá»ģn": 5642,
      "ĠdÃºi": 5643,
      "Ġdáº±m": 5644,
      "Ġdáº©u": 5645,
      "Ġdiáº¿c": 5646,
      "Ġkhiáº¿u": 5647,
      "Ġphá»ķng": 5648,
      "Ġngháº¹t": 5649,
      "Ġnhá»Ľn": 5650,
      "Ġduá»ģnh": 5651,
      "Ġphá»īnh": 5652,
      "ĠcÃ£": 5653,
      "Ġlá»Ń": 5654,
      "Ġluá»ĳc": 5655,
      "Ġchá»Ļt": 5656,
      "ĠnÃ©o": 5657,
      "Ġtrá»ĥ": 5658,
      "Ġtrá»¡": 5659,
      "Ġnhá»Ń": 5660,
      "Ġgá»ĳm": 5661,
      "Ġsá»Ńng": 5662,
      "ĠdÅ©a": 5663,
      "Ġxá»ģ": 5664,
      "ĠrÃłn": 5665,
      "ĠrÃºm": 5666,
      "á»ĳp": 5667,
      "Ġthun": 5668,
      "Ġngoáº·t": 5669,
      "Ġtom": 5670,
      "Ġduá»ĩ": 5671,
      "Ġmuá»Ĺng": 5672,
      "Ġkáº½m": 5673,
      "ĠÄĳá»īa": 5674,
      "ĠÃ©m": 5675,
      "ĠtÆ°á»£c": 5676,
      "ĠÄĳáº¥p": 5677,
      "Ġmáº¿u": 5678,
      "Ġthá»ıi": 5679,
      "Ġcháº³n": 5680,
      "Ġchá»Ļp": 5681,
      "Ġvá»ĳi": 5682,
      "Ġháº¯ng": 5683,
      "Ġháº§y": 5684,
      "ĠnhÃ´i": 5685,
      "Ġgá»¯": 5686,
      "Ġsua": 5687,
      "Ġsáº¡p": 5688,
      "Ġxáº¡m": 5689,
      "ĠrÃ¡": 5690,
      "Ġkhem": 5691,
      "Ġkháº³m": 5692,
      "Ġpark": 5693,
      "Ġchoang": 5694,
      "ĠloÃ©t": 5695,
      "ĠtoÃ¡i": 5696,
      "Ġlá»ĭnh": 5697,
      "Ġgá»¯i": 5698,
      "Ġ8": 5699,
      "ĠÃ²": 5700,
      "Ġuá»Ļt": 5701,
      "ĠâĢ": 5702,
      "ĠtÃ²i": 5703,
      "ĠcÃ¡ng": 5704,
      "ĠÄĳÆ°Æ¡m": 5705,
      "ĠmÄĥm": 5706,
      "ĠmÃ¡n": 5707,
      "Ġthiá»ģm": 5708,
      "ĠchÄ©u": 5709,
      "ĠváºŃp": 5710,
      "ĠhÃ³c": 5711,
      "ĠnhÃ´m": 5712,
      "ĠnhÃ¨o": 5713,
      "Ġnhá»Ļng": 5714,
      "Ġgá»Ŀ": 5715,
      "ĠgÃºt": 5716,
      "ĠgÄĥp": 5717,
      "Ġsá»ģ": 5718,
      "Ġsá»į": 5719,
      "ĠkÃ©": 5720,
      "Ġkiá»ģm": 5721,
      "ĠdÃ´i": 5722,
      "Ġxiu": 5723,
      "Ġgiá»ĳc": 5724,
      "ĠphÃ´n": 5725,
      "Ġdáº¡c": 5726,
      "Ġgháº¹": 5727,
      "Ġchuá»ķi": 5728,
      "ĠchÃ³e": 5729,
      "Ġmuá»ĵi": 5730,
      "ĠkiÃªm": 5731,
      "es": 5732,
      "id": 5733,
      "Ġá»į": 5734,
      "Ġtáº»o": 5735,
      "ĠÄĳÃ¹": 5736,
      "ĠÄĳÄ©nh": 5737,
      "Ġbáº¹p": 5738,
      "Ġcháº¯ng": 5739,
      "Ġvá»ĵi": 5740,
      "ĠhÃ³p": 5741,
      "ĠgÃº": 5742,
      "ĠdÄĥn": 5743,
      "Ġxá»ĳc": 5744,
      "Ġtá»«a": 5745,
      "Ġsoan": 5746,
      "Ġ4": 5747,
      "ĠÃµng": 5748,
      "Ġtáº¹t": 5749,
      "Ġcá»ĵ": 5750,
      "ĠÄĳáºµm": 5751,
      "Ġmiá»ħu": 5752,
      "Ġlá»£t": 5753,
      "ĠthÃºt": 5754,
      "ĠbÆ°": 5755,
      "Ġbáº±m": 5756,
      "Ġchá»įe": 5757,
      "Ġná»Ĺ": 5758,
      "Ġná»Ľt": 5759,
      "Ġngáº¡": 5760,
      "ĠngÄĥm": 5761,
      "TBBTBT": 5762,
      "ĠsuÃ´i": 5763,
      "Ġdáº¥m": 5764,
      "ĠrÃłm": 5765,
      "ĠkháºŃt": 5766,
      "ĠpiÃªu": 5767,
      "Äĥk": 5768,
      "Ġxuá»ĥ": 5769,
      "Ġghá»ĭ": 5770,
      "Ġngoáº¡c": 5771,
      "iá»ħng": 5772,
      "Ġsoáº¡t": 5773,
      "ĠlÃ²m": 5774,
      "Ġmun": 5775,
      "Ġmá»¥n": 5776,
      "at": 5777,
      "ĠtÆ°a": 5778,
      "Ġcá»¯a": 5779,
      "ĠÄĳÃªn": 5780,
      "Ġmiáº¿n": 5781,
      "Ġthiáº¿n": 5782,
      "Ġby": 5783,
      "Ġbá»ĥn": 5784,
      "Ġnáº¯c": 5785,
      "ĠnÆ°á»Ŀm": 5786,
      "Ġngáº¥y": 5787,
      "Ġngá»¯a": 5788,
      "Ġsá»įt": 5789,
      "ĠdÆ¡n": 5790,
      "Ġrá»į": 5791,
      "Ġquáº¯c": 5792,
      "TTBBTT": 5793,
      "Ġtiáº¿m": 5794,
      "Ġghá»ģ": 5795,
      "ĠtoÃ¡c": 5796,
      "ĠuÃ´ng": 5797,
      "ĠngÃ³p": 5798,
      "ĠÄĳep": 5799,
      "Ġbá»§n": 5800,
      "BTTBB": 5801,
      "Ġtá»Ļ": 5802,
      "ĠtÃ¢ng": 5803,
      "ĠmÃ³i": 5804,
      "Ġmá»ĳng": 5805,
      "ĠmiÃªu": 5806,
      "Ġlá»ģnh": 5807,
      "Ġbáºµm": 5808,
      "Ġváºµng": 5809,
      "ĠhÃ¡ng": 5810,
      "Ġhá»¥": 5811,
      "ĠtrÃ¡t": 5812,
      "Ġnháº¯t": 5813,
      "ĠnháºŃm": 5814,
      "Ġgá»§i": 5815,
      "Ġxá»Ļn": 5816,
      "Ġxá»ĳp": 5817,
      "ĠrÃ´i": 5818,
      "Ġrá»Ĺ": 5819,
      "Ġkháº¯ng": 5820,
      "áº¯k": 5821,
      "Ġpin": 5822,
      "Ġpháº¡ch": 5823,
      "Ġquá»Ł": 5824,
      "Ġquáº·ng": 5825,
      "Ġngho": 5826,
      "Ġnhá»Ľt": 5827,
      "Æ°á»£i": 5828,
      "á»Ĺm": 5829,
      "Ġkiáº¿ng": 5830,
      "Ġruá»Ĺi": 5831,
      "Ġtá»ın": 5832,
      "ĠtoÃłng": 5833,
      "Ġkhuyá»ĥn": 5834,
      "Ġnguá»ĩch": 5835,
      "ĠhuÆ¡": 5836,
      "BTTBTT": 5837,
      "Ġmuá»ĵng": 5838,
      "ĠÄĳá»ĳp": 5839,
      "Ġtrá»«u": 5840,
      "Ġkhá»īnh": 5841,
      "BTTBBT": 5842,
      "Ġá»Ļp": 5843,
      "Ġtá»ĵ": 5844,
      "Ġmá»ĩ": 5845,
      "Ġlá»Ľi": 5846,
      "Ġcháº¡c": 5847,
      "ĠchÆ¡m": 5848,
      "Ġcháº¡ch": 5849,
      "Ġcháº·c": 5850,
      "ĠvÃ¡o": 5851,
      "ĠhÃ¡c": 5852,
      "Ġháº¥u": 5853,
      "Ġne": 5854,
      "ĠgÃ´": 5855,
      "Ġsáº¥y": 5856,
      "ĠsÃ¡i": 5857,
      "Ġsá»Ļt": 5858,
      "Ġdá»ım": 5859,
      "Ġxá»Ł": 5860,
      "Ġrá»ĳng": 5861,
      "Ġgiáº«y": 5862,
      "ĠpÃ´n": 5863,
      "ĠquÄĥn": 5864,
      "á»ĭu": 5865,
      "ĠthuÃ´n": 5866,
      "Ġcá»©t": 5867,
      "Ġngoáº¯t": 5868,
      "Ġkhuáº¿ch": 5869,
      "ĠchuÃ´m": 5870,
      "ĠÄĳá»¥p": 5871,
      "Ġnhuá»ĩ": 5872,
      "uc": 5873,
      "ĠÃ¹ng": 5874,
      "ĠÃ¡y": 5875,
      "ĠÄĳáºŃt": 5876,
      "ĠÄĳÃ©c": 5877,
      "Ġláº·c": 5878,
      "ĠthÆ°á»£t": 5879,
      "Ġthá»Ńng": 5880,
      "ĠbÆ°a": 5881,
      "Ġbáº»o": 5882,
      "Ġcháº£ng": 5883,
      "Ġchá»ħm": 5884,
      "Ġngáº¡nh": 5885,
      "Ġtrá»Ļi": 5886,
      "Ġtráº£ng": 5887,
      "Ġtrá»ĳc": 5888,
      "Ġnhá»ĳn": 5889,
      "ĠsÃ¨": 5890,
      "ĠsÃłm": 5891,
      "Ġky": 5892,
      "Ġxiáº¿c": 5893,
      "ĠrÃºng": 5894,
      "ĠkhÃ¨": 5895,
      "ĠkhÃªnh": 5896,
      "ĠgiáºŃy": 5897,
      "Ġyá»ĥ": 5898,
      "ĠghÃ¡nh": 5899,
      "Ġbá»ĭa": 5900,
      "Ġá»īm": 5901,
      "Ġtáº±ng": 5902,
      "ĠÄĳá»Ľi": 5903,
      "ĠchÅ©": 5904,
      "Ġcháº½": 5905,
      "Ġvá»¥c": 5906,
      "Ġhá»ĥ": 5907,
      "Ġngáº¯c": 5908,
      "Ġtran": 5909,
      "ĠtrÄ©": 5910,
      "Ġsá»Ĺ": 5911,
      "Ġsá»ĩt": 5912,
      "ĠsÃ²m": 5913,
      "ĠdÃ¡c": 5914,
      "ĠdÃ¡o": 5915,
      "ĠrÆ°á»Ŀng": 5916,
      "Ġrá»ĳc": 5917,
      "Ġruá»ĳc": 5918,
      "ĠgiÃª": 5919,
      "Ġgiáº§n": 5920,
      "Ġphon": 5921,
      "Ġhoáº¯c": 5922,
      "Ã©ng": 5923,
      "ĠgiÃ³t": 5924,
      "Ġvá»£t": 5925,
      "Ġnháº¹m": 5926,
      "Ġduá»ķi": 5927,
      "Ġtráº£m": 5928,
      "ĠviÃªc": 5929,
      "ĠquÃ½nh": 5930,
      "Ġrá»§n": 5931,
      "Ġxáº»ng": 5932,
      "Ġboong": 5933,
      "Ġ10": 5934,
      "Ġ8888": 5935,
      "eng": 5936,
      "li": 5937,
      "ve": 5938,
      "Ġláº¹o": 5939,
      "Ġlá»£m": 5940,
      "ĠthÃ²m": 5941,
      "Ġchá»ĩ": 5942,
      "ĠchÃºi": 5943,
      "ĠhÆ°á»Ľc": 5944,
      "ĠhÃ£ng": 5945,
      "ĠtriÃªu": 5946,
      "Ġnhon": 5947,
      "Ġnhá»Ńng": 5948,
      "Ġsáº¯ng": 5949,
      "ĠxÄĥn": 5950,
      "Ġxá»ĩch": 5951,
      "ĠphÃ©t": 5952,
      "Ġquáº¿t": 5953,
      "Ġthuong": 5954,
      "Ġchiá»ĥu": 5955,
      "Ġngun": 5956,
      "ĠnguÃ²i": 5957,
      "Ġcuá»Ŀi": 5958,
      "ĠÄĳá»¥t": 5959,
      "Ġbá»Ļp": 5960,
      "ĠvÃŃn": 5961,
      "Ġká»ĩch": 5962,
      "ll": 5963,
      "Ġáº»o": 5964,
      "Ġáº³m": 5965,
      "ĠÃºn": 5966,
      "ĠtÆ¡n": 5967,
      "Ġtá»£n": 5968,
      "Ġthiá»ĥn": 5969,
      "ĠchÃ¹": 5970,
      "Ġváº¡m": 5971,
      "ĠhÃ¢u": 5972,
      "Ġháº¹": 5973,
      "ĠtrÃ¢y": 5974,
      "ĠtrÄ©nh": 5975,
      "Ġnhin": 5976,
      "Ġsá»ķng": 5977,
      "ĠkÃ´ng": 5978,
      "ĠkÄ©u": 5979,
      "Ġxáº±ng": 5980,
      "ĠxÃ©m": 5981,
      "Ġxáº¹t": 5982,
      "Ġrá»ģ": 5983,
      "Ġrá»£i": 5984,
      "ĠrÃºn": 5985,
      "Ġgiáº»": 5986,
      "ĠphÃłnh": 5987,
      "ĠchoÃ¡n": 5988,
      "Ġháº¡ch": 5989,
      "ĠchÃŃp": 5990,
      "Ġseine": 5991,
      "Ġcup": 5992,
      "ĠsuÃª": 5993,
      "Ġcá»¥p": 5994,
      "Ġvá»ın": 5995,
      "ĠlÃŃp": 5996,
      "Ġ9": 5997,
      "Ġten": 5998,
      "Ġcá»Ľn": 5999,
      "Ġmá»ĵn": 6000,
      "Ġláº·p": 6001,
      "Ġliá»ĥu": 6002,
      "Ġbá»¥m": 6003,
      "ĠchÃ¢y": 6004,
      "Ġchá»įt": 6005,
      "Ġchá»Ļi": 6006,
      "Ġháº¥ng": 6007,
      "ĠnÃ¬": 6008,
      "Ġná»Ļm": 6009,
      "Ġná»Ľp": 6010,
      "ĠngÃ¨o": 6011,
      "ĠngÃ²m": 6012,
      "Ġgáº¥c": 6013,
      "ĠsÃŃt": 6014,
      "Ġdáº£": 6015,
      "ĠdÃµng": 6016,
      "Ġxáº§m": 6017,
      "Ġxá»Ļc": 6018,
      "Ġxá»Ľt": 6019,
      "ĠrÆ°á»Ŀm": 6020,
      "ĠkhÃ²m": 6021,
      "Ġpáº¯c": 6022,
      "ĠphÃ´ng": 6023,
      "Ġngoáº¯c": 6024,
      "ĠÄĳá»§i": 6025,
      "Ġxoáº¡c": 6026,
      "ĠbiÃªt": 6027,
      "ĠÄĳuá»ģ": 6028,
      "Ġtá»ĭt": 6029,
      "Ġsoáº£i": 6030,
      "Ġtrui": 6031,
      "ĠngÆ°Ã²i": 6032,
      "th": 6033,
      "Ġ6": 6034,
      "ĠiÃªu": 6035,
      "Ġá»§a": 6036,
      "ĠmÆ°Æ¡n": 6037,
      "ĠmÄĥt": 6038,
      "ĠthÃµa": 6039,
      "Ġbin": 6040,
      "Ġbá»Ńu": 6041,
      "Ġchá»ģnh": 6042,
      "Ġchiá»ģng": 6043,
      "Ġvá»į": 6044,
      "Ġhinh": 6045,
      "ĠháºŃm": 6046,
      "ĠhÃ³m": 6047,
      "ĠhÃ¹n": 6048,
      "Ġhá»£m": 6049,
      "Ġngá»¥t": 6050,
      "ĠtrÆ°": 6051,
      "ĠtrÆ°á»£c": 6052,
      "Ġnhá»¡n": 6053,
      "Ġnháº¡y": 6054,
      "Ġgáº·ng": 6055,
      "Ġku": 6056,
      "Ġxá»©c": 6057,
      "Ġrá»ĭch": 6058,
      "Ġphiu": 6059,
      "ĠtiÃªng": 6060,
      "Ġloáº¡ng": 6061,
      "Ġtoáº£n": 6062,
      "ĠxoÄĥn": 6063,
      "ĠÄĳá»Ļp": 6064,
      "Ġxá»īa": 6065,
      "Ġphone": 6066,
      "BBTTTT": 6067,
      "ĠÄĳÃº": 6068,
      "ĠmÃªng": 6069,
      "ĠlÃ´n": 6070,
      "Ġlá»ķi": 6071,
      "ĠlÃºp": 6072,
      "Ġláº³n": 6073,
      "ĠthÃºi": 6074,
      "ĠthÃ¢t": 6075,
      "ĠbÃ¨m": 6076,
      "Ġvá»ĩn": 6077,
      "ĠhiÃªu": 6078,
      "Ġhá»Ńu": 6079,
      "Ġná»Ŀ": 6080,
      "Ġngá»ķ": 6081,
      "ĠngÃ¹n": 6082,
      "Ġtrá»įt": 6083,
      "ĠtrÃ¡p": 6084,
      "Ġnháº·ng": 6085,
      "Ġnháº£n": 6086,
      "Ġnhiá»ĥu": 6087,
      "Ġgon": 6088,
      "ĠsÃ¡c": 6089,
      "ĠsÃµng": 6090,
      "Ġká»ģn": 6091,
      "ĠkÃ¬n": 6092,
      "Ġdá»ķ": 6093,
      "Ġdá»ķi": 6094,
      "ĠxÃ³c": 6095,
      "Ġxuyáº¿t": 6096,
      "ĠgiáºŃp": 6097,
      "Æ°á»Ľu": 6098,
      "á»Ĺn": 6099,
      "Ġháº¡m": 6100,
      "Ġxoang": 6101,
      "Ġsá»Łn": 6102,
      "Ġbeng": 6103,
      "Ġbá»īu": 6104,
      "Ġmá»§ng": 6105,
      "ĠvÆ°á»¡n": 6106,
      "Ġang": 6107,
      "Ġá»³": 6108,
      "Ġmá»į": 6109,
      "ĠmuÃ´i": 6110,
      "Ġmáº³n": 6111,
      "Ġluy": 6112,
      "Ġláº£i": 6113,
      "Ġtháº¿t": 6114,
      "Ġbá»£n": 6115,
      "Ġvao": 6116,
      "Ġhá»ın": 6117,
      "ĠnÆ°a": 6118,
      "Ġnáº¡m": 6119,
      "Ġtrá»ĩ": 6120,
      "Ġtráº¡nh": 6121,
      "ĠgÆ°á»Ŀng": 6122,
      "ĠgÃ©t": 6123,
      "Ġdon": 6124,
      "Ġdiá»ĩm": 6125,
      "ĠdÃºm": 6126,
      "Ġxá»«": 6127,
      "Ġxáº¡t": 6128,
      "ĠrÃ¹m": 6129,
      "Ġgiáº·m": 6130,
      "Ġpi": 6131,
      "ĠquÃłnh": 6132,
      "Ġbui": 6133,
      "Ġchá»Ŀm": 6134,
      "Ġtum": 6135,
      "ĠghÃ¨n": 6136,
      "Ġthá»ģu": 6137,
      "ĠkhÃŃa": 6138,
      "ĠroÃłi": 6139,
      "Ġá»īu": 6140,
      "Ġtá»ħnh": 6141,
      "Ġyá»ĥm": 6142,
      "Ġáº¡ch": 6143,
      "Ġcáº¡": 6144,
      "Ġcáº¡y": 6145,
      "Ġlua": 6146,
      "Ġlá»Ŀn": 6147,
      "ĠthÃ¡t": 6148,
      "ĠthÆ°á»Ŀn": 6149,
      "ĠbÆ¡n": 6150,
      "Ġháº¥n": 6151,
      "ĠnÆ°ng": 6152,
      "Ġngá»ĵ": 6153,
      "Ġsá»Ľi": 6154,
      "Ġsá»įc": 6155,
      "Ġkon": 6156,
      "Ġkiá»ħng": 6157,
      "ĠdÆ°á»£i": 6158,
      "ĠrÃµi": 6159,
      "Ġkháº¯n": 6160,
      "ĠphÃºng": 6161,
      "ĠquÃ¨n": 6162,
      "Ġhoai": 6163,
      "Ġngoáº·c": 6164,
      "Ġlunh": 6165,
      "ĠcuÃ´c": 6166,
      "Ġlá»Łm": 6167,
      "Ġfi": 6168,
      "Ġit": 6169,
      "Ġwe": 6170,
      "Ġwi": 6171,
      "Ġtá»ĥnh": 6172,
      "Ġtrá»īu": 6173,
      "er": 6174,
      "ut": 6175,
      "ĠÃ¢y": 6176,
      "ĠÄĳÃºa": 6177,
      "ĠÄĳáº¯k": 6178,
      "Ġláº¿ch": 6179,
      "Ġthin": 6180,
      "ĠbÄ©u": 6181,
      "ĠchÃ£o": 6182,
      "Ġchá»Ļn": 6183,
      "Ġchá»ĥnh": 6184,
      "ĠhÃºng": 6185,
      "ĠnÃ¡i": 6186,
      "Ġnet": 6187,
      "Ġtrá»©": 6188,
      "Ġgoi": 6189,
      "Ġgá»Ļp": 6190,
      "ĠsÃªn": 6191,
      "Ġsá»¥": 6192,
      "Ġdá»į": 6193,
      "Ġdá»ī": 6194,
      "Ġdá»«": 6195,
      "Ġxuá»ĳt": 6196,
      "Ġkhong": 6197,
      "ĠkhÃ¨o": 6198,
      "Ġgiá»Ļi": 6199,
      "Ġpo": 6200,
      "ĠpÃ¡c": 6201,
      "ĠquÃły": 6202,
      "Ġmá»Ļi": 6203,
      "áº¹c": 6204,
      "Ġchoi": 6205,
      "Ġxam": 6206,
      "Ġruá»Ĺng": 6207,
      "Ġun": 6208,
      "ĠviÃªt": 6209,
      "Ġká»īnh": 6210,
      "Ġtá»Łm": 6211,
      "..": 6212,
      "ld": 6213,
      "ĠtÃ£i": 6214,
      "ĠÄ©": 6215,
      "Ġmáº¿": 6216,
      "ĠmÆ°ng": 6217,
      "Æ°c": 6218,
      "ĠlÃ´m": 6219,
      "ĠthÃ£": 6220,
      "Ġbá»įng": 6221,
      "ĠchÃ²": 6222,
      "Ġvanh": 6223,
      "Ġváº¯c": 6224,
      "Ġhá»Ń": 6225,
      "Ġná»Ń": 6226,
      "ĠnÃ¨o": 6227,
      "TBBTTT": 6228,
      "Ġtrá»ĳ": 6229,
      "Ġnhá»£": 6230,
      "Ġnhá»±t": 6231,
      "ĠsÃ£": 6232,
      "ĠsÃ¹": 6233,
      "ĠsÃ©m": 6234,
      "Ġxáº¹p": 6235,
      "Ġxá»¥p": 6236,
      "Ġrá»ķi": 6237,
      "Ġrim": 6238,
      "ĠkhÃ¡o": 6239,
      "Ġkháº©y": 6240,
      "Ġkhiáº¿m": 6241,
      "ĠbuÃ½t": 6242,
      "ĠxoÃłn": 6243,
      "Ġtá»©a": 6244,
      "ĠngÃłu": 6245,
      "Ġah": 6246,
      "ĠmÃ²m": 6247,
      "Ġhá»īnh": 6248,
      "ĠâĢľ": 6249,
      "ĠchÅ©m": 6250,
      "le": 6251,
      "Ġ!": 6252,
      "Ġ0": 6253,
      "Ġáº«m": 6254,
      "Ġá»ıng": 6255,
      "Ġtiá»ĩp": 6256,
      "ĠtÃµa": 6257,
      "ĠlÃŃch": 6258,
      "ĠbáºŃm": 6259,
      "ĠbÆ°u": 6260,
      "Ġbá»ĩt": 6261,
      "Ġbá»©ng": 6262,
      "ĠchÆ°á»Łi": 6263,
      "Ġchá»¥t": 6264,
      "Ġvá»ĥ": 6265,
      "Ġváº£y": 6266,
      "Ġhia": 6267,
      "ĠnÆ°Æ¡c": 6268,
      "Ġngá»ĳn": 6269,
      "Ġngá»Ńng": 6270,
      "Ãªp": 6271,
      "Ġgen": 6272,
      "Ġgá»ī": 6273,
      "Ġgá»ıng": 6274,
      "Ġsá»ĵn": 6275,
      "TBTTBT": 6276,
      "Ġdiá»ģm": 6277,
      "Ġdiá»ĩc": 6278,
      "ĠxÃ¡n": 6279,
      "Ġxoi": 6280,
      "ĠxÃºp": 6281,
      "ĠxÃ¹m": 6282,
      "Ġxá»ĵm": 6283,
      "ĠrÃŃ": 6284,
      "ĠrÃ´n": 6285,
      "Ġrá»Ļm": 6286,
      "Ġkhá»į": 6287,
      "Ġkhá»§": 6288,
      "Ġkháº¥m": 6289,
      "Ġpháº¯c": 6290,
      "ĠphÆ°á»£t": 6291,
      "ĠquÃ¡c": 6292,
      "Ġháº¡p": 6293,
      "Ġtuáº¿ch": 6294,
      "ĠnghÄ©nh": 6295,
      "TBTBTT": 6296,
      "Ġghanh": 6297,
      "ĠruÃ´ng": 6298,
      "Ġnhá»ım": 6299,
      "Ġlá»¡m": 6300,
      "Ġoáº¡i": 6301,
      "Ġchá»Ľn": 6302,
      "ĠtrÃ²i": 6303,
      "Ġhá»ģu": 6304,
      "Ġnhoáº¡ng": 6305,
      "Ġgame": 6306,
      "Ġwor": 6307,
      "Ġlá»īnh": 6308,
      "ow": 6309,
      "Ġ7": 6310,
      "Ġá»ı": 6311,
      "ĠÃ¹m": 6312,
      "Ġtá»ģnh": 6313,
      "ĠÄĳáº¡": 6314,
      "ĠÄĳÃ©t": 6315,
      "Ġlá»£": 6316,
      "ĠláºŃm": 6317,
      "ĠlÃ©m": 6318,
      "ĠthÃ¨": 6319,
      "Ġthá»«": 6320,
      "Ġtháº±m": 6321,
      "Ġtháº¹o": 6322,
      "ĠbÆ°á»Ŀng": 6323,
      "Ġbá»¥": 6324,
      "Ġcháº¡n": 6325,
      "Ġcháº±n": 6326,
      "Ġvá»įc": 6327,
      "Ġhá»¥i": 6328,
      "Ġnáº¡nh": 6329,
      "Ġnáº¡o": 6330,
      "ĠtrÃ¹n": 6331,
      "Ġnhá»ģn": 6332,
      "ĠnhÃŃt": 6333,
      "Ġnháº«m": 6334,
      "Ġnhá»¥t": 6335,
      "ĠgÃŃ": 6336,
      "Ġgá»ķ": 6337,
      "Ġgáº±n": 6338,
      "ĠsÃ¢y": 6339,
      "ĠsÃŃ": 6340,
      "ĠsÃ¡n": 6341,
      "Ġsá»ĳc": 6342,
      "ĠdÅ©": 6343,
      "Ġdá»ıng": 6344,
      "Ġdiáº¿p": 6345,
      "Ġxáº¯t": 6346,
      "Ġráº¿": 6347,
      "Ġrá»ķn": 6348,
      "Ġkhá»ĩnh": 6349,
      "Ġgiáº£o": 6350,
      "ĠpÃł": 6351,
      "ĠpÆ¡": 6352,
      "ĠpÃ´": 6353,
      "Ġpá»ĳt": 6354,
      "Ġphá»ĩ": 6355,
      "Ġpháº¯t": 6356,
      "Ġquáº·t": 6357,
      "ĠnghiÃªu": 6358,
      "Ġxuá»ģ": 6359,
      "TTTBBT": 6360,
      "Ġoáº¡p": 6361,
      "Ġchá»Łm": 6362,
      "ĠhÃªt": 6363,
      "Ġváº¡y": 6364,
      "Ġkhá»įm": 6365,
      "al": 6366,
      "Ġáº¯c": 6367,
      "Ġá»¥c": 6368,
      "Ġlá»µ": 6369,
      "ĠthÄ©": 6370,
      "ĠthÆ°ng": 6371,
      "Ġbar": 6372,
      "Ġbiá»ģu": 6373,
      "Ġbáº©u": 6374,
      "Ġbá»¥p": 6375,
      "ĠchÃ©": 6376,
      "Ġvá»§": 6377,
      "ĠhÃ¡u": 6378,
      "ĠnÃ¢y": 6379,
      "Ġtráº¯m": 6380,
      "Ġtráº¡o": 6381,
      "Ġtrá»¥y": 6382,
      "ĠnhÃ¢u": 6383,
      "ĠnhÃ¡ch": 6384,
      "Ġnhá»įt": 6385,
      "ĠgÆ¡": 6386,
      "Ġgá»ı": 6387,
      "ĠsÃºp": 6388,
      "Ġdau": 6389,
      "ĠxÃº": 6390,
      "ĠxÃ©p": 6391,
      "ĠráºŃn": 6392,
      "Ġráº¥m": 6393,
      "Ġkháº¡c": 6394,
      "Ġkháº¡ng": 6395,
      "Ġgiáº§m": 6396,
      "Ġphá»Ĺng": 6397,
      "ĠphÆ°á»Ľn": 6398,
      "Ġhoáº±n": 6399,
      "ĠÄĳÃ£o": 6400,
      "ĠcÅ©i": 6401,
      "Ġtháº¿p": 6402,
      "Ġloáº±ng": 6403,
      "Ġngoáº±ng": 6404,
      "Ġtá»ıng": 6405,
      "ĠtÃłm": 6406,
      "Ġá»§n": 6407,
      "Ġphá»¥t": 6408,
      "ĠhuÃ½t": 6409,
      "ĠtrÃłu": 6410,
      "Ġrá»Ļp": 6411,
      "Ġgiá»Łn": 6412,
      "Ġxá»īu": 6413,
      "Ġngá»Ĺn": 6414,
      "Ġlá»īu": 6415,
      "Ġhá»±u": 6416,
      "Ġnghoáº£nh": 6417,
      "Ġnew": 6418,
      "it": 6419,
      "Ġá»ĵi": 6420,
      "Ġá»«a": 6421,
      "ĠcÃ´m": 6422,
      "ĠÄĳÄĥ": 6423,
      "ĠlÃºi": 6424,
      "ĠlÆ°á»Ŀn": 6425,
      "Ġthá»įt": 6426,
      "ĠbÃ¹m": 6427,
      "Ġháº±m": 6428,
      "Ġnáº¡c": 6429,
      "ĠngÃ¡ng": 6430,
      "Ġngáº±n": 6431,
      "ĠtrÃ¡m": 6432,
      "ĠnhÃ¢y": 6433,
      "Ġnhá»ĵn": 6434,
      "ĠnhÃ©p": 6435,
      "ĠgÃ¢m": 6436,
      "ĠgÃ¡p": 6437,
      "ĠgÆ°á»Ŀm": 6438,
      "Ġsá»ı": 6439,
      "Ġsáº¡c": 6440,
      "ĠsÆ¡m": 6441,
      "Ġdáº¯ng": 6442,
      "ĠdÃ¡i": 6443,
      "Ġdiu": 6444,
      "Ġxiá»ģn": 6445,
      "ĠrÃ²": 6446,
      "ĠrÃłi": 6447,
      "Ġráº¥p": 6448,
      "ĠkhÄĥm": 6449,
      "Ġkhá»«": 6450,
      "ĠgiÃ¡t": 6451,
      "Ġgiáº¥m": 6452,
      "ĠphÃ£i": 6453,
      "ĠphÆ°á»Ľng": 6454,
      "Ġphá»ģu": 6455,
      "ĠquÃło": 6456,
      "Ġxun": 6457,
      "Ġxuáº©n": 6458,
      "Ä©a": 6459,
      "Ä©m": 6460,
      "ĠgháºŃp": 6461,
      "Ġkhoáº¯n": 6462,
      "Ġngoáº£i": 6463,
      "Ġtoanh": 6464,
      "ĠoÃłng": 6465,
      "Ġel": 6466,
      "ĠsoÃ¡n": 6467,
      "Ġtáº¿ch": 6468,
      "Ġnghá»ĭÃªn": 6469,
      "ĠmÃ©c": 6470,
      "Ġláº¹m": 6471,
      "Ġá»ĳp": 6472,
      "Ġlá»ķm": 6473,
      "Ġjuy": 6474,
      "Ġrá»ĭa": 6475,
      "Ġrá»ĭm": 6476,
      "ĠquoÃ¡": 6477,
      "Ġbye": 6478,
      "ep": 6479,
      "tr": 6480,
      "ĠÃ¨": 6481,
      "ĠÃ³i": 6482,
      "Ġtá»¯": 6483,
      "ĠtÃµm": 6484,
      "Ġtáº½n": 6485,
      "ĠÄĳÅ©ng": 6486,
      "Ġmem": 6487,
      "ĠthÃłng": 6488,
      "ĠhÃ³i": 6489,
      "ĠnÃ¡y": 6490,
      "Ġngáº¡ch": 6491,
      "Ã´t": 6492,
      "ĠtrÃ£": 6493,
      "Ġnháº»o": 6494,
      "Ġnhiáº¿c": 6495,
      "ĠgÃ´m": 6496,
      "Ġgáº«u": 6497,
      "Ġsáº¡": 6498,
      "Ġsáº¿n": 6499,
      "Ġsáº¡o": 6500,
      "Ġdáº¿n": 6501,
      "ĠdÃ³ng": 6502,
      "Ġdáº£nh": 6503,
      "Ġdiáº¿m": 6504,
      "Ġdá»£m": 6505,
      "Ġxáº¯c": 6506,
      "ĠxÃ²m": 6507,
      "Ġráº·n": 6508,
      "Ġrá»±a": 6509,
      "Ġrá»ķng": 6510,
      "ĠkhÆ¡": 6511,
      "ĠkhÃºm": 6512,
      "Ġpu": 6513,
      "Ġphá»įt": 6514,
      "Ġphin": 6515,
      "ĠhoÃ¡c": 6516,
      "Ġnghá»ĥn": 6517,
      "Ġnghá»ĥnh": 6518,
      "ĠÄĳiu": 6519,
      "áº½m": 6520,
      "Ġgháº½": 6521,
      "Ġkhoáº¯ng": 6522,
      "ĠngoÃ¡c": 6523,
      "ĠngoÃ©o": 6524,
      "Ġrua": 6525,
      "Ġtoáº¹t": 6526,
      "ĠÄĥng": 6527,
      "Ġbiáº¿m": 6528,
      "ĠxoÃ£i": 6529,
      "Ġsea": 6530,
      "ĠrÅ©a": 6531,
      "Ġnghá»īu": 6532,
      "Ġnhá»§i": 6533,
      "Ġnhip": 6534,
      "ĠfÃª": 6535,
      "Ġchá»ķm": 6536,
      "TBTTTT": 6537,
      "Ġworld": 6538,
      "BTBTB": 6539,
      "ac": 6540,
      "op": 6541,
      "se": 6542,
      "ur": 6543,
      "Ġá»įe": 6544,
      "ĠmÃ¡o": 6545,
      "ĠmÄĥn": 6546,
      "Ġmá»«": 6547,
      "Ġmiá»ģm": 6548,
      "Ġláº¹t": 6549,
      "ĠthÄĥn": 6550,
      "Ġtháº¡c": 6551,
      "Ġtháº©y": 6552,
      "Ġbl": 6553,
      "Ġbáº±n": 6554,
      "Ġbáº¹o": 6555,
      "Ġchuy": 6556,
      "ĠchÃłn": 6557,
      "Ġcháº·p": 6558,
      "Ġchá»ĩch": 6559,
      "ĠvÃªu": 6560,
      "ĠnÃłm": 6561,
      "ĠngÃ²n": 6562,
      "ĠngÃ£ng": 6563,
      "Ġtron": 6564,
      "Ġtráº¡c": 6565,
      "ĠgÃ¬m": 6566,
      "Ġgá»¡i": 6567,
      "ĠgÃ©m": 6568,
      "Ġden": 6569,
      "Ġdem": 6570,
      "Ġxá»Ŀ": 6571,
      "Ġxá»ĩ": 6572,
      "ĠxÃºt": 6573,
      "ĠxÃ¡p": 6574,
      "Ġxáº©u": 6575,
      "Ġrá»±": 6576,
      "Ġráº£ng": 6577,
      "Ġrá»ĭt": 6578,
      "Ġrá»¥a": 6579,
      "ĠkhÃ¡u": 6580,
      "ĠkhÆ°á»Ľu": 6581,
      "Ġgien": 6582,
      "Ġgiá»ĵi": 6583,
      "Ġgiá»įi": 6584,
      "Ġquáº·p": 6585,
      "áº¹m": 6586,
      "ĠnghÃ©t": 6587,
      "ĠÄĳin": 6588,
      "ĠthÆ¡n": 6589,
      "Ġthuá»Ļt": 6590,
      "Ġchiáº¿p": 6591,
      "Ġluc": 6592,
      "ĠhÆ°Æ¡m": 6593,
      "Ġruá»Ļm": 6594,
      "ĠthÆ°ong": 6595,
      "Ġhum": 6596,
      "ĠcuÃ´ng": 6597,
      "ĠnoÃ£n": 6598,
      "Ġnghá»īm": 6599,
      "Ġbáº»n": 6600,
      "Ġmuá»Ĺm": 6601,
      "Ġzai": 6602,
      "ĠÄĳá»Łn": 6603,
      "Ġ20": 6604,
      "ĠsÃºy": 6605,
      "BTBTBT": 6606,
      "kh": 6607,
      "ui": 6608,
      "Ġá»±c": 6609,
      "ĠÃ£o": 6610,
      "Ġtáº©n": 6611,
      "ĠtÃ¡y": 6612,
      "ĠtÄ©u": 6613,
      "Ġcá»ķi": 6614,
      "ĠÄĳc": 6615,
      "ĠÄĳÃ¢t": 6616,
      "ĠmÃº": 6617,
      "Ġláº±m": 6618,
      "Ġliá»ĩp": 6619,
      "Ġlá»ķng": 6620,
      "Ġthy": 6621,
      "Ġtháº·ng": 6622,
      "Ġtháº±n": 6623,
      "Ġtháºµm": 6624,
      "Ġbá»±a": 6625,
      "Ġchá»Ļ": 6626,
      "ĠchÃµ": 6627,
      "Ġhiá»ģu": 6628,
      "ĠháºŃp": 6629,
      "ĠhÃºi": 6630,
      "ĠhÃµm": 6631,
      "ĠnÃ¡c": 6632,
      "Ġnáº«y": 6633,
      "Ġnhay": 6634,
      "Ġnhá»ħu": 6635,
      "Ġsá»©ng": 6636,
      "Ġdá»įt": 6637,
      "Ġdam": 6638,
      "Ġxá»ĵn": 6639,
      "ĠxÃ¡ng": 6640,
      "Ġxá»ķng": 6641,
      "Ġráº¿t": 6642,
      "Ġrá»įt": 6643,
      "Ġrá»ĭp": 6644,
      "Ġkhá»¥": 6645,
      "ĠkhÃ¹a": 6646,
      "ĠkhÃ¢ng": 6647,
      "ĠpÄĥng": 6648,
      "ĠphÄĥm": 6649,
      "Ġpháº¡n": 6650,
      "Ġphá»¡n": 6651,
      "Ġquá»ĩ": 6652,
      "Ġháº¡o": 6653,
      "Ġkiáº¿u": 6654,
      "Ġkhoen": 6655,
      "Ġbac": 6656,
      "ĠÄĳoi": 6657,
      "ĠÄĳoÃłnh": 6658,
      "BTBTTT": 6659,
      "ĠchuÃ´i": 6660,
      "Ġoáº³n": 6661,
      "Ġnoá»įng": 6662,
      "Ġnháº£u": 6663,
      "Ġfacee": 6664,
      "ĠÄĳá»Ŀm": 6665,
      "Ġquáº¡u": 6666,
      "Ġxá»īnh": 6667,
      "Ġtá»ħu": 6668,
      "de": 6669,
      "ing": 6670,
      "ot": 6671,
      "ou": 6672,
      "Ġtá»Ŀi": 6673,
      "ĠtÃºa": 6674,
      "ĠÄĳáº·m": 6675,
      "ĠÄĳÅ©i": 6676,
      "Ġmá»Ńa": 6677,
      "Ġmá»ħ": 6678,
      "ĠmiÃªng": 6679,
      "Ġmáº¥u": 6680,
      "Ġmiu": 6681,
      "Ġmá»·": 6682,
      "ĠthÃ©": 6683,
      "Ġthá»¥ng": 6684,
      "Ġbim": 6685,
      "ĠbÃŃu": 6686,
      "ĠchÄ©nh": 6687,
      "ĠchÆ°á»Ŀm": 6688,
      "ĠvÃ¹a": 6689,
      "Ġváº±m": 6690,
      "ĠhÆ°á»Ŀm": 6691,
      "Æ¡t": 6692,
      "ĠtrÃ©t": 6693,
      "ĠnhÃ²": 6694,
      "Ġnháº£i": 6695,
      "Ġnháº¹p": 6696,
      "ĠnhÃŃn": 6697,
      "Ġgá»Ļc": 6698,
      "Ġsá»¯": 6699,
      "ĠsÆ°á»£t": 6700,
      "ĠkÃŃt": 6701,
      "Ġdáº©n": 6702,
      "Ġxá»¥i": 6703,
      "Ġxá»ĭch": 6704,
      "Ġrá»Ľ": 6705,
      "Ġrá»¥m": 6706,
      "ĠgiÃ¢": 6707,
      "Ġgiáº¥t": 6708,
      "Ġgiáº¥n": 6709,
      "Ã£nh": 6710,
      "á»£u": 6711,
      "Ġhoc": 6712,
      "Ġngháº½o": 6713,
      "Ġthuáº¥n": 6714,
      "Ġtuá»ģnh": 6715,
      "Ġruá»£u": 6716,
      "ĠchÃŃu": 6717,
      "Ġlá»Ľt": 6718,
      "ĠhÆ°ong": 6719,
      "Ġsing": 6720,
      "Ġcuá»Ĺm": 6721,
      "ĠnoÃ¡i": 6722,
      "ĠhÃºy": 6723,
      "Ġphá»Łn": 6724,
      "ĠchÆ°n": 6725,
      "ĠâĢĿ": 6726,
      "Ġgá»Ŀm": 6727,
      "Ġweb": 6728,
      "97": 6729,
      "ss": 6730,
      "¸ı": 6731,
      "ï¸ı": 6732,
      "Ġ(": 6733,
      "Ġ)": 6734,
      "Ġtiá»ģng": 6735,
      "Ġck": 6736,
      "ĠcÆ°Æ¡i": 6737,
      "Ġcá»Ļm": 6738,
      "Ġcá»¡n": 6739,
      "ĠÄĳáº§": 6740,
      "ĠÄĳÄĥk": 6741,
      "ĠmÆ°": 6742,
      "ĠmÃŃch": 6743,
      "Ġmáº£n": 6744,
      "Ġmá»±a": 6745,
      "ĠlÃµ": 6746,
      "ĠlÆ°á»Łi": 6747,
      "Ġlá»ĵm": 6748,
      "ĠbÄ©nh": 6749,
      "Ġbáº«ng": 6750,
      "ĠchÃ¡ch": 6751,
      "Ġcháº«m": 6752,
      "ĠvÃ¡nh": 6753,
      "Ġháº«m": 6754,
      "Ġhuyá»ĥn": 6755,
      "Ġháºµn": 6756,
      "Ġniá»ģn": 6757,
      "Ġná»įt": 6758,
      "Ġnge": 6759,
      "ĠngÃ¹": 6760,
      "ĠngÆ°á»Ŀ": 6761,
      "Ġngáº£nh": 6762,
      "ĠtrÃ´m": 6763,
      "Ġtroi": 6764,
      "Ġnhá»ģ": 6765,
      "ĠgÃ©p": 6766,
      "Ġsáº¥n": 6767,
      "ĠsÃªnh": 6768,
      "Ġsá»ĥnh": 6769,
      "ĠdÃªm": 6770,
      "Ġdá»Ń": 6771,
      "Ġdeo": 6772,
      "Ġdáº¹o": 6773,
      "Ġdáºµm": 6774,
      "Ġxáº½": 6775,
      "ĠxÆ°á»£c": 6776,
      "ĠxÃ´m": 6777,
      "ĠxiÃªng": 6778,
      "Ġron": 6779,
      "Ġrá»įc": 6780,
      "Ġrá»Ńng": 6781,
      "Ġrá»ģu": 6782,
      "Ġkhá»Ĺ": 6783,
      "ĠgiÃ©": 6784,
      "ĠpÄĥk": 6785,
      "Ġpháº«u": 6786,
      "Ġphá»ĭu": 6787,
      "ĠphÃ©ng": 6788,
      "ĠquÃ¨o": 6789,
      "á»ĩp": 6790,
      "Ġláº¡o": 6791,
      "ĠhoÃ¡y": 6792,
      "Ġhoáº»n": 6793,
      "Ġyor": 6794,
      "ĠcÃ³m": 6795,
      "Ġchoáº£ng": 6796,
      "Ġram": 6797,
      "Ġchá»īa": 6798,
      "ĠlÃ¡u": 6799,
      "Ġtuá»ĵi": 6800,
      "Ġloáº£ng": 6801,
      "ĠkhoÃ¨o": 6802,
      "ĠkhoÃ¡y": 6803,
      "Ġcaf": 6804,
      "ĠluÃªnh": 6805,
      "Ġduá»Ľi": 6806,
      "Ġsáº»n": 6807,
      "ĠnoÃłng": 6808,
      "Ġnghá»īa": 6809,
      "ĠsoÃ£i": 6810,
      "ĠvÃ£nh": 6811,
      "Ġfan": 6812,
      "ĠÆ°Æ¡c": 6813,
      "Ġval": 6814,
      "Ġlá»įm": 6815,
      "Ġá»īn": 6816,
      "ĠhÃŃp": 6817,
      "Ġzin": 6818,
      "Ġmá»§m": 6819,
      "ĠdzÃ´": 6820,
      "Ġtá»Łn": 6821,
      "od": 6822,
      "ym": 6823,
      "ĠÅ©": 6824,
      "Ġá»Ń": 6825,
      "Ġï¸ı": 6826,
      "Ġtáº¥y": 6827,
      "Ġcá»ĵm": 6828,
      "ĠÄĳáºµ": 6829,
      "Ġmá»©a": 6830,
      "ĠmÃµng": 6831,
      "Ġmá»Ľn": 6832,
      "Ġlá»Łi": 6833,
      "Ġluá»ĳt": 6834,
      "ĠlÃ£n": 6835,
      "ĠlÃ¢p": 6836,
      "ĠthÆ°á»Ľng": 6837,
      "Ġben": 6838,
      "Ġbá»ıi": 6839,
      "Ġbá»Ńng": 6840,
      "Ġcháº¥y": 6841,
      "Ġcháº©n": 6842,
      "ĠchÃ£y": 6843,
      "Ġhá»¡": 6844,
      "Ġháº£nh": 6845,
      "ĠhÄ©nh": 6846,
      "Ġháº½m": 6847,
      "Ġnáº¹t": 6848,
      "á»Ŀng": 6849,
      "ĠtrÃ¢ng": 6850,
      "Ġtráº·c": 6851,
      "Ġtrá»¥t": 6852,
      "Ġtráº¹o": 6853,
      "ĠnhÆ¡i": 6854,
      "ĠnhÃ¹i": 6855,
      "Ġnháº»m": 6856,
      "Ġnhá»¥a": 6857,
      "Ġgá»ĵi": 6858,
      "Ġsá»Ļ": 6859,
      "ĠsÃ¨m": 6860,
      "Ġsá»ĭch": 6861,
      "ĠsÄĥc": 6862,
      "ĠkÃªn": 6863,
      "ĠkÃ´n": 6864,
      "Ġdá»ĵng": 6865,
      "Ġdáº½": 6866,
      "ĠdÃ¬n": 6867,
      "Ġdá»ıi": 6868,
      "Ġxá»±c": 6869,
      "Ġrá»ıi": 6870,
      "ĠrÆ°Æ¡m": 6871,
      "Ġkháº£ng": 6872,
      "Ġgim": 6873,
      "Ġgiá»Ĺi": 6874,
      "Ġgiáº¯c": 6875,
      "Ġgiáº¡m": 6876,
      "Ġple": 6877,
      "Ġpháº©n": 6878,
      "Ġhoáº¯t": 6879,
      "Ġnghá»ħnh": 6880,
      "Ġyeu": 6881,
      "Ġbuá»ĵi": 6882,
      "Ġcuá»Ļng": 6883,
      "Ġloáº¹t": 6884,
      "ĠghÃ¬nh": 6885,
      "Ġgháº¿ch": 6886,
      "Ã½nh": 6887,
      "Ġná»¥c": 6888,
      "ĠquyÃ©t": 6889,
      "ĠÄĳá»ım": 6890,
      "Ġngui": 6891,
      "ĠoÃ¡nh": 6892,
      "Ġlac": 6893,
      "Ġlá»¥m": 6894,
      "Ġdá»Łm": 6895,
      "Ġhuong": 6896,
      "ĠhuyÃªnh": 6897,
      "Ġnguyen": 6898,
      "Ġphui": 6899,
      "Ġsoong": 6900,
      "Ġdich": 6901,
      "ĠnhoÃłng": 6902,
      "Ġnhoáº½n": 6903,
      "Ġteng": 6904,
      "Ġgames": 6905,
      "Ġ12": 6906,
      "Ġshop": 6907,
      "Ġá»įp": 6908,
      "Ġrá»±u": 6909,
      "Ġyork": 6910,
      "ho": 6911,
      "jh": 6912,
      "Ġst": 6913,
      "Ġá»ĭ": 6914,
      "ĠÃªnh": 6915,
      "Ġtá»įt": 6916,
      "ĠÄĳÃ¢n": 6917,
      "ĠÄĳÃ´m": 6918,
      "ĠÄĳáºµn": 6919,
      "ĠÄĳáº¹t": 6920,
      "Ġmá»Ĺ": 6921,
      "ĠmÄĥc": 6922,
      "Ġluá»Ļt": 6923,
      "Ġlá»ım": 6924,
      "Ġtháº½": 6925,
      "Ġthá»Ĺn": 6926,
      "ĠchÃ©t": 6927,
      "Ġchá»ĩt": 6928,
      "ĠhÆ°á»Ľm": 6929,
      "ĠhÄ©m": 6930,
      "ĠnÃłnh": 6931,
      "Ġngá»ıng": 6932,
      "Ġtrá»ĭch": 6933,
      "Ġnháº¡": 6934,
      "Ġnháº»": 6935,
      "Ġnhiu": 6936,
      "Ġnhiá»ĥm": 6937,
      "ĠgÃ¡ng": 6938,
      "ĠrÃ£o": 6939,
      "ĠrÆ°á»Ľt": 6940,
      "Ġrá»ĩp": 6941,
      "Ġkhá»ĭ": 6942,
      "Ġkháº¡p": 6943,
      "ĠgiÃ²i": 6944,
      "Ġphá»ģnh": 6945,
      "ĠquÃłn": 6946,
      "Ġquáº£i": 6947,
      "ona": 6948,
      "Ġhoáº£nh": 6949,
      "Ġhoáº¡nh": 6950,
      "Ġnghá»ĭt": 6951,
      "TTTBTT": 6952,
      "Ġthuá»¡": 6953,
      "Ġngoc": 6954,
      "ĠÄĳoáº£ng": 6955,
      "Ġchuá»ĵi": 6956,
      "Ġof": 6957,
      "ĠngÃµng": 6958,
      "Ġdun": 6959,
      "Ġlá»¥p": 6960,
      "ĠphÃŃnh": 6961,
      "Ġcheng": 6962,
      "Ġcor": 6963,
      "Ġreng": 6964,
      "Ġnhoai": 6965,
      "Ġiem": 6966,
      "ĠrÆ°Æ¡u": 6967,
      "Ġrá»Łm": 6968,
      "Ġ888": 6969,
      "Ġshi": 6970,
      "Ġfei": 6971,
      "Ġsá»¥n": 6972,
      "Ġpost": 6973,
      "ĠthÃ£m": 6974,
      "ĠsÃŃp": 6975,
      "Ġplei": 6976,
      "BTTTB": 6977,
      "gg": 6978,
      "ich": 6979,
      "Äĵ": 6980,
      "Ġay": 6981,
      "Ġá»£": 6982,
      "Ġá»ĵm": 6983,
      "Ġáº»n": 6984,
      "Ġá»ım": 6985,
      "Ġ..": 6986,
      "Ġtáº«n": 6987,
      "Ġtá»¯u": 6988,
      "ent": 6989,
      "ars": 6990,
      "Ġlin": 6991,
      "Ġláº¿u": 6992,
      "Ġlá»ın": 6993,
      "ĠlÃ©ng": 6994,
      "Ġthem": 6995,
      "ĠthÃ¹m": 6996,
      "Ġbáº¯ng": 6997,
      "ĠbÃ³t": 6998,
      "ĠbÅ©a": 6999,
      "Ġbá»§ng": 7000,
      "ĠchÃªu": 7001,
      "Ġcháº«u": 7002,
      "Ġhau": 7003,
      "Ġhá»Ľi": 7004,
      "Ġhim": 7005,
      "Ġháº©ng": 7006,
      "ĠnÃ£i": 7007,
      "Ġngá»Ľp": 7008,
      "Ġngá»ĭu": 7009,
      "Ġtráº±ng": 7010,
      "Ġnhá»¯": 7011,
      "Ġnháº¯ng": 7012,
      "Ġnhá»ĥ": 7013,
      "ĠnhÃ¡m": 7014,
      "Ġnhá»¥i": 7015,
      "ĠgÆ¡n": 7016,
      "ĠgÆ°á»Łi": 7017,
      "Ġgáº¹o": 7018,
      "Ġsá»ĭt": 7019,
      "Ġsli": 7020,
      "Ġkáº¡n": 7021,
      "Ġdáº½o": 7022,
      "Ġxy": 7023,
      "ĠxÆ°": 7024,
      "ĠxÃ¹i": 7025,
      "Ġxáº«m": 7026,
      "ĠrÃ©": 7027,
      "ĠrÃ²m": 7028,
      "Ġkhá»¥y": 7029,
      "ĠgiÃ¢n": 7030,
      "ĠgiÃ¢ng": 7031,
      "ĠpÃª": 7032,
      "ĠpÃ³": 7033,
      "ĠpÃŃ": 7034,
      "Ġpheo": 7035,
      "TTBTTT": 7036,
      "ĠquÃłi": 7037,
      "Ġquá»Ľi": 7038,
      "ĠquÃ©o": 7039,
      "Ġquáº¯n": 7040,
      "ĠÄĳá»Ń": 7041,
      "Ġnghá»ģnh": 7042,
      "ĠyÃª": 7043,
      "á»©u": 7044,
      "Å©y": 7045,
      "á»ĥng": 7046,
      "Ġtiá»ħu": 7047,
      "ĠtuÆ¡i": 7048,
      "Ġvá»£n": 7049,
      "ĠtoÃłi": 7050,
      "Ġkhuá»µ": 7051,
      "ĠÄĳá»ıi": 7052,
      "ĠÄĳá»įn": 7053,
      "ĠoÃ¡ch": 7054,
      "ĠmÃ¹n": 7055,
      "Ġváº»n": 7056,
      "Ġná»¡m": 7057,
      "Ġrem": 7058,
      "Ġsuá»ĵng": 7059,
      "Ġphuc": 7060,
      "Ġsoáº¡ng": 7061,
      "Ġgiáº¿c": 7062,
      "ĠsÆ°á»¡i": 7063,
      "Ġmá»ĭa": 7064,
      "Ġmuá»Ŀi": 7065,
      "ĠÄĳá»Ŀá»ĭ": 7066,
      "Ġwa": 7067,
      "ĠlÃ¨ng": 7068,
      "Ġbá»ĩch": 7069,
      "Ġkhá»§y": 7070,
      "Ġcorona": 7071,
      "BTTTBT": 7072,
      "Ġ...": 7073,
      "Ġkhuá»µu": 7074,
      "ach": 7075,
      "ii": 7076,
      "vi": 7077,
      "Ã¶": 7078,
      "Ġáº¡nh": 7079,
      "ĠÃ¨n": 7080,
      "Ġá»¥p": 7081,
      "Ġá»ın": 7082,
      "ĠtÃ¬n": 7083,
      "ĠtÃ¨n": 7084,
      "ĠtÃ©m": 7085,
      "ĠtÆ°á»Ľp": 7086,
      "Ġtuá»Ļc": 7087,
      "Ġtá»įe": 7088,
      "ĠÄĳÆ°ng": 7089,
      "ĠÄĳáº»o": 7090,
      "ĠmÃªn": 7091,
      "Ġmá»±": 7092,
      "ĠmáºŃm": 7093,
      "ĠmÃºp": 7094,
      "Ġmáº¿ch": 7095,
      "Ġmiá»ĥng": 7096,
      "Ġmjh": 7097,
      "Ġliáº¿u": 7098,
      "Ġluá»Ļm": 7099,
      "Ġthá»¥p": 7100,
      "ĠbÆ°á»Ŀm": 7101,
      "Ġchá»Ŀi": 7102,
      "Ġchá»ı": 7103,
      "Ġcháº¹p": 7104,
      "ĠchÃ¨m": 7105,
      "Ġchá»ĩnh": 7106,
      "Ġcháº·m": 7107,
      "Ġcháº¹t": 7108,
      "Ġcháº½n": 7109,
      "ĠchÄ©a": 7110,
      "ĠvÆ°á»Ŀng": 7111,
      "ĠvÃ³ng": 7112,
      "Ġhá»©": 7113,
      "ĠhÃ¡y": 7114,
      "Ġháº¿ch": 7115,
      "Ġny": 7116,
      "ĠnÆ¡ng": 7117,
      "Ġná»ĭt": 7118,
      "Ġngá»©": 7119,
      "Ġngáº«ng": 7120,
      "Ġtram": 7121,
      "ĠtrÃªnh": 7122,
      "Ġtriá»ĩn": 7123,
      "Ġtrá»ıng": 7124,
      "Ã¢Ãº": 7125,
      "ĠgÃªm": 7126,
      "Ġgá»¯a": 7127,
      "ĠsÄĥng": 7128,
      "Ġsá»§": 7129,
      "Ġsá»Łi": 7130,
      "Ġsuá»ĳng": 7131,
      "Ġsá»©a": 7132,
      "ĠsÃ¹m": 7133,
      "Ġsá»¥a": 7134,
      "Ġdá»©": 7135,
      "Ġdá»įng": 7136,
      "Ġdá»Ļng": 7137,
      "Ġdá»Ľt": 7138,
      "Ġdá»§i": 7139,
      "Ġxon": 7140,
      "Ġxáº¯m": 7141,
      "Ġxá»ĳng": 7142,
      "Ġxá»Łi": 7143,
      "ĠxÆ°á»Ľt": 7144,
      "Ġrá»ĵn": 7145,
      "Ġrin": 7146,
      "Ġráº·c": 7147,
      "Ġráº·m": 7148,
      "Ġkhá»ĵ": 7149,
      "Ġkhá»įt": 7150,
      "Ġkháº¥c": 7151,
      "Ġgiá»ĳi": 7152,
      "ĠgiÄĥc": 7153,
      "Ġpen": 7154,
      "ĠpÃ¹": 7155,
      "ĠphÆ°ng": 7156,
      "ĠphÃŃch": 7157,
      "Ġqo": 7158,
      "Ġquit": 7159,
      "Ġhot": 7160,
      "ĠnghÃªng": 7161,
      "Ġngháº¹o": 7162,
      "ĠÄĳiá»ħm": 7163,
      "ĠÄĳá»ĥnh": 7164,
      "áº±t": 7165,
      "Ġchit": 7166,
      "ĠvuÃ´n": 7167,
      "ĠtuÃ´i": 7168,
      "Ġloai": 7169,
      "Ġmail": 7170,
      "Ġngot": 7171,
      "Ġtoáº¡t": 7172,
      "Ġcali": 7173,
      "Ġngá»§n": 7174,
      "ĠnguáºŃy": 7175,
      "Ġoáº·n": 7176,
      "ĠuÃ´m": 7177,
      "Ġuáº¥n": 7178,
      "ĠtuyÃªt": 7179,
      "Ġxáº¿ch": 7180,
      "Ġhuáº§y": 7181,
      "ĠdoÃ£n": 7182,
      "Ġká»ģu": 7183,
      "Ġeng": 7184,
      "Ġsoa": 7185,
      "ĠvÄ©a": 7186,
      "Ġkhá»©u": 7187,
      "Ġxáº»n": 7188,
      "Ġlá»§y": 7189,
      "Ġná»ın": 7190,
      "Ġnui": 7191,
      "Ġpak": 7192,
      "ĠÄĳá»«a": 7193,
      "ĠphÃ¨ng": 7194,
      "ĠnÆ°áº£": 7195,
      "ĠbÆ°á»ĵn": 7196,
      "ĠbÆ°Æ¡u": 7197,
      "Ġ88888": 7198,
      "Ġngá»ķm": 7199,
      "Ġgoing": 7200,
      "el": 7201,
      "gh": 7202,
      "lb": 7203,
      "ra": 7204,
      "Äģ": 7205,
      "Ġ:": 7206,
      "Ġáº³ng": 7207,
      "ĠÃ³t": 7208,
      "ĠÆ°á»Ŀn": 7209,
      "Ġáº¿m": 7210,
      "Ġá»ģnh": 7211,
      "ĠÃºm": 7212,
      "Ġtp": 7213,
      "Ġtá»£p": 7214,
      "Ġcá»įt": 7215,
      "ĠmÃ¢ng": 7216,
      "Ġmáº¥n": 7217,
      "Ġmiá»ĥn": 7218,
      "Ġmáº¡p": 7219,
      "Ġmiá»ģng": 7220,
      "ĠlÃły": 7221,
      "Ġlá»©c": 7222,
      "Ġláº«u": 7223,
      "Ġláº·m": 7224,
      "Ġlá»©t": 7225,
      "Ġláº¯k": 7226,
      "Ġthiáº¿c": 7227,
      "ĠthÅ©y": 7228,
      "Ġbá»©a": 7229,
      "ĠchÃ³a": 7230,
      "Ġcháº©m": 7231,
      "Ġváº§u": 7232,
      "ĠhÃ³": 7233,
      "ĠhÃ¨o": 7234,
      "ĠhÆ¡m": 7235,
      "Ġnáº¥t": 7236,
      "ĠnÃŃ": 7237,
      "Ġná»ĳng": 7238,
      "Ġná»ĭch": 7239,
      "Ġnuá»Ļc": 7240,
      "Ġngáº©y": 7241,
      "Ġngá»ķng": 7242,
      "ĠngÆ°Æ¡n": 7243,
      "Ġtrá»Ļ": 7244,
      "ĠtriÃªng": 7245,
      "Ġtráº±m": 7246,
      "Ġtruá»ĳt": 7247,
      "Ġtrá»ĭt": 7248,
      "ĠtrÃºm": 7249,
      "ĠnhÃ£i": 7250,
      "ĠnhÃµ": 7251,
      "Ġnhá»Łi": 7252,
      "Ġnháº©u": 7253,
      "Ã¢i": 7254,
      "Ġsáº±ng": 7255,
      "Ġsá»Ľn": 7256,
      "Ġsá»ĭn": 7257,
      "Ġsars": 7258,
      "Ġkg": 7259,
      "ĠkÃł": 7260,
      "Ġdáº¯c": 7261,
      "Ġdá»£i": 7262,
      "ĠdÃ³n": 7263,
      "ĠdÃ²i": 7264,
      "ĠdÆ°á»Ľn": 7265,
      "Ġrom": 7266,
      "Ġrá»ģnh": 7267,
      "ĠkhÆ°u": 7268,
      "Ġgiu": 7269,
      "Ġgiá»ķ": 7270,
      "ĠgiÃ¹ng": 7271,
      "Ġgiá»ĩt": 7272,
      "Ġgiá»£n": 7273,
      "Ġpan": 7274,
      "Ġphá»±c": 7275,
      "Ġpháº£y": 7276,
      "Ġphá»ĩt": 7277,
      "ĠphÆ°á»Łng": 7278,
      "ĠphÃ²m": 7279,
      "Ġquáº±ng": 7280,
      "Ġquáº·c": 7281,
      "iá»ģt": 7282,
      "Ġhop": 7283,
      "Ġyou": 7284,
      "ĠbuÃ¢n": 7285,
      "ĠxuÃ´n": 7286,
      "Ġtiá»ĥng": 7287,
      "Ġthuá»ķ": 7288,
      "áº»u": 7289,
      "uá»Ļn": 7290,
      "Ġloong": 7291,
      "ĠloÃ¡t": 7292,
      "Ġchiáº¿ng": 7293,
      "Ġchat": 7294,
      "Ġrum": 7295,
      "Ġchá»ĭch": 7296,
      "Ġnhá»ıng": 7297,
      "ĠtoÃ¡ng": 7298,
      "Ġtour": 7299,
      "Ġchuc": 7300,
      "ĠluÃ½nh": 7301,
      "Ġbá»ģu": 7302,
      "Ġxoáº¹t": 7303,
      "Ġmil": 7304,
      "ĠdoÃłnh": 7305,
      "Ġcos": 7306,
      "Ġbá»ĳp": 7307,
      "Ġnhat": 7308,
      "Ġláº£m": 7309,
      "Ġnhoáº±ng": 7310,
      "ĠnhoÃ©t": 7311,
      "Ġduyá»ģnh": 7312,
      "Ġmot": 7313,
      "ĠxÃ¨ng": 7314,
      "ĠcÃ£m": 7315,
      "BTT": 7316,
      "ean": 7317,
      "gi": 7318,
      "hÃ¬": 7319,
      "is": 7320,
      "ku": 7321,
      "oo": 7322,
      "pt": 7323,
      "rl": 7324,
      "ts": 7325,
      "Ã«": 7326,
      "Ġ.": 7327,
      "Ġá»«ng": 7328,
      "Ġáº¹p": 7329,
      "ĠÃ²m": 7330,
      "Ġáº¹c": 7331,
      "ĠtÃªu": 7332,
      "ĠtÅ©": 7333,
      "ĠtÃºt": 7334,
      "ĠcÃµ": 7335,
      "ĠcÃ¢ng": 7336,
      "Ġclb": 7337,
      "ĠÄĳÆ°": 7338,
      "ĠÄĳÃ©o": 7339,
      "ĠÄĳÆ°á»Łng": 7340,
      "Ġmáº©m": 7341,
      "ĠmÃºn": 7342,
      "ĠlÆ¡m": 7343,
      "Ġliá»ĥng": 7344,
      "Ġline": 7345,
      "ĠthÃ¡": 7346,
      "ĠthÃ³": 7347,
      "ĠthÃłi": 7348,
      "Ġbá»Ļng": 7349,
      "Ġbáº³m": 7350,
      "Ġbiá»ħn": 7351,
      "Ġbá»£t": 7352,
      "ĠchÃ´i": 7353,
      "Ġcháº¯m": 7354,
      "Ġchá»ıi": 7355,
      "Ġchiá»ĩu": 7356,
      "ĠcháºŃc": 7357,
      "Ġvá»ĳ": 7358,
      "Ġvá»Ńa": 7359,
      "ĠvÆ°á»Ľn": 7360,
      "Ġhin": 7361,
      "Ġnáº¹p": 7362,
      "ĠngÃªu": 7363,
      "Ġngung": 7364,
      "Ġtray": 7365,
      "Ġtrá»ĳt": 7366,
      "Ġtrá»Ńng": 7367,
      "Ġtráº«y": 7368,
      "Ġtriá»ħu": 7369,
      "Ġtráº©u": 7370,
      "Ġtriá»ģng": 7371,
      "Ġtrá»§ng": 7372,
      "ĠnhÃ´n": 7373,
      "ĠnháºŃy": 7374,
      "Ġnhá»Ļm": 7375,
      "Ġgáº¥y": 7376,
      "Ġgáº±m": 7377,
      "ĠgÃ¡m": 7378,
      "Ġká»ħ": 7379,
      "Ġdáº¥t": 7380,
      "Ġdá»§": 7381,
      "Ġdáº·ng": 7382,
      "Ġdá»©c": 7383,
      "ĠdÃ¡u": 7384,
      "Ġdá»±c": 7385,
      "ĠdÅ©i": 7386,
      "Ġxan": 7387,
      "Ġxáº¥t": 7388,
      "Ġxá»¥": 7389,
      "Ġxá»ķi": 7390,
      "Ġxá»«a": 7391,
      "ĠxÃ£y": 7392,
      "Ġráº¯ng": 7393,
      "ĠráºŃt": 7394,
      "Ġruá»ĳi": 7395,
      "Ġrá»įng": 7396,
      "Ġrá»Ļc": 7397,
      "Ġriáº¿u": 7398,
      "Ġkhá»ĵng": 7399,
      "Ġkháº¯m": 7400,
      "Ġgiá»Ľ": 7401,
      "Ġgiuá»Ļc": 7402,
      "Ġpr": 7403,
      "Ġpáº±ng": 7404,
      "Ġphiá»ĩt": 7405,
      "Ġphiá»ĩn": 7406,
      "Ġphá»©t": 7407,
      "Ġquáº¡ch": 7408,
      "Äĥu": 7409,
      "ĠÄĳá»³": 7410,
      "Ġtá»Ĺ": 7411,
      "Ġhoáºµng": 7412,
      "Ġya": 7413,
      "Ġchoáº¡i": 7414,
      "ĠnhÆ°á»¡ng": 7415,
      "Ġthuá»Ļm": 7416,
      "áº©t": 7417,
      "Ġtuáº«n": 7418,
      "Ġghá»ĥnh": 7419,
      "Ġkhoi": 7420,
      "ĠthoÃ£ng": 7421,
      "Ġkhuá»³nh": 7422,
      "Ġná»£n": 7423,
      "ĠkÃŃm": 7424,
      "Ġthá»Ŀn": 7425,
      "ĠtrÃ²m": 7426,
      "Ġchá»§m": 7427,
      "Ġtá»ĭu": 7428,
      "Ġtruá»ĵi": 7429,
      "Ġnhoe": 7430,
      "Ġnhoen": 7431,
      "Ġlich": 7432,
      "Ġlieu": 7433,
      "Ġcá»įm": 7434,
      "Ġdá»¥a": 7435,
      "Ġteen": 7436,
      "Ġzan": 7437,
      "Ġgood": 7438,
      "Ġngá»«oi": 7439,
      "Ġgiot": 7440,
      "TTTTTT": 7441,
      "ĠgÃŃÃ³": 7442,
      "ĠgiÃ¢c": 7443,
      "Ġcafe": 7444,
      "Ġvalent": 7445,
      "Ġsá»§u": 7446,
      "BTTTTT": 7447,
      "00": 7448,
      "77": 7449,
      "má»Ļt": 7450,
      "ol": 7451,
      "pa": 7452,
      "ph": 7453,
      "ri": 7454,
      "yÃªn": 7455,
      "ÅĦ": 7456,
      "Çµ": 7457,
      "Çİ": 7458,
      "á¹": 7459,
      "Ġá»ģ": 7460,
      "ĠiÃªn": 7461,
      "Ġáº¡i": 7462,
      "Ġtáº¡n": 7463,
      "ĠtÆ¡m": 7464,
      "ĠtÃ©o": 7465,
      "Ġtáº¡ch": 7466,
      "Ġcá»ĵi": 7467,
      "Ġcá»įn": 7468,
      "Ġcá»£i": 7469,
      "ĠÄĳÃªu": 7470,
      "ĠÄĳÃµ": 7471,
      "ĠmáºŃy": 7472,
      "ĠmÃ³p": 7473,
      "ĠmÃ¢t": 7474,
      "ĠlÃ©": 7475,
      "Ġliáº¿n": 7476,
      "Ġlá»ķn": 7477,
      "Ġliá»ħm": 7478,
      "Ġthá»ĵn": 7479,
      "ĠthÃªng": 7480,
      "ĠthÃ¹i": 7481,
      "Ġthá»Ļt": 7482,
      "Ġthpt": 7483,
      "ĠbiÃªu": 7484,
      "Ġbáº¹n": 7485,
      "ĠbÃ©p": 7486,
      "ĠbÃµng": 7487,
      "ĠbÄĥc": 7488,
      "Ġvá»©c": 7489,
      "Ġváº£nh": 7490,
      "Ġvá»Ńng": 7491,
      "ĠvÃ³n": 7492,
      "Ġvá»±ng": 7493,
      "Ġhua": 7494,
      "Ġhá»ım": 7495,
      "Æ¡g": 7496,
      "Ġnen": 7497,
      "ĠnÃ¢n": 7498,
      "ĠnÅ©": 7499,
      "Ġnáº§m": 7500,
      "ĠnáºŃu": 7501,
      "Ġnáº©u": 7502,
      "ĠngÃ¬n": 7503,
      "ĠngÃ£o": 7504,
      "Ġngáº©u": 7505,
      "ĠngÃºn": 7506,
      "Ġtráº¹": 7507,
      "Ġtrá»«a": 7508,
      "Ġtrá»Ľt": 7509,
      "ĠtrÃ¨m": 7510,
      "Ġnhá»ĵng": 7511,
      "ĠnhÃ¢ng": 7512,
      "ĠnhÃ£y": 7513,
      "Ġnháº·m": 7514,
      "Ġnhá»ķn": 7515,
      "Ġnhá»ĵm": 7516,
      "Ġnhá»ģu": 7517,
      "Ġgem": 7518,
      "ĠgÃºp": 7519,
      "Ġsá»ĩ": 7520,
      "Ġsáº§y": 7521,
      "Ġsá»įi": 7522,
      "Ġsá»¯u": 7523,
      "Ġsá»Ļp": 7524,
      "Ġkoi": 7525,
      "Ġkiu": 7526,
      "ĠdÃ³": 7527,
      "Ġdá»¯ng": 7528,
      "ĠdÃ¹a": 7529,
      "ĠdÃ³i": 7530,
      "ĠdÃºa": 7531,
      "Ġdiá»ĥu": 7532,
      "ĠdÃ¡y": 7533,
      "Ġxá»Ŀi": 7534,
      "Ġxá»¯": 7535,
      "Ġxeo": 7536,
      "Ġxáº¡ch": 7537,
      "ĠxÄ©nh": 7538,
      "Ġxá»Ľn": 7539,
      "Ġxá»¥t": 7540,
      "Ġxáº¹o": 7541,
      "Ġráº«m": 7542,
      "Ġriáº¿c": 7543,
      "Ġrá»±ng": 7544,
      "Ġkhg": 7545,
      "Ġkhá»ĩ": 7546,
      "ĠkhÃło": 7547,
      "Ġkhá»Ļng": 7548,
      "ĠkhÄĥp": 7549,
      "Ġgie": 7550,
      "Ġgin": 7551,
      "Ġgiáº¡": 7552,
      "Ġgiá»§": 7553,
      "Ġpe": 7554,
      "Ġpao": 7555,
      "ĠpÃ©": 7556,
      "Ġphá»ım": 7557,
      "Äĥy": 7558,
      "ĠyÃªm": 7559,
      "ĠyÃªng": 7560,
      "ĠcÃ³n": 7561,
      "ĠÄĳÃ£n": 7562,
      "áº³t": 7563,
      "Ġxuáº§n": 7564,
      "ĠcÅ©a": 7565,
      "ĠcÅ©n": 7566,
      "Ġthuáº©n": 7567,
      "Ã¨u": 7568,
      "Ġvuong": 7569,
      "ĠmÆ¡m": 7570,
      "ĠtuÃ½": 7571,
      "ĠÄĳá»£m": 7572,
      "ĠngoÃ£nh": 7573,
      "Ġthoáº¯ng": 7574,
      "Ġtoong": 7575,
      "ĠgiÃ¡y": 7576,
      "Ġoy": 7577,
      "ĠÄĳá»§a": 7578,
      "Ġuá»³nh": 7579,
      "Ġcá»ķn": 7580,
      "Ġá»§m": 7581,
      "ĠbÃ©ng": 7582,
      "Ġkhá»ıai": 7583,
      "ĠrÅ©i": 7584,
      "Ġcun": 7585,
      "Ġmac": 7586,
      "ĠnguyÃªt": 7587,
      "Ġnhac": 7588,
      "ĠdiÃ¹": 7589,
      "ĠnhoÃ¨n": 7590,
      "Ġlik": 7591,
      "Ġnhieu": 7592,
      "ĠchÃ¨ng": 7593,
      "Ġfai": 7594,
      "Ġtrá»¥a": 7595,
      "ĠroÄĥng": 7596,
      "Ġmá»ın": 7597,
      "ĠmÄ©a": 7598,
      "Ġcá»¡m": 7599,
      "Ġrit": 7600,
      "Ġrich": 7601,
      "Ġá»īa": 7602,
      "Ġzá»Ŀi": 7603,
      "ĠzÃ¬a": 7604,
      "Ġnude": 7605,
      "ĠnhÃŃm": 7606,
      "ĠkiÃªp": 7607,
      "Ġjean": 7608,
      "ĠdÃŃp": 7609,
      "Ġdzá»£": 7610,
      "Ġquoanh": 7611,
      "Ġtrá»ĿÃ¬": 7612,
      "ĠddÆ°á»Ŀng": 7613,
      "Ġpleiku": 7614,
      "ght": 7615,
      "Ġvalentine": 7616,
      "ec": 7617,
      "ta": 7618,
      "Ã¤": 7619,
      "Ġáº§n": 7620,
      "ĠÃłi": 7621,
      "Ġá»¡": 7622,
      "Ġua": 7623,
      "Ġáº©y": 7624,
      "Ġá»ĭch": 7625,
      "Ġtb": 7626,
      "ĠtÃ²n": 7627,
      "ĠtÃµ": 7628,
      "ĠtÅ©i": 7629,
      "Ġcá»£n": 7630,
      "ĠÄĳÆ°á»Ľi": 7631,
      "ĠÄĳÃ©n": 7632,
      "ĠÄĳáº³m": 7633,
      "enn": 7634,
      "Ġmim": 7635,
      "Ġláº¹p": 7636,
      "Ġláº¿nh": 7637,
      "Ġthá»ĵi": 7638,
      "Ġbem": 7639,
      "Ġbáº³ng": 7640,
      "Ġbuá»ĳn": 7641,
      "ĠbÃ£y": 7642,
      "Ġbáº¡ng": 7643,
      "Ġbáº¹t": 7644,
      "ĠbÆ°Æ¡c": 7645,
      "ĠbÆ°á»Ľu": 7646,
      "ĠchÃªn": 7647,
      "Ġchem": 7648,
      "Ġchá»Ļm": 7649,
      "Ġchym": 7650,
      "Ġvk": 7651,
      "Ġvá»ıng": 7652,
      "Ġvá»µ": 7653,
      "Ġváº¹m": 7654,
      "Ġhá»Ļng": 7655,
      "ĠhÃ©n": 7656,
      "Ġhá»¹": 7657,
      "Ġnáº³ng": 7658,
      "Ġná»§a": 7659,
      "ĠnÃµi": 7660,
      "ĠnÃ£n": 7661,
      "Ġniáº¿m": 7662,
      "Ġnáº«ng": 7663,
      "Ġngáº³ng": 7664,
      "Ġngá»ĳi": 7665,
      "ĠngÃµi": 7666,
      "Ġngáº»o": 7667,
      "ĠngÆ°á»Łi": 7668,
      "ĠngÃ¢p": 7669,
      "ĠtrÃ´": 7670,
      "Ġtráº½": 7671,
      "ĠtriÃªn": 7672,
      "ĠtrÃ¹i": 7673,
      "Ġtrá»ĥn": 7674,
      "ĠnhÃ³a": 7675,
      "Ġnhá»ĭt": 7676,
      "ĠnhÃ¬u": 7677,
      "Ġnháº³n": 7678,
      "Ġnhuá»Ļn": 7679,
      "ĠgÆ°": 7680,
      "ĠgÃ¹ng": 7681,
      "Ġgáº£i": 7682,
      "Ġsá»ĵ": 7683,
      "ĠsÃªu": 7684,
      "ĠsÃ´n": 7685,
      "Ġsá»ĭ": 7686,
      "Ġsiu": 7687,
      "Ġsáº±n": 7688,
      "ĠsÃ¬u": 7689,
      "Ġsáºµng": 7690,
      "Ġsá»·": 7691,
      "ĠsÄĥt": 7692,
      "ĠkÃ¡ch": 7693,
      "Ġkin": 7694,
      "Ġkiá»ĥn": 7695,
      "Ġká»ĩnh": 7696,
      "Ġdin": 7697,
      "Ġdá»Ļc": 7698,
      "ĠdÃŃt": 7699,
      "Ġdáº©y": 7700,
      "Ġdá»ĩn": 7701,
      "ĠdÆ°á»£m": 7702,
      "Ġdáº©m": 7703,
      "Ġdiá»ĥm": 7704,
      "Ġxá»ĵ": 7705,
      "Ġxá»±": 7706,
      "Ġxáº¥c": 7707,
      "Ġxiá»ĥng": 7708,
      "áº¿p": 7709,
      "á»Ľc": 7710,
      "ĠrÃ¡y": 7711,
      "ĠkhÃ¡p": 7712,
      "Ġkhá»©ng": 7713,
      "ĠgiÃªu": 7714,
      "Ġpl": 7715,
      "Ġpá»Ŀ": 7716,
      "ĠpÃ¬": 7717,
      "ĠphÆ°": 7718,
      "Ġphá»Ľ": 7719,
      "Ġpham": 7720,
      "Ġpháº¯n": 7721,
      "Ġquáº¿n": 7722,
      "ĠquÃ©": 7723,
      "ĠquÄ©": 7724,
      "Ġquáº¹n": 7725,
      "áºŃng": 7726,
      "á»įp": 7727,
      "Ġhoáº¯m": 7728,
      "ĠhoÃ£i": 7729,
      "ĠhoÃ©t": 7730,
      "Ġnghia": 7731,
      "Ġnghiá»ħm": 7732,
      "Ġyu": 7733,
      "Ġyang": 7734,
      "Ġbuc": 7735,
      "ĠgiÃ³i": 7736,
      "Ġxuan": 7737,
      "ĠxuÃ¡n": 7738,
      "ĠÄĳá»ĥn": 7739,
      "Ġtich": 7740,
      "Ġgiá»Ŀn": 7741,
      "iá»ĥt": 7742,
      "Ġmáº·m": 7743,
      "ĠvÃ¬a": 7744,
      "ĠtÃŃc": 7745,
      "Ġkhoeo": 7746,
      "Ġbat": 7747,
      "Ġthoan": 7748,
      "Ġrus": 7749,
      "Ġrut": 7750,
      "Ġcá»ıng": 7751,
      "ĠÄĳoanh": 7752,
      "ĠÄĳoÃ²ng": 7753,
      "ĠÄĳÃ²m": 7754,
      "Ġchut": 7755,
      "Ġlun": 7756,
      "ĠoÃłm": 7757,
      "ĠÄĳÃłu": 7758,
      "Ġup": 7759,
      "Ġuá»ģnh": 7760,
      "Ġthich": 7761,
      "ĠthiÃªt": 7762,
      "Ġxoáº¡t": 7763,
      "Ġvá»¡n": 7764,
      "Ġláº»m": 7765,
      "ĠthÆ°c": 7766,
      "ĠkhÃ´g": 7767,
      "Ġsex": 7768,
      "Ġdá»±t": 7769,
      "Ġhui": 7770,
      "Ġcum": 7771,
      "Ġcuá»ĵi": 7772,
      "Ġcuá»Ľi": 7773,
      "ĠsÄ©n": 7774,
      "Ġnoel": 7775,
      "ĠÃ´Ã´ng": 7776,
      "Ġsun": 7777,
      "Ġtruáº¥t": 7778,
      "ĠnhiÃªm": 7779,
      "Ġhá»Łn": 7780,
      "Ġlá»ĭa": 7781,
      "ĠcÆ°Ã²i": 7782,
      "Ġfh": 7783,
      "Ġmuá»ĵn": 7784,
      "Ġrose": 7785,
      "Ġhien": 7786,
      "ĠmoÃł": 7787,
      "á»µt": 7788,
      "ĠxÃłu": 7789,
      "Ġhat": 7790,
      "Ġbá»īm": 7791,
      "ĠiÃªm": 7792,
      "ĠkhÆ°á»¡ng": 7793,
      "Ġmá»§n": 7794,
      "Ġsáº¿nh": 7795,
      "Ġamh": 7796,
      "Ġbá»įp": 7797,
      "ĠdzÃ¬a": 7798,
      "Ġdzui": 7799,
      "Ġxá»ķm": 7800,
      "ĠvÆ°á»¡ng": 7801,
      "Ġtrá»īa": 7802,
      "Ġyá»ĥng": 7803,
      "Ġvá»įp": 7804,
      "ĠÄĳáº¡u": 7805,
      "ĠxÃºy": 7806,
      "ĠÄĳÄĥu": 7807,
      "Ġchuyen": 7808,
      "Ġchuyáº¿nh": 7809,
      "Ġ201": 7810,
      "978": 7811,
      "Ġnháº¡u": 7812,
      "Ġship": 7813,
      "ĠtÅ©m": 7814,
      "28": 7815,
      "bao": 7816,
      "cm": 7817,
      "lo": 7818,
      "lt": 7819,
      "mg": 7820,
      "ru": 7821,
      "sa": 7822,
      "tv": 7823,
      "Ã¥": 7824,
      "Åį": 7825,
      "ĠuÃ´n": 7826,
      "Ġá»įc": 7827,
      "ĠÃ©t": 7828,
      "Ġá»ĳt": 7829,
      "ĠÃ³p": 7830,
      "Ġá»ĭn": 7831,
      "Ġá»£t": 7832,
      "Ġtar": 7833,
      "Ġtá»įng": 7834,
      "ĠtÃ²e": 7835,
      "ĠtÃ¢p": 7836,
      "Ġcen": 7837,
      "Ġcáº¡c": 7838,
      "Ġcá»Ĺng": 7839,
      "ĠcÄ©u": 7840,
      "Ġcá»Ļp": 7841,
      "ĠÄĳÃ¢ng": 7842,
      "ĠÄĳáº§ng": 7843,
      "ĠÄĳÃºp": 7844,
      "Ġmar": 7845,
      "ĠmÆ°á»Ľc": 7846,
      "Ġmáº¥m": 7847,
      "Ġmáº±ng": 7848,
      "Ġmin": 7849,
      "ĠmÃ©n": 7850,
      "Ġmá»¥i": 7851,
      "Ġmáº§ng": 7852,
      "Ġmá»Ńng": 7853,
      "ĠmÃŃnh": 7854,
      "Ġmá»ģnh": 7855,
      "Ġmá»¥t": 7856,
      "Ġmá»¡n": 7857,
      "Ġmáº±t": 7858,
      "Ġlá»ĳn": 7859,
      "Ġláº£n": 7860,
      "ĠlÃ³p": 7861,
      "ĠlÄĥk": 7862,
      "Ġthá»Ļi": 7863,
      "ĠthÃ¨o": 7864,
      "Ġthá»ıng": 7865,
      "ĠbÃ¢": 7866,
      "ĠbÃ¢t": 7867,
      "Ġbáº¡y": 7868,
      "ĠchÃ²n": 7869,
      "Ġcháº¡o": 7870,
      "Ġchá»Ľt": 7871,
      "Ġchá»¥i": 7872,
      "ĠchÅ©ng": 7873,
      "Ġcháº©u": 7874,
      "Ġchá»±ng": 7875,
      "Ġchuyá»ħn": 7876,
      "Ġváº§": 7877,
      "ĠvÃ£y": 7878,
      "Ġviu": 7879,
      "Ġvá»ķng": 7880,
      "Ġváºµn": 7881,
      "Ġvá»ħnh": 7882,
      "ĠhÄ©": 7883,
      "ĠhiÃªng": 7884,
      "Ġháº£n": 7885,
      "Ġháº©u": 7886,
      "Ġhcm": 7887,
      "Ġnau": 7888,
      "ĠnÄ©": 7889,
      "ĠnÃºa": 7890,
      "Ġná»ģm": 7891,
      "Ġná»Ļn": 7892,
      "Ġnáº±n": 7893,
      "Ġnáº·m": 7894,
      "Ġná»©ng": 7895,
      "Ġná»Ļt": 7896,
      "Ġnáº¡y": 7897,
      "Ġniá»ħng": 7898,
      "ĠngÃº": 7899,
      "Ġngá»Ń": 7900,
      "ĠngáºŃn": 7901,
      "ĠtrÅ©": 7902,
      "Ġtrá»Ľi": 7903,
      "ĠtrÃ¨": 7904,
      "Ġtráº·ng": 7905,
      "Ġtráº·n": 7906,
      "ĠtrÃµng": 7907,
      "Ġtrá»ĩu": 7908,
      "Ġtráº¹m": 7909,
      "Ġnhá»©": 7910,
      "Ġnháº³ng": 7911,
      "ĠnhÃºa": 7912,
      "ĠnhÆ°á»Ľng": 7913,
      "Ġnháº«y": 7914,
      "ĠnhÃ³p": 7915,
      "Ġnhá»£n": 7916,
      "Ġnháºµng": 7917,
      "Ġnhá»Ļp": 7918,
      "Ã¢á»¥": 7919,
      "Ġgá»įc": 7920,
      "ĠsÃµi": 7921,
      "Ġsá»¥i": 7922,
      "Ġdr": 7923,
      "ĠdÃº": 7924,
      "Ġdá»£": 7925,
      "ĠdÃ©": 7926,
      "ĠdÃ¡nh": 7927,
      "Ġduyá»ĩn": 7928,
      "Ġdáº£o": 7929,
      "Ġdáº¯n": 7930,
      "ĠdÆ°Æ¡i": 7931,
      "Ġdá»¯u": 7932,
      "ĠdÃ¢p": 7933,
      "Ġxáº§u": 7934,
      "Ġxáº§y": 7935,
      "ĠxÆ¡m": 7936,
      "Ġxiá»ĥm": 7937,
      "Ġrá»¥": 7938,
      "Ġriá»ģm": 7939,
      "Ġráº£y": 7940,
      "Ġrá»ĩt": 7941,
      "Ġriá»ħu": 7942,
      "Ġráº©m": 7943,
      "Ġrá»ĳm": 7944,
      "ĠrÃ¢t": 7945,
      "ĠkhÆ°Æ¡i": 7946,
      "ĠkhÃ¬a": 7947,
      "Ġkhá»ģnh": 7948,
      "ĠgiÃ´": 7949,
      "ĠgiÃ¢m": 7950,
      "Ġgiá»¡": 7951,
      "Ġgiá»§i": 7952,
      "áº§á»¥": 7953,
      "Ġpháº¡": 7954,
      "Ġphá»ĭ": 7955,
      "Ġphá»Ļng": 7956,
      "TTBTBT": 7957,
      "Ġquá»ĭ": 7958,
      "Ġquáº¡c": 7959,
      "Ġquá»ĭt": 7960,
      "Ġquá»¡n": 7961,
      "Äĥnh": 7962,
      "á»£ng": 7963,
      "ĠnghÆ¡i": 7964,
      "Ġnghá»ĥu": 7965,
      "Ġyá»ĩu": 7966,
      "Ġnhá»Ľm": 7967,
      "á»ķm": 7968,
      "Ġbut": 7969,
      "Ġbuon": 7970,
      "Ġbuá»Ľm": 7971,
      "ĠÄĳÃ£m": 7972,
      "ĠÄĳÃ£y": 7973,
      "Ġtien": 7974,
      "Ġtiá»ħng": 7975,
      "Ġthuo": 7976,
      "ĠthuÃ´ng": 7977,
      "Ġthuá»Ľt": 7978,
      "áº±c": 7979,
      "Ġchiá»ĥn": 7980,
      "ĠchiÃªc": 7981,
      "ĠtuÃ½t": 7982,
      "Ġtime": 7983,
      "Ġá»Łm": 7984,
      "Ġlonh": 7985,
      "Ġloen": 7986,
      "ĠloÄĥng": 7987,
      "ĠloÄĥn": 7988,
      "Ġghá»ĩ": 7989,
      "ĠghÃłnh": 7990,
      "ĠtÃŃp": 7991,
      "Ġngoáº£y": 7992,
      "Ġngoáº¡m": 7993,
      "ĠthoÃ¡n": 7994,
      "Ġrui": 7995,
      "ĠchÃŃa": 7996,
      "Ġdá»ĭn": 7997,
      "Ġquynh": 7998,
      "Ġquyá»ħn": 7999,
      "Ġtá»ım": 8000,
      "Ġtop": 8001,
      "Ġcach": 8002,
      "Ġchá»¯i": 8003,
      "Ġphá»ĳp": 8004,
      "Ġand": 8005,
      "ĠoÃłnh": 8006,
      "Ġout": 8007,
      "Ġthit": 8008,
      "Ġdat": 8009,
      "Ġduong": 8010,
      "Ġxoáº£ng": 8011,
      "ĠphÃŃp": 8012,
      "ĠhÃłu": 8013,
      "ĠbÃ©c": 8014,
      "Ġhuá»µ": 8015,
      "ĠdoÃłng": 8016,
      "Ġdoan": 8017,
      "Ġcoong": 8018,
      "Ġlá»Ŀm": 8019,
      "Ġbiet": 8020,
      "ĠÃ´ong": 8021,
      "Ġmat": 8022,
      "Ġsuá»µt": 8023,
      "Ġphum": 8024,
      "Ġphuong": 8025,
      "Ġsoay": 8026,
      "ĠnhoÃłm": 8027,
      "Ġlip": 8028,
      "Ġlive": 8029,
      "ĠmÃ´ÃŃ": 8030,
      "Ġfb": 8031,
      "Ġfor": 8032,
      "ĠngÅ©i": 8033,
      "Ġmá»ĭnh": 8034,
      "Ġnhuáº¿": 8035,
      "Ġmum": 8036,
      "Ġmuá»ķi": 8037,
      "Ġchá»ģu": 8038,
      "Ġbot": 8039,
      "Ġvac": 8040,
      "Ġzi": 8041,
      "Ġzo": 8042,
      "ĠzÃ´ng": 8043,
      "ĠzÃ´n": 8044,
      "Ġzui": 8045,
      "Ġnuoc": 8046,
      "Ġhá»Ĺm": 8047,
      "ĠÄĳÆ¡á»ĭ": 8048,
      "Ġcá»«Æ¡i": 8049,
      "Ġ11": 8050,
      "Ġ14": 8051,
      "Ġgoal": 8052,
      "Ġking": 8053,
      "ĠwÃ¡": 8054,
      "ĠdzÃ¡ch": 8055,
      "ĠnÆ°Ã³c": 8056,
      "ĠvÆ°ong": 8057,
      "Ġshow": 8058,
      "ĠcÃ£nh": 8059,
      "ĠnghoÃ¨o": 8060,
      "ĠchÃ¹y": 8061,
      "Ġmá»įp": 8062,
      "ĠluyÃªnh": 8063,
      "Ġbla": 8064,
      "Ġxá»Ŀm": 8065,
      "khÃ´ng": 8066,
      "9728": 8067,
      "ĠngÆ°á»Ŀá»ĭ": 8068,
      "ĠcafÃ©": 8069,
      "Ġkhá»ĭa": 8070,
      "Ġwave": 8071,
      "Ġpence": 8072,
      "ĠnÃŃc": 8073,
      "Ġprenn": 8074,
      "779728": 8075,
      "ĠtuÃ½p": 8076,
      "978779728": 8077,
      "10": 8078,
      "25": 8079,
      "ah": 8080,
      "do": 8081,
      "een": 8082,
      "hÆ°Æ¡ng": 8083,
      "ive": 8084,
      "kk": 8085,
      "ne": 8086,
      "qu": 8087,
      "sao": 8088,
      "váº«n": 8089,
      "wn": 8090,
      "yn": 8091,
      "¯ng": 8092,
      "Â¹": 8093,
      "Ã¸": 8094,
      "Ã¼": 8095,
      "Ġáº¯": 8096,
      "Ġá»¯ng": 8097,
      "Ġá»±": 8098,
      "ĠiÃªng": 8099,
      "ĠÆ¡m": 8100,
      "ĠÃ©c": 8101,
      "ngÆ°á»Ŀi": 8102,
      "Ġtáº½": 8103,
      "ĠtÃ³i": 8104,
      "Ġtuá»ĳi": 8105,
      "ĠtÃ¡u": 8106,
      "Ġtáº»n": 8107,
      "Ġcr": 8108,
      "ĠcÃ¢": 8109,
      "Ġcá»¯ng": 8110,
      "ĠcÃ¹a": 8111,
      "Ġcin": 8112,
      "Ġcá»Ľm": 8113,
      "Ġcáº«m": 8114,
      "Ġcáº·c": 8115,
      "Ġcá»Ŀn": 8116,
      "nhÆ°": 8117,
      "nhá»¯ng": 8118,
      "nhÆ°ng": 8119,
      "ĠÄĳt": 8120,
      "ĠÄĳÃ¢": 8121,
      "ĠÄĳá»Ľ": 8122,
      "ĠÄĳÃŃ": 8123,
      "ĠÄĳáº«": 8124,
      "ĠÄĳuyÃªn": 8125,
      "ĠÄĳáº¡y": 8126,
      "ĠÄĳÄĳ": 8127,
      "ĠÄĳÃ¥": 8128,
      "Ġmg": 8129,
      "Ġmh": 8130,
      "Ġmk": 8131,
      "Ġmá»ĳ": 8132,
      "ĠmÃªm": 8133,
      "Ġmáº¿t": 8134,
      "Ġmia": 8135,
      "Ġmáº»o": 8136,
      "Ġmáº«y": 8137,
      "Æ°n": 8138,
      "Ġláº¿n": 8139,
      "Ġlá»ıa": 8140,
      "Ġlá»©u": 8141,
      "ĠthÃªn": 8142,
      "Ġthuy": 8143,
      "Ġthá»Ľm": 8144,
      "Ġthá»¥i": 8145,
      "ĠthÃ¡y": 8146,
      "ĠthÅ©ng": 8147,
      "Ġbáº¡nh": 8148,
      "Ġboi": 8149,
      "Ġbáº·c": 8150,
      "ĠbÃ¬u": 8151,
      "Ġbá»³": 8152,
      "ĠbÄĥt": 8153,
      "Ġbiá»ģt": 8154,
      "ĠchÃ´": 8155,
      "Ġchá»ĵ": 8156,
      "Ġcháº³": 8157,
      "Ġchá»¡": 8158,
      "Ġchá»ħ": 8159,
      "Ġcháº¹n": 8160,
      "Ġcháº¡t": 8161,
      "Ġcháº»o": 8162,
      "ĠchÅ©i": 8163,
      "ĠvÃ¢u": 8164,
      "Ġváº«": 8165,
      "ĠvÃ¢m": 8166,
      "ĠvÆ°á»£c": 8167,
      "ĠvÃµi": 8168,
      "ĠvÃ¡p": 8169,
      "Ġváº©u": 8170,
      "Ġháº¥y": 8171,
      "Ġháº»": 8172,
      "ĠhÃ¹i": 8173,
      "ĠhÃºn": 8174,
      "Ġhá»¡m": 8175,
      "Æ¡nh": 8176,
      "ĠnÃ¬nh": 8177,
      "ĠnÃ¡ng": 8178,
      "Ġná»ħ": 8179,
      "Ġniá»ĩt": 8180,
      "Ġnáº«m": 8181,
      "Ġná»ķng": 8182,
      "ĠnÃ¹n": 8183,
      "Ġnuá»ĳm": 8184,
      "Ġná»·": 8185,
      "Ġniá»ģng": 8186,
      "ĠnÅ©a": 8187,
      "Ġná»©u": 8188,
      "ĠngÆ°á»Ŀng": 8189,
      "Ġngá»ī": 8190,
      "ĠngÆ°á»Ľi": 8191,
      "ĠtrÃªm": 8192,
      "Ġtrá»Ń": 8193,
      "ĠtruyÃªn": 8194,
      "Ġtrá»Łi": 8195,
      "Ġtrá»ĩt": 8196,
      "ĠtrÃŃu": 8197,
      "Ġnhá»¥": 8198,
      "Ġnhuá»ĳt": 8199,
      "Ġnhiáº¿u": 8200,
      "Ġnháº·c": 8201,
      "Ġnhiá»ĩp": 8202,
      "ĠnhÃ¹n": 8203,
      "Ã¢Ã¹": 8204,
      "Ġgj": 8205,
      "Ġgr": 8206,
      "Ġgá»Ŀi": 8207,
      "Ġgá»¥i": 8208,
      "ĠgÆ°á»£m": 8209,
      "Ġgym": 8210,
      "Ġsáº¥t": 8211,
      "ĠsÃ³m": 8212,
      "Ġsáº¿ch": 8213,
      "ĠsÅ©a": 8214,
      "Ġsáº¡y": 8215,
      "ĠsÄĥp": 8216,
      "ĠkÆ¡": 8217,
      "Ġdá»ĵ": 8218,
      "ĠdÃ´n": 8219,
      "Ġdá»Ľi": 8220,
      "ĠdÃ¨o": 8221,
      "ĠdÃªnh": 8222,
      "Ġdom": 8223,
      "Ġdá»©ng": 8224,
      "Ġdá»Ľn": 8225,
      "Ġdáº¹t": 8226,
      "Ġdá»£t": 8227,
      "Ġdáº¥ng": 8228,
      "ĠdÃ¢Ãº": 8229,
      "Ġxá»Ļ": 8230,
      "ĠxÃ¢n": 8231,
      "Ġxá»ĵng": 8232,
      "ĠxÃ²n": 8233,
      "ĠxÆ°á»Ŀng": 8234,
      "ĠxÃ¡i": 8235,
      "ĠxÃ¡nh": 8236,
      "ĠxÄ©": 8237,
      "Ġxá»įc": 8238,
      "Ġxiá»ĥn": 8239,
      "Ġxá»¥c": 8240,
      "Ġxim": 8241,
      "ĠxáºŃm": 8242,
      "Ġxá»Ńng": 8243,
      "ĠrÃ³": 8244,
      "Ġráº³ng": 8245,
      "ĠrÃ¨o": 8246,
      "Ġráº¡nh": 8247,
      "ĠrÃ£y": 8248,
      "ĠráºŃu": 8249,
      "Ġráº¿u": 8250,
      "Ġráº¹t": 8251,
      "Ġkhá»Ļ": 8252,
      "Ġkháº§n": 8253,
      "Ġkháº±ng": 8254,
      "Ġkháº¹t": 8255,
      "Ġkhiá»ĥng": 8256,
      "ĠgiÆ¡i": 8257,
      "ĠgiÃº": 8258,
      "Ġgiáº½": 8259,
      "Ġgiá»±c": 8260,
      "Ġgirl": 8261,
      "Ġpai": 8262,
      "ĠpÃ³t": 8263,
      "ĠphÃ¬n": 8264,
      "ĠphÄĥn": 8265,
      "Ġqa": 8266,
      "Ġqáº·p": 8267,
      "ĠquÆ¡i": 8268,
      "ĠquÄĥm": 8269,
      "Ġquáº£nh": 8270,
      "Ġquáºµng": 8271,
      "ĠÄĳá»¯ng": 8272,
      "iá»ģá»¥": 8273,
      "Ġhoanh": 8274,
      "Ġngháº»n": 8275,
      "Ġyo": 8276,
      "Ġyok": 8277,
      "Ġyáº»u": 8278,
      "ĠÄĳiÃªng": 8279,
      "Ġbus": 8280,
      "ĠbuÃ´i": 8281,
      "Ġbuá»Ĺi": 8282,
      "ĠÄĳÃ£nh": 8283,
      "á»ĥm": 8284,
      "Ġtit": 8285,
      "Ġthuá»Ŀ": 8286,
      "ĠtÆ°á»ķi": 8287,
      "cho": 8288,
      "cháº³ng": 8289,
      "Ġtuá»Ĺi": 8290,
      "ĠkhoÃ£ng": 8291,
      "Ã½ch": 8292,
      "Ġngoáº¹o": 8293,
      "ĠngoÃłm": 8294,
      "ĠgiÃłm": 8295,
      "Æ¡mg": 8296,
      "Ġquyen": 8297,
      "Ġkáº»m": 8298,
      "Ġhá»Ŀm": 8299,
      "Ġcac": 8300,
      "Ġchá»£n": 8301,
      "ĠkhuÆ¡": 8302,
      "Ġkhuáº©y": 8303,
      "ĠkhuyÃª": 8304,
      "Ġhá»įe": 8305,
      "ĠnguÃ¢y": 8306,
      "Ġhá»ĵnh": 8307,
      "ĠÄĳiá»ĩt": 8308,
      "ĠuÆ¡m": 8309,
      "ĠhÆ°á»¡ng": 8310,
      "Ġsá»±ng": 8311,
      "ĠvÆ¡á»ĭ": 8312,
      "Ġcá»ĳp": 8313,
      "ĠlÅ©a": 8314,
      "Ġxot": 8315,
      "ĠÄĳá»ģnh": 8316,
      "ĠthÆ°Æ¡g": 8317,
      "Ġmien": 8318,
      "Ġtá»©t": 8319,
      "Ġtá»©ng": 8320,
      "Ġint": 8321,
      "ĠngÃłá»µ": 8322,
      "Ġxáº¿nh": 8323,
      "ĠdoÃłn": 8324,
      "Ġcuoi": 8325,
      "Ġcoai": 8326,
      "Ġváº½o": 8327,
      "Ġnoa": 8328,
      "Ġnot": 8329,
      "Ġbig": 8330,
      "Ġbiang": 8331,
      "ĠbiÃ©t": 8332,
      "ĠchÃªt": 8333,
      "ĠthÃłm": 8334,
      "Ġngá»ım": 8335,
      "ĠtruÃ²ng": 8336,
      "Ġcá»§m": 8337,
      "Ġnhoong": 8338,
      "ĠngÆ°á»¡i": 8339,
      "ĠvÃŃc": 8340,
      "Ġtáº¿ng": 8341,
      "Ġná»įong": 8342,
      "Ġnhá»§n": 8343,
      "Ġal": 8344,
      "Ġkáº¿p": 8345,
      "Ġá»«m": 8346,
      "Ġfu": 8347,
      "Ġmenh": 8348,
      "Ġnic": 8349,
      "Ġnik": 8350,
      "Ġtroy": 8351,
      "Ġtá»īn": 8352,
      "ĠÄĳáº»n": 8353,
      "Ġxich": 8354,
      "Ġboa": 8355,
      "Ġmá»ınh": 8356,
      "Ġráº»ng": 8357,
      "ĠdÃ¬Ãªu": 8358,
      "Ġdá»ģu": 8359,
      "Ġris": 8360,
      "Ġná»ım": 8361,
      "ĠzÃª": 8362,
      "Ġii": 8363,
      "ĠnhÃŃp": 8364,
      "ĠmÃ¨ng": 8365,
      "Ġqueen": 8366,
      "ĠÄĳá»Łm": 8367,
      "ĠrÆ°c": 8368,
      "Ġquá»µt": 8369,
      "Ġngá»«á»Ŀi": 8370,
      "ĠÃ£m": 8371,
      "Ġxuynh": 8372,
      "ĠrÆ¡Ã¬": 8373,
      "Ġtrá»Ŀá»ĭ": 8374,
      "ĠddÃªm": 8375,
      "Ġ40": 8376,
      "ath": 8377,
      "ĠgÃ´ÃŃ": 8378,
      "ĠgiÃ¢á»³": 8379,
      "ĠÄĳáº§á»µ": 8380,
      "Ġoff": 8381,
      "ĠnhÃµn": 8382,
      "Çİm": 8383,
      "Ġjeans": 8384,
      ")]": 8385,
      "14": 8386,
      ":âĢ": 8387,
      ":)]": 8388,
      "ag": 8389,
      "ba": 8390,
      "bi": 8391,
      "cÃ³": 8392,
      "con": 8393,
      "col": 8394,
      "ds": 8395,
      "fe": 8396,
      "fon": 8397,
      "hi": 8398,
      "láº¯m": 8399,
      "mÃł": 8400,
      "nÆ°á»Ľc": 8401,
      "pe": 8402,
      "sáº½": 8403,
      "von": 8404,
      "zz": 8405,
      "¸¿": 8406,
      "Ã¯": 8407,
      "á¸¿": 8408,
      "Ġáº¥": 8409,
      "ĠÃªu": 8410,
      "ĠÃ©": 8411,
      "Ġáº±m": 8412,
      "Ġá»ĭt": 8413,
      "Ġiá»ĥu": 8414,
      "Ġá»¥t": 8415,
      "Ġáº½o": 8416,
      "Ġáº¹t": 8417,
      "Ġá»ĥnh": 8418,
      "Ġáº½m": 8419,
      "Ġáº¹m": 8420,
      "Ŀ]": 8421,
      "Ġtáº¯ng": 8422,
      "ĠtÄ©": 8423,
      "Ġtá»Ľt": 8424,
      "ĠtÃ¢t": 8425,
      "ĠtÄ©m": 8426,
      "Ġtá»įp": 8427,
      "ĠcÆ°á»Ŀ": 8428,
      "Ġcá»©c": 8429,
      "Ġcá»«a": 8430,
      "Ġcáº³n": 8431,
      "Ġcáº«ng": 8432,
      "ĠcÃ¢p": 8433,
      "ĠÄĳÆ°á»Ŀn": 8434,
      "ĠÄĳÆ°á»£ng": 8435,
      "ĠÄĳáº«u": 8436,
      "ĠÄĳáº¡ch": 8437,
      "ĠÄĳáº³n": 8438,
      "ĠÄĳáº©t": 8439,
      "ress": 8440,
      "ĠmÄĥ": 8441,
      "Ġmam": 8442,
      "ĠmÆ°á»Ŀn": 8443,
      "Ġmiá»ĥu": 8444,
      "Ġmáº¿m": 8445,
      "arl": 8446,
      "ĠlÆ°á»Ľc": 8447,
      "Ġliáº¿t": 8448,
      "Ġláº¥c": 8449,
      "Ġluá»ĳn": 8450,
      "Ġlá»Ĺng": 8451,
      "ĠlÃŃa": 8452,
      "ĠthÃ£o": 8453,
      "ĠthÃ³a": 8454,
      "Ġthá»Ļn": 8455,
      "Ġtháºµng": 8456,
      "Ġthiá»ģng": 8457,
      "ĠthÃµm": 8458,
      "ĠbÃªm": 8459,
      "Ġbá»©": 8460,
      "ĠbÆ°á»Ľi": 8461,
      "Ġbáº§ng": 8462,
      "Ġbiá»ĥt": 8463,
      "ĠchÃ¢": 8464,
      "Ġcháº¹": 8465,
      "ĠchÄ©": 8466,
      "ĠchÃ¢ng": 8467,
      "Ġcham": 8468,
      "ĠchÃ¡p": 8469,
      "Ġchá»ĳm": 8470,
      "Ġchuá»ĳm": 8471,
      "Ġcháº©ng": 8472,
      "Ġchri": 8473,
      "Ġvh": 8474,
      "ĠvÆ°ng": 8475,
      "Ġvá»ıi": 8476,
      "Ġvá»¥i": 8477,
      "Ġváº¿u": 8478,
      "Ġváº¥ng": 8479,
      "ĠvÃ¢t": 8480,
      "Ġháº¿": 8481,
      "Ġhá»¯": 8482,
      "Ġháº£ng": 8483,
      "Ġháº·t": 8484,
      "Ġháºµ": 8485,
      "Ġhiá»ħn": 8486,
      "Ġhiáº¿ng": 8487,
      "Ġhá»ĥnh": 8488,
      "Ġhá»ĭu": 8489,
      "ĠhÃ¶": 8490,
      "Ġnc": 8491,
      "ĠnÆ°á»Ŀi": 8492,
      "Ġnáº¹": 8493,
      "ĠnÃ²n": 8494,
      "ĠnuÃ´n": 8495,
      "Ġná»įn": 8496,
      "Ġná»Łi": 8497,
      "Ġná»įng": 8498,
      "Ġnáº£ng": 8499,
      "ĠnáºŃy": 8500,
      "ĠnÆ°u": 8501,
      "ĠnÃ¨n": 8502,
      "Ġniá»ĩu": 8503,
      "Ġnuá»ĳc": 8504,
      "ĠnÃŃnh": 8505,
      "ĠnÃºn": 8506,
      "Ġnun": 8507,
      "Ġnáº½n": 8508,
      "Ġná»§ng": 8509,
      "ĠngÃ²ng": 8510,
      "ĠngÃ¡nh": 8511,
      "ĠngÃºc": 8512,
      "ĠngÃ´m": 8513,
      "Ġngáº±m": 8514,
      "ĠngÃ£y": 8515,
      "Ġngiá»ĩp": 8516,
      "ĠngÃºm": 8517,
      "Ġngáº¡y": 8518,
      "Ġtren": 8519,
      "ĠtrÃ³": 8520,
      "ĠtrÃły": 8521,
      "Ġtráº¥t": 8522,
      "ĠtrÃ©": 8523,
      "Ġtrá»±": 8524,
      "Ġtráº£o": 8525,
      "Ġtrá»Ļng": 8526,
      "Ġtrá»¥ng": 8527,
      "Ġtriu": 8528,
      "Ġtrom": 8529,
      "ĠtrÅ©i": 8530,
      "ĠtrÃµm": 8531,
      "ĠtrÆ°Æ¡c": 8532,
      "Ġtráº¿nh": 8533,
      "Ġnhh": 8534,
      "ĠnhÃ³ng": 8535,
      "Ġnhá»«ng": 8536,
      "Ġnhiá»ĥn": 8537,
      "ĠnhÆ¡m": 8538,
      "Ġnhá»ĳm": 8539,
      "ĠnhÃ¢t": 8540,
      "Ġnhá»ĩch": 8541,
      "Ġgv": 8542,
      "ĠgÃª": 8543,
      "ĠgÃ³": 8544,
      "ĠgÆ¡i": 8545,
      "ĠgÃ©": 8546,
      "Ġgá»ĭ": 8547,
      "ĠgÃ¹a": 8548,
      "Ġgeo": 8549,
      "ĠgÄ©": 8550,
      "Ġgáº¡i": 8551,
      "Ġgáº·c": 8552,
      "Ġgáº©m": 8553,
      "Ġgáº¿ch": 8554,
      "Ġsl": 8555,
      "Ġsp": 8556,
      "ĠsÃ©": 8557,
      "Ġsá»ĳi": 8558,
      "Ġsá»ķi": 8559,
      "ĠsáºŃt": 8560,
      "Ġsá»ĳn": 8561,
      "Ġsáº·t": 8562,
      "Ġsáº»o": 8563,
      "Ġsáº·m": 8564,
      "ĠsÃ£n": 8565,
      "Ġsá»¥m": 8566,
      "ĠsÃ©c": 8567,
      "ĠkÃ´": 8568,
      "Ġkong": 8569,
      "Ġkáº¹": 8570,
      "Ġká»ĵng": 8571,
      "Ġkáº¹n": 8572,
      "Ġkom": 8573,
      "Ġkiá»ĩp": 8574,
      "Ġdc": 8575,
      "ĠdÆ¡ng": 8576,
      "Ġdá»ı": 8577,
      "Ġdáº¯m": 8578,
      "Ġdiá»ģn": 8579,
      "ĠdÃºt": 8580,
      "ĠdÆ°á»£t": 8581,
      "ĠdÃ³m": 8582,
      "Ġdá»¹": 8583,
      "Ġduá»Ļc": 8584,
      "ĠdÃŃn": 8585,
      "Ġxá»ĳ": 8586,
      "ĠxÃªu": 8587,
      "ĠxÃªm": 8588,
      "Ġxá»§": 8589,
      "Ġxiá»ĩt": 8590,
      "Ġxá»įn": 8591,
      "ĠxáºŃy": 8592,
      "Ġxia": 8593,
      "Ġxiáº¿n": 8594,
      "Ġxá»±a": 8595,
      "Ġxá»ģnh": 8596,
      "Ġxá»ĥnh": 8597,
      "ĠrÃ¡i": 8598,
      "ĠrÃºi": 8599,
      "ĠráºŃy": 8600,
      "Ġráº«u": 8601,
      "Ġrá»¥p": 8602,
      "Ġráº©t": 8603,
      "ĠkhÃ²ng": 8604,
      "Ġkhá»Ľi": 8605,
      "ĠkhÆ°ng": 8606,
      "Ġkháº»o": 8607,
      "Ġkháº±n": 8608,
      "Ġkháº©m": 8609,
      "Ġkhá»ĩch": 8610,
      "ĠgiÃ¢u": 8611,
      "Ġgiá»«": 8612,
      "ĠgiÃµi": 8613,
      "Ġgiá»Ļng": 8614,
      "Ġgiáº¯n": 8615,
      "Ġgiá»¥i": 8616,
      "Ġgiáº±n": 8617,
      "Ġgiáºµm": 8618,
      "ĠgiÃ¢t": 8619,
      "áº§t": 8620,
      "Ġpre": 8621,
      "Ġpar": 8622,
      "Ġpá»ĵ": 8623,
      "ĠpÃ²": 8624,
      "Ġpanh": 8625,
      "Ġpau": 8626,
      "ĠpÃ¡n": 8627,
      "Ġpid": 8628,
      "Ġphá»Łi": 8629,
      "Ġphá»ĳc": 8630,
      "Ġphom": 8631,
      "Ġquao": 8632,
      "Ġquáº¡o": 8633,
      "ĠquÃ©n": 8634,
      "ail": 8635,
      "á»Łn": 8636,
      "ĠngÆ°á»Ŀii": 8637,
      "ĠhoÄĥng": 8638,
      "Æ°á»Ŀg": 8639,
      "Ġngháº£": 8640,
      "Ġngháº¿n": 8641,
      "Ġnghin": 8642,
      "Ġnghuyá»ĩt": 8643,
      "ĠyiÃªu": 8644,
      "Ġyvon": 8645,
      "Ġchoe": 8646,
      "ĠchoÃ²ng": 8647,
      "ĠchoÃłi": 8648,
      "ĠchoÃ£i": 8649,
      "Ġchoáº¹t": 8650,
      "Ġbuk": 8651,
      "Ġaids": 8652,
      "Ġxuay": 8653,
      "Ġxuá»ģnh": 8654,
      "á»ĥt": 8655,
      "Ġsaoanh": 8656,
      "Ġsaoem": 8657,
      "Ġmáº¹c": 8658,
      "Ġchip": 8659,
      "Ġchieu": 8660,
      "ĠtÆ°ong": 8661,
      "ĠtÆ°á»¥": 8662,
      "Ġháº¡y": 8663,
      "ĠlÃªnin": 8664,
      "Ġá»Łi": 8665,
      "Ġlot": 8666,
      "ĠloÃłng": 8667,
      "Ġloáº±n": 8668,
      "ĠgÃ¬á»Ŀ": 8669,
      "Ġghá»ĵng": 8670,
      "ĠghÃ¡c": 8671,
      "ĠcÃ´t": 8672,
      "ĠvÃ¬u": 8673,
      "Ġkhoc": 8674,
      "ĠkhoÃłng": 8675,
      "Ġkhoáº¡i": 8676,
      "ĠkhoÃ£nh": 8677,
      "Ġngoay": 8678,
      "Ġngoáº¹n": 8679,
      "Ġthom": 8680,
      "ĠthoÃłn": 8681,
      "Ġná»¥ng": 8682,
      "Ġrunh": 8683,
      "Ġdá»ĭt": 8684,
      "Ġquyá»ĩnh": 8685,
      "Ġkáº»n": 8686,
      "Ġtoc": 8687,
      "Ġtoen": 8688,
      "ĠtoÃ¡y": 8689,
      "Ġkhá»ķn": 8690,
      "Ġkhuá»ĥ": 8691,
      "ĠÄĳoong": 8692,
      "Ġname": 8693,
      "Ġngá»§m": 8694,
      "Ġthat": 8695,
      "Ġtráº»n": 8696,
      "Ġluu": 8697,
      "Ġluá»·": 8698,
      "ĠoÄĥn": 8699,
      "ĠkÃŃu": 8700,
      "ĠkÃŃáº¿p": 8701,
      "ĠduáºŃt": 8702,
      "Ġtá»Ńi": 8703,
      "Ġxoai": 8704,
      "ĠxoÃłm": 8705,
      "Ġvis": 8706,
      "Ġtá»§n": 8707,
      "ĠkhÃ´nh": 8708,
      "ĠtÃªt": 8709,
      "Ġphá»¥p": 8710,
      "ĠÃłk": 8711,
      "Ġthá»©u": 8712,
      "Ġlá»ħnh": 8713,
      "Ġchá»Ĺm": 8714,
      "ĠchÃºg": 8715,
      "Ġdoc": 8716,
      "Ġsiz": 8717,
      "Ġcuáº¥n": 8718,
      "Ġcuoc": 8719,
      "Ġcode": 8720,
      "Ġnáº¯mg": 8721,
      "ĠÄĳuc": 8722,
      "Ġsuong": 8723,
      "Ġsuáº©n": 8724,
      "Ġhá»ģnh": 8725,
      "ĠnghiÃªp": 8726,
      "Ġsol": 8727,
      "ĠsoÃ¡y": 8728,
      "Ġsoáº¡p": 8729,
      "Ġthá»Ńo": 8730,
      "ĠlÆ°Ã¡": 8731,
      "Ġtruá»ĵn": 8732,
      "Ġcá»§n": 8733,
      "ĠnhoÃ¡": 8734,
      "ĠvÃŃp": 8735,
      "Ġtáº¡y": 8736,
      "Ġlife": 8737,
      "ĠxÃ©c": 8738,
      "Ġmá»īn": 8739,
      "Ġmá»īnh": 8740,
      "Ġnat": 8741,
      "ĠdÃ£u": 8742,
      "Ġap": 8743,
      "Ġall": 8744,
      "Ġlá»ĭu": 8745,
      "Ġfáº£i": 8746,
      "Ġnhun": 8747,
      "Ġnail": 8748,
      "Ġnight": 8749,
      "Ġmuon": 8750,
      "Ġmuá»Ĺn": 8751,
      "ĠgÃ£nh": 8752,
      "Ġlets": 8753,
      "Ġtá»īu": 8754,
      "ĠÆ°Ã³c": 8755,
      "ĠÆ°á»Łn": 8756,
      "Ġduyen": 8757,
      "Ġbob": 8758,
      "Ġbok": 8759,
      "Ġboy": 8760,
      "Ġrá»ĥnh": 8761,
      "Ġhip": 8762,
      "Ġhill": 8763,
      "ĠmÄ©n": 8764,
      "Ġáº¿p": 8765,
      "ĠtÃ©c": 8766,
      "Ġkhá»īu": 8767,
      "Ġhall": 8768,
      "Ġtym": 8769,
      "Ġbeer": 8770,
      "Ġzd": 8771,
      "Ġzen": 8772,
      "ĠzÃº": 8773,
      "Ġkhac": 8774,
      "ĠrÃłu": 8775,
      "ĠbÃºk": 8776,
      "Ġ13": 8777,
      "ĠhÅ©u": 8778,
      "Ġkip": 8779,
      "Ġway": 8780,
      "Ġwho": 8781,
      "ĠheÃ³": 8782,
      "Ġgui": 8783,
      "Ġjo": 8784,
      "ĠÄĳá»Łi": 8785,
      "Ġrá»Łn": 8786,
      "ĠdzáºŃy": 8787,
      "Ġrá»ĭu": 8788,
      "Ġdeath": 8789,
      "ĠvÆ°Æ¡t": 8790,
      "ÄĳÃł": 8791,
      "Äĳá»ĥ": 8792,
      "ĠkhÃºy": 8793,
      "ĠbÆ°á»¡i": 8794,
      "Ġnghoe": 8795,
      "Ġná»Ŀm": 8796,
      "Ġluya": 8797,
      "Ġcáº¡u": 8798,
      "oween": 8799,
      "ĠÃ¨ng": 8800,
      "khi": 8801,
      "Ġthyá»ģn": 8802,
      "ĠmÆ°Æ¡": 8803,
      "gggg": 8804,
      "ĠyÃªá»¥": 8805,
      "Äģo": 8806,
      "ÅĦg": 8807,
      "á¹ĩ": 8808,
      "ĠplÃ¢y": 8809,
      "rus": 8810,
      "Ġdray": 8811,
      "Ġphá»ĭa": 8812,
      "Ġzoom": 8813,
      "ĠÄĳÃ¥ng": 8814,
      "ĠxÄ©n": 8815,
      ":âĢĿ]": 8816,
      "ĠmÄĥi": 8817,
      "Ġchrist": 8818,
      "Ġtromg": 8819,
      "Ġyvonne": 8820,
      "Ġhalloween": 8821,
      "03": 8822,
      "0978779728": 8823,
      "12": 8824,
      "85": 8825,
      "99": 8826,
      "ak": 8827,
      "as": 8828,
      "bo": 8829,
      "ber": 8830,
      "cá»§a": 8831,
      "dÃ¹": 8832,
      "ed": 8833,
      "ev": 8834,
      "eet": 8835,
      "ell": 8836,
      "gia": 8837,
      "gas": 8838,
      "ha": 8839,
      "he": 8840,
      "hm": 8841,
      "há»į": 8842,
      "if": 8843,
      "ion": 8844,
      "ilt": 8845,
      "lá»£i": 8846,
      "ma": 8847,
      "mo": 8848,
      "mt": 8849,
      "máº¹": 8850,
      "ment": 8851,
      "na": 8852,
      "nng": 8853,
      "nan": 8854,
      "pi": 8855,
      "ran": 8856,
      "rá»ĵi": 8857,
      "su": 8858,
      "uá»ĵn": 8859,
      "vn": 8860,
      "vÃł": 8861,
      "vÃ¬": 8862,
      "vá»ģ": 8863,
      "xu": 8864,
      "yÃªu": 8865,
      "Âµ": 8866,
      "Äĩ": 8867,
      "Ġ\"": 8868,
      "ĠÂ": 8869,
      "Ġáº§": 8870,
      "ĠÆ°á»Ľ": 8871,
      "Ġáº¹": 8872,
      "ĠÃłnh": 8873,
      "Ġáº¯m": 8874,
      "Ġáº«n": 8875,
      "Ġáº¿t": 8876,
      "Ġáº»": 8877,
      "ĠáºŃy": 8878,
      "Ġia": 8879,
      "Ġáº§ng": 8880,
      "Ġá»ıa": 8881,
      "Ġáº«y": 8882,
      "Ġá»¹": 8883,
      "ĠáºŃc": 8884,
      "ĠÃŃa": 8885,
      "ĠÃŃn": 8886,
      "Ġá»ĩch": 8887,
      "ĠÃ¢Ãº": 8888,
      "Ġtg": 8889,
      "Ġtm": 8890,
      "Ġtt": 8891,
      "Ġtnh": 8892,
      "Ġtá»įc": 8893,
      "Ġtá»Łi": 8894,
      "ĠtÃ¹i": 8895,
      "ĠtáºŃm": 8896,
      "ĠtÃ³a": 8897,
      "Ġtáº·n": 8898,
      "Ġcc": 8899,
      "ĠcuÃ´n": 8900,
      "Ġcá»įi": 8901,
      "ĠcuÃ´i": 8902,
      "ĠcÆ°á»Łi": 8903,
      "ĠcÃµm": 8904,
      "Ġcáº³t": 8905,
      "ĠÄĳd": 8906,
      "ĠÄĳy": 8907,
      "ĠÄĳÅ©": 8908,
      "ĠÄĳÃ¡ch": 8909,
      "ĠÄĳá»Ľm": 8910,
      "ĠÄĳáº£y": 8911,
      "ĠÄĳÃ¨m": 8912,
      "ĠÄĳáº±n": 8913,
      "ĠÄĳuá»Ļt": 8914,
      "ĠÄĳáº«ng": 8915,
      "ĠÄĳÆ°á»Ŀm": 8916,
      "ĠÄĳÄĥt": 8917,
      "ĠÄĳÆ°c": 8918,
      "ĠmÃ¢": 8919,
      "ĠmÆ°á»£c": 8920,
      "Ġmá»§a": 8921,
      "Ġmá»Łi": 8922,
      "Ġmáº±m": 8923,
      "Ġmiá»ħm": 8924,
      "Ġmáº½o": 8925,
      "ĠmÆ°á»£i": 8926,
      "ĠmÆ°c": 8927,
      "ĠmÃ¢i": 8928,
      "Ġmáº³t": 8929,
      "Æ°t": 8930,
      "Ġlh": 8931,
      "Ġlá»ĵn": 8932,
      "Ġlá»ı": 8933,
      "Ġlá»ģn": 8934,
      "Ġláº¥u": 8935,
      "ĠlÃ³m": 8936,
      "Ġliá»ħng": 8937,
      "Ġtháº¡": 8938,
      "Ġtháº¥": 8939,
      "ĠthÃłn": 8940,
      "Ġtháº¥n": 8941,
      "Ġthuyáº¿n": 8942,
      "Ġthá»©a": 8943,
      "Ġthuyá»ĥn": 8944,
      "Ġthiáº¿ng": 8945,
      "ĠthÃ£n": 8946,
      "ĠthÃŃn": 8947,
      "Ġthá»ħu": 8948,
      "ĠthÃ¢á»¥": 8949,
      "Ġbá»Ĺ": 8950,
      "ĠbÃ´m": 8951,
      "Ġbuá»ĳi": 8952,
      "Ġbáº·p": 8953,
      "ĠbÃµi": 8954,
      "ĠbÃ¡y": 8955,
      "ĠbÃ£n": 8956,
      "Ġbáº³n": 8957,
      "Ġbá»Ľp": 8958,
      "ĠbÄģo": 8959,
      "Ġchy": 8960,
      "Ġchá»ĳ": 8961,
      "Ġchá»±": 8962,
      "Ġchá»ĩn": 8963,
      "Ġcháº¹o": 8964,
      "Ġcháº»m": 8965,
      "Ġchuyáº¿t": 8966,
      "ĠchÃ¢t": 8967,
      "ĠchÄĥc": 8968,
      "ĠchÃ¢p": 8969,
      "Ġvn": 8970,
      "Ġvá»Ļ": 8971,
      "ĠvÆ°a": 8972,
      "Ġvá»Ĺi": 8973,
      "Ġvá»«": 8974,
      "Ġváº¥u": 8975,
      "Ġváº£o": 8976,
      "Ġváº¿ch": 8977,
      "Ġvá»³": 8978,
      "Ġhp": 8979,
      "ĠhÆ°a": 8980,
      "ĠhÃªu": 8981,
      "Ġháº³ng": 8982,
      "Ġhá»Ĺi": 8983,
      "Ġháº¥m": 8984,
      "Ġhá»Ľm": 8985,
      "ĠhÆ°á»Ŀn": 8986,
      "ĠhÃŃch": 8987,
      "Ġháº§ng": 8988,
      "ĠhÃ¡p": 8989,
      "Ġháº·c": 8990,
      "Ġháº«y": 8991,
      "ĠhÆ°á»£m": 8992,
      "ĠhÃŃnh": 8993,
      "ĠhÄĥt": 8994,
      "Ġháº¿nh": 8995,
      "Æ¡p": 8996,
      "Ġnn": 8997,
      "Ġná»Ŀi": 8998,
      "Ġná»ĵn": 8999,
      "Ġná»©": 9000,
      "Ġnáº«n": 9001,
      "ĠnÆ¡n": 9002,
      "Ġná»±": 9003,
      "Ġná»«": 9004,
      "Ġniá»ĩn": 9005,
      "ĠnÃ¨m": 9006,
      "Ġnáº§ng": 9007,
      "ĠnÃ²m": 9008,
      "ĠnÇİm": 9009,
      "Ġngi": 9010,
      "Ġngen": 9011,
      "ĠngÆ°a": 9012,
      "Ġngá»ķi": 9013,
      "Ġngá»ĳng": 9014,
      "Ġngiá»ĩt": 9015,
      "Ġngáº·p": 9016,
      "Ġngáº£y": 9017,
      "ĠngÃªnh": 9018,
      "Ġngáº·m": 9019,
      "Ġngá»ĭch": 9020,
      "Ġngá»ĵm": 9021,
      "Ġngáº¿ch": 9022,
      "Ġngáº¥ng": 9023,
      "ĠngÆ°á»Ŀm": 9024,
      "ĠngÃ¢t": 9025,
      "ĠngÄ©a": 9026,
      "Ġnguá»Ļn": 9027,
      "Ã´ÃŃ": 9028,
      "Ġtráº¥y": 9029,
      "ĠtrÃłi": 9030,
      "ĠtrÃ³ng": 9031,
      "Ġtráº³ng": 9032,
      "Ġtrá»¯ng": 9033,
      "Ġtráº¡n": 9034,
      "Ġtráº¥m": 9035,
      "ĠtrÃ¬m": 9036,
      "Ġtrá»ģn": 9037,
      "Ġtrá»©c": 9038,
      "Ġtriá»ģm": 9039,
      "Ġtrua": 9040,
      "Ġtrim": 9041,
      "ĠtrÃºp": 9042,
      "Ġtrá»ĩn": 9043,
      "Ġtrá»Ŀn": 9044,
      "Ġtruá»Ļi": 9045,
      "Ġtrá»ım": 9046,
      "ĠnhÃª": 9047,
      "Ġnháº§n": 9048,
      "ĠnhÃ²n": 9049,
      "ĠnhÃ¡ng": 9050,
      "Ġnháº¿n": 9051,
      "ĠnhÃ¬m": 9052,
      "Ġnhá»Ļi": 9053,
      "Ġnhá»«a": 9054,
      "Ġnhim": 9055,
      "Ġnhiá»ĩn": 9056,
      "ĠnhÆ°á»Ľm": 9057,
      "Ġnhá»©ng": 9058,
      "ĠnhÃ¢p": 9059,
      "Ġgl": 9060,
      "Ġgar": 9061,
      "Ġgá»ģ": 9062,
      "ĠgÃ´i": 9063,
      "Ġgá»į": 9064,
      "Ġgá»Ľi": 9065,
      "Ġgáº£nh": 9066,
      "ĠgÆ¡m": 9067,
      "Ġgua": 9068,
      "Ġgáº·n": 9069,
      "ĠgÃ¹n": 9070,
      "ĠgÃ²i": 9071,
      "Ġgá»¥t": 9072,
      "Ġgá»¥p": 9073,
      "Ġgum": 9074,
      "Ġget": 9075,
      "Ġgra": 9076,
      "Ġss": 9077,
      "Ġsáº§": 9078,
      "ĠsÆ°á»Ŀi": 9079,
      "ĠsÆ°á»Ŀng": 9080,
      "Ġsáº³ng": 9081,
      "ĠsiÃªn": 9082,
      "ĠsÃ¬n": 9083,
      "ĠsÃºi": 9084,
      "ĠsÃ©p": 9085,
      "ĠsÃ£ng": 9086,
      "Ġsom": 9087,
      "Ġsuá»ĳc": 9088,
      "ĠsÃ²i": 9089,
      "Ġsáº©u": 9090,
      "ĠsÃºm": 9091,
      "Ġsáº£m": 9092,
      "Ġsá»ĩch": 9093,
      "Ġspa": 9094,
      "Ġkar": 9095,
      "ĠkÃ¡c": 9096,
      "Ġkáº£i": 9097,
      "Ġkáº¿ch": 9098,
      "ĠdÃ¡": 9099,
      "Ġdá»¯a": 9100,
      "ĠdÃ¡ch": 9101,
      "ĠdiÃªng": 9102,
      "Ġdá»§a": 9103,
      "Ġdiá»ĥn": 9104,
      "ĠdÃºng": 9105,
      "Ġdáº£ng": 9106,
      "ĠdÃ£o": 9107,
      "ĠdÆ°á»Ľng": 9108,
      "Ġdá»ģm": 9109,
      "Ġdiáº¿u": 9110,
      "Ġdá»Ļn": 9111,
      "ĠdÃ¨n": 9112,
      "ĠdÃŃch": 9113,
      "Ġdáº§ng": 9114,
      "ĠdÄ©nh": 9115,
      "ĠdÄĥc": 9116,
      "ĠdÅį": 9117,
      "Ġdáº§á»¥": 9118,
      "Ġxá»Ľ": 9119,
      "Ġxá»ĵi": 9120,
      "ĠxÃ¹ng": 9121,
      "ĠxÃłnh": 9122,
      "Ġxáº£i": 9123,
      "ĠxÃ¹a": 9124,
      "ĠxÃ¬n": 9125,
      "Ġxuá»ĳi": 9126,
      "Ġxuá»ĳn": 9127,
      "Ġxá»Ľm": 9128,
      "Ġxá»ĳt": 9129,
      "Ġxuyá»ĥn": 9130,
      "ĠxÃ³n": 9131,
      "Ġxáº¡p": 9132,
      "ĠxÃŃa": 9133,
      "Ġxá»Ļp": 9134,
      "á»Ľng": 9135,
      "Ġrá»©": 9136,
      "Ġrá»¯ng": 9137,
      "ĠrÆ°á»£c": 9138,
      "Ġrá»«": 9139,
      "Ġráº¥n": 9140,
      "ĠrÃ£ng": 9141,
      "ĠrÃ³m": 9142,
      "Ġrá»ıng": 9143,
      "ĠrÃµng": 9144,
      "Ġrá»Ľn": 9145,
      "Ġrá»Ļt": 9146,
      "Ġrá»³": 9147,
      "ĠrÄĵ": 9148,
      "ĠkhÃ¢y": 9149,
      "Ġkhon": 9150,
      "ĠkhÃ©": 9151,
      "ĠkhÃµi": 9152,
      "Ġkhá»£i": 9153,
      "Ġkhá»ĳt": 9154,
      "Ġkhá»ĭt": 9155,
      "Ġkháº·c": 9156,
      "ĠkhÃŃu": 9157,
      "Ġkhá»ıng": 9158,
      "ĠkhÃŃnh": 9159,
      "ĠkhÃ£n": 9160,
      "ĠkhÆ°Æ¡n": 9161,
      "ĠkhÆ°á»Łng": 9162,
      "ĠkhÃµa": 9163,
      "Ġkhá»¥m": 9164,
      "Ġkhá»Ļp": 9165,
      "ĠkhÄĥc": 9166,
      "Ġgii": 9167,
      "ĠgiÃ¹": 9168,
      "Ġgiau": 9169,
      "Ġgiáº¡n": 9170,
      "ĠgiÃµ": 9171,
      "Ġgiá»ģn": 9172,
      "Ġgiáº¡i": 9173,
      "Ġgiáº·p": 9174,
      "Ġgiáº«u": 9175,
      "Ġgiáº·n": 9176,
      "Ġgiáº©u": 9177,
      "ĠgiáºŃc": 9178,
      "Ġgiá»¥m": 9179,
      "áº¯y": 9180,
      "ĠpÃº": 9181,
      "Ġpá»ı": 9182,
      "Ġpáº¡c": 9183,
      "Ġpun": 9184,
      "Ġpum": 9185,
      "ĠpÄĥc": 9186,
      "ĠphÃłi": 9187,
      "Ġpháº±ng": 9188,
      "Ġphuá»ĳng": 9189,
      "ĠphÃªnh": 9190,
      "Ġphia": 9191,
      "Ġphá»©a": 9192,
      "Ġphá»ĭch": 9193,
      "Ġpháº¹t": 9194,
      "Ġpháºµng": 9195,
      "ĠphÃ¢t": 9196,
      "Ġqi": 9197,
      "Ġquá»Ľ": 9198,
      "Ġquáº¯m": 9199,
      "Ġquáº¡n": 9200,
      "Ġquáº±m": 9201,
      "ĠquÃŃch": 9202,
      "Ġquá»Ľt": 9203,
      "ĠquÃŃu": 9204,
      "ĠquÃ´c": 9205,
      "Äĥr": 9206,
      "ember": 9207,
      "Ġemmá»Ļt": 9208,
      "Ġemail": 9209,
      "ando": 9210,
      "one": 9211,
      "áº·ch": 9212,
      "Ġhoáº£n": 9213,
      "Ġvá»ģu": 9214,
      "Ġngháº¿": 9215,
      "Ġngháº¹": 9216,
      "Ġngháº½": 9217,
      "Ġnghá»ĩnh": 9218,
      "Ġyen": 9219,
      "ĠyÄĥ": 9220,
      "ĠÄĳia": 9221,
      "ĠcÃ³a": 9222,
      "ĠchoÄĥng": 9223,
      "Ġchoáº¯t": 9224,
      "Ġchoáº¡c": 9225,
[...]
